{
  "version": "1.0",
  "truncation": null,
  "padding": null,
  "added_tokens": [
    {
      "id": 0,
      "content": "<pad>",
      "single_word": false,
      "lstrip": false,
      "rstrip": false,
      "normalized": false,
      "special": true
    },
    {
      "id": 1,
      "content": "<bos>",
      "single_word": false,
      "lstrip": false,
      "rstrip": false,
      "normalized": false,
      "special": true
    },
    {
      "id": 2,
      "content": "<eos>",
      "single_word": false,
      "lstrip": false,
      "rstrip": false,
      "normalized": false,
      "special": true
    },
    {
      "id": 3,
      "content": "<unk>",
      "single_word": false,
      "lstrip": false,
      "rstrip": false,
      "normalized": false,
      "special": true
    }
  ],
  "normalizer": null,
  "pre_tokenizer": {
    "type": "Whitespace"
  },
  "post_processor": null,
  "decoder": null,
  "model": {
    "type": "BPE",
    "dropout": null,
    "unk_token": "<unk>",
    "continuing_subword_prefix": null,
    "end_of_word_suffix": null,
    "fuse_unk": false,
    "byte_fallback": false,
    "ignore_merges": false,
    "vocab": {
      "<pad>": 0,
      "<bos>": 1,
      "<eos>": 2,
      "<unk>": 3,
      "!": 4,
      "\"": 5,
      "$": 6,
      "%": 7,
      "&": 8,
      "'": 9,
      "+": 10,
      ",": 11,
      "-": 12,
      ".": 13,
      "/": 14,
      "0": 15,
      "1": 16,
      "2": 17,
      "3": 18,
      "4": 19,
      "5": 20,
      "6": 21,
      "7": 22,
      "8": 23,
      "9": 24,
      ":": 25,
      ";": 26,
      "<": 27,
      ">": 28,
      "?": 29,
      "a": 30,
      "b": 31,
      "c": 32,
      "d": 33,
      "e": 34,
      "f": 35,
      "g": 36,
      "h": 37,
      "i": 38,
      "j": 39,
      "k": 40,
      "l": 41,
      "m": 42,
      "n": 43,
      "o": 44,
      "p": 45,
      "q": 46,
      "r": 47,
      "s": 48,
      "t": 49,
      "u": 50,
      "v": 51,
      "w": 52,
      "x": 53,
      "y": 54,
      "z": 55,
      "¥": 56,
      "°": 57,
      "´": 58,
      "º": 59,
      "á": 60,
      "ã": 61,
      "ç": 62,
      "è": 63,
      "é": 64,
      "ê": 65,
      "í": 66,
      "ï": 67,
      "ó": 68,
      "ö": 69,
      "ú": 70,
      "ü": 71,
      "č": 72,
      "а": 73,
      "о": 74,
      "​": 75,
      "‎": 76,
      "’": 77,
      "₂": 78,
      "€": 79,
      "ﬁ": 80,
      "ﬂ": 81,
      "﻿": 82,
      "os": 83,
      "eos": 84,
      "th": 85,
      "to": 86,
      "in": 87,
      "ou": 88,
      "er": 89,
      "an": 90,
      "the": 91,
      "is": 92,
      "re": 93,
      "on": 94,
      "at": 95,
      "you": 96,
      "tom": 97,
      "ed": 98,
      "ing": 99,
      "me": 100,
      "as": 101,
      "he": 102,
      "ar": 103,
      "ll": 104,
      "en": 105,
      "or": 106,
      "it": 107,
      "ve": 108,
      "le": 109,
      "st": 110,
      "ha": 111,
      "no": 112,
      "be": 113,
      "do": 114,
      "wh": 115,
      "of": 116,
      "ld": 117,
      "ay": 118,
      "we": 119,
      "id": 120,
      "se": 121,
      "ch": 122,
      "ke": 123,
      "ere": 124,
      "go": 125,
      "that": 126,
      "li": 127,
      "ro": 128,
      "was": 129,
      "wi": 130,
      "ver": 131,
      "al": 132,
      "for": 133,
      "es": 134,
      "gh": 135,
      "ome": 136,
      "and": 137,
      "all": 138,
      "have": 139,
      "ne": 140,
      "ti": 141,
      "this": 142,
      "are": 143,
      "ri": 144,
      "ould": 145,
      "ge": 146,
      "my": 147,
      "out": 148,
      "ce": 149,
      "one": 150,
      "ad": 151,
      "ant": 152,
      "can": 153,
      "lo": 154,
      "ght": 155,
      "mar": 156,
      "what": 157,
      "now": 158,
      "te": 159,
      "his": 160,
      "ab": 161,
      "ho": 162,
      "ly": 163,
      "don": 164,
      "us": 165,
      "with": 166,
      "un": 167,
      "want": 168,
      "mary": 169,
      "she": 170,
      "ac": 171,
      "did": 172,
      "thing": 173,
      "ok": 174,
      "im": 175,
      "not": 176,
      "ter": 177,
      "pe": 178,
      "your": 179,
      "any": 180,
      "ther": 181,
      "ent": 182,
      "very": 183,
      "pp": 184,
      "su": 185,
      "co": 186,
      "ir": 187,
      "know": 188,
      "ic": 189,
      "like": 190,
      "some": 191,
      "bo": 192,
      "fe": 193,
      "ake": 194,
      "tr": 195,
      "ink": 196,
      "ust": 197,
      "ion": 198,
      "am": 199,
      "ain": 200,
      "ut": 201,
      "wor": 202,
      "mo": 203,
      "get": 204,
      "day": 205,
      "him": 206,
      "pl": 207,
      "up": 208,
      "there": 209,
      "time": 210,
      "so": 211,
      "how": 212,
      "if": 213,
      "they": 214,
      "has": 215,
      "sh": 216,
      "her": 217,
      "think": 218,
      "ple": 219,
      "about": 220,
      "sa": 221,
      "had": 222,
      "ur": 223,
      "de": 224,
      "od": 225,
      "will": 226,
      "end": 227,
      "way": 228,
      "see": 229,
      "would": 230,
      "didn": 231,
      "here": 232,
      "ye": 233,
      "rom": 234,
      "ex": 235,
      "ate": 236,
      "ak": 237,
      "ong": 238,
      "does": 239,
      "tell": 240,
      "oun": 241,
      "ag": 242,
      "alk": 243,
      "just": 244,
      "going": 245,
      "ind": 246,
      "whe": 247,
      "ard": 248,
      "ight": 249,
      "happ": 250,
      "our": 251,
      "ish": 252,
      "look": 253,
      "could": 254,
      "fo": 255,
      "work": 256,
      "ca": 257,
      "ally": 258,
      "ry": 259,
      "let": 260,
      "qu": 261,
      "con": 262,
      "pro": 263,
      "ble": 264,
      "need": 265,
      "from": 266,
      "ive": 267,
      "ast": 268,
      "should": 269,
      "by": 270,
      "every": 271,
      "ill": 272,
      "were": 273,
      "ul": 274,
      "got": 275,
      "come": 276,
      "po": 277,
      "com": 278,
      "hel": 279,
      "been": 280,
      "when": 281,
      "help": 282,
      "ack": 283,
      "per": 284,
      "res": 285,
      "fa": 286,
      "der": 287,
      "take": 288,
      "art": 289,
      "ase": 290,
      "who": 291,
      "ten": 292,
      "wn": 293,
      "il": 294,
      "ree": 295,
      "new": 296,
      "good": 297,
      "jo": 298,
      "af": 299,
      "ought": 300,
      "ation": 301,
      "ave": 302,
      "sto": 303,
      "why": 304,
      "where": 305,
      "than": 306,
      "more": 307,
      "read": 308,
      "ts": 309,
      "talk": 310,
      "man": 311,
      "but": 312,
      "doesn": 313,
      "ren": 314,
      "ep": 315,
      "ach": 316,
      "ting": 317,
      "never": 318,
      "ound": 319,
      "something": 320,
      "ol": 321,
      "car": 322,
      "ask": 323,
      "lf": 324,
      "dy": 325,
      "ig": 326,
      "ck": 327,
      "told": 328,
      "spe": 329,
      "ven": 330,
      "ide": 331,
      "ton": 332,
      "off": 333,
      "uch": 334,
      "red": 335,
      "happen": 336,
      "make": 337,
      "ted": 338,
      "ap": 339,
      "say": 340,
      "ost": 341,
      "home": 342,
      "el": 343,
      "ous": 344,
      "ine": 345,
      "ite": 346,
      "use": 347,
      "please": 348,
      "won": 349,
      "back": 350,
      "ang": 351,
      "ice": 352,
      "other": 353,
      "really": 354,
      "ra": 355,
      "much": 356,
      "men": 357,
      "cl": 358,
      "mb": 359,
      "cho": 360,
      "wo": 361,
      "bu": 362,
      "able": 363,
      "row": 364,
      "stu": 365,
      "ess": 366,
      "riend": 367,
      "sp": 368,
      "right": 369,
      "ved": 370,
      "ose": 371,
      "ars": 372,
      "gl": 373,
      "long": 374,
      "too": 375,
      "said": 376,
      "give": 377,
      "eat": 378,
      "fore": 379,
      "om": 380,
      "book": 381,
      "last": 382,
      "ving": 383,
      "ie": 384,
      "ty": 385,
      "bus": 386,
      "oney": 387,
      "ass": 388,
      "ild": 389,
      "ning": 390,
      "self": 391,
      "try": 392,
      "speak": 393,
      "friend": 394,
      "money": 395,
      "ade": 396,
      "ried": 397,
      "ople": 398,
      "bet": 399,
      "people": 400,
      "anything": 401,
      "play": 402,
      "tion": 403,
      "blem": 404,
      "problem": 405,
      "wr": 406,
      "bos": 407,
      "thought": 408,
      "ough": 409,
      "over": 410,
      "room": 411,
      "stay": 412,
      "au": 413,
      "ct": 414,
      "ick": 415,
      "mis": 416,
      "call": 417,
      "wat": 418,
      "ers": 419,
      "ouse": 420,
      "went": 421,
      "many": 422,
      "ort": 423,
      "after": 424,
      "put": 425,
      "tle": 426,
      "gu": 427,
      "ful": 428,
      "ret": 429,
      "dis": 430,
      "house": 431,
      "made": 432,
      "int": 433,
      "pr": 434,
      "age": 435,
      "ans": 436,
      "into": 437,
      "must": 438,
      "boston": 439,
      "lot": 440,
      "dr": 441,
      "before": 442,
      "under": 443,
      "may": 444,
      "gr": 445,
      "only": 446,
      "ame": 447,
      "ways": 448,
      "down": 449,
      "stand": 450,
      "sure": 451,
      "lit": 452,
      "br": 453,
      "care": 454,
      "est": 455,
      "scho": 456,
      "school": 457,
      "ure": 458,
      "child": 459,
      "pen": 460,
      "wa": 461,
      "body": 462,
      "again": 463,
      "always": 464,
      "son": 465,
      "three": 466,
      "live": 467,
      "came": 468,
      "urn": 469,
      "cle": 470,
      "old": 471,
      "app": 472,
      "orrow": 473,
      "les": 474,
      "si": 475,
      "night": 476,
      "well": 477,
      "isn": 478,
      "better": 479,
      "lie": 480,
      "used": 481,
      "leave": 482,
      "father": 483,
      "feel": 484,
      "part": 485,
      "di": 486,
      "fin": 487,
      "hand": 488,
      "wee": 489,
      "plan": 490,
      "two": 491,
      "today": 492,
      "che": 493,
      "rench": 494,
      "seem": 495,
      "ity": 496,
      "french": 497,
      "wait": 498,
      "bro": 499,
      "love": 500,
      "hard": 501,
      "ft": 502,
      "find": 503,
      "mee": 504,
      "wanted": 505,
      "ment": 506,
      "still": 507,
      "wer": 508,
      "ance": 509,
      "asked": 510,
      "little": 511,
      "week": 512,
      "ress": 513,
      "job": 514,
      "whi": 515,
      "ever": 516,
      "them": 517,
      "sho": 518,
      "xt": 519,
      "mon": 520,
      "tru": 521,
      "happened": 522,
      "left": 523,
      "mber": 524,
      "late": 525,
      "cid": 526,
      "buy": 527,
      "happy": 528,
      "tomorrow": 529,
      "walk": 530,
      "ready": 531,
      "ci": 532,
      "tor": 533,
      "took": 534,
      "quest": 535,
      "aren": 536,
      "bl": 537,
      "years": 538,
      "mor": 539,
      "ster": 540,
      "next": 541,
      "vis": 542,
      "ated": 543,
      "nothing": 544,
      "most": 545,
      "act": 546,
      "pa": 547,
      "their": 548,
      "leep": 549,
      "start": 550,
      "ence": 551,
      "keep": 552,
      "fi": 553,
      "even": 554,
      "ear": 555,
      "sm": 556,
      "belie": 557,
      "fir": 558,
      "par": 559,
      "tic": 560,
      "iff": 561,
      "pos": 562,
      "question": 563,
      "ph": 564,
      "pt": 565,
      "gre": 566,
      "couldn": 567,
      "cer": 568,
      "doing": 569,
      "min": 570,
      "engl": 571,
      "ner": 572,
      "everything": 573,
      "ru": 574,
      "sit": 575,
      "diff": 576,
      "mother": 577,
      "teach": 578,
      "away": 579,
      "saw": 580,
      "mat": 581,
      "soon": 582,
      "ary": 583,
      "comp": 584,
      "ace": 585,
      "gir": 586,
      "understand": 587,
      "yester": 588,
      "yesterday": 589,
      "door": 590,
      "done": 591,
      "these": 592,
      "boy": 593,
      "ise": 594,
      "win": 595,
      "first": 596,
      "drink": 597,
      "dog": 598,
      "gave": 599,
      "watch": 600,
      "heard": 601,
      "english": 602,
      "children": 603,
      "ist": 604,
      "jap": 605,
      "japan": 606,
      "believe": 607,
      "wasn": 608,
      "port": 609,
      "things": 610,
      "big": 611,
      "rain": 612,
      "med": 613,
      "turn": 614,
      "cause": 615,
      "hour": 616,
      "coun": 617,
      "life": 618,
      "show": 619,
      "sur": 620,
      "bed": 621,
      "friends": 622,
      "lu": 623,
      "hi": 624,
      "morning": 625,
      "bad": 626,
      "around": 627,
      "stop": 628,
      "pic": 629,
      "ange": 630,
      "cat": 631,
      "wants": 632,
      "busy": 633,
      "party": 634,
      "sleep": 635,
      "dri": 636,
      "ily": 637,
      "wrong": 638,
      "reme": 639,
      "enough": 640,
      "name": 641,
      "kind": 642,
      "fam": 643,
      "mind": 644,
      "bab": 645,
      "ow": 646,
      "looking": 647,
      "tain": 648,
      "finish": 649,
      "hur": 650,
      "open": 651,
      "erest": 652,
      "being": 653,
      "study": 654,
      "hear": 655,
      "side": 656,
      "ull": 657,
      "ious": 658,
      "alone": 659,
      "dent": 660,
      "la": 661,
      "ket": 662,
      "arm": 663,
      "beg": 664,
      "year": 665,
      "bre": 666,
      "fr": 667,
      "sing": 668,
      "because": 669,
      "knows": 670,
      "aking": 671,
      "girl": 672,
      "best": 673,
      "interest": 674,
      "found": 675,
      "run": 676,
      "ger": 677,
      "looks": 678,
      "ies": 679,
      "supp": 680,
      "without": 681,
      "days": 682,
      "might": 683,
      "train": 684,
      "lear": 685,
      "wouldn": 686,
      "pret": 687,
      "ited": 688,
      "light": 689,
      "few": 690,
      "hope": 691,
      "person": 692,
      "des": 693,
      "ually": 694,
      "seen": 695,
      "ath": 696,
      "cold": 697,
      "wonder": 698,
      "seems": 699,
      "knew": 700,
      "pre": 701,
      "wish": 702,
      "air": 703,
      "already": 704,
      "yet": 705,
      "student": 706,
      "mp": 707,
      "pri": 708,
      "tri": 709,
      "while": 710,
      "phone": 711,
      "swi": 712,
      "place": 713,
      "getting": 714,
      "rest": 715,
      "same": 716,
      "ince": 717,
      "fun": 718,
      "arri": 719,
      "idea": 720,
      "swim": 721,
      "often": 722,
      "vor": 723,
      "remember": 724,
      "each": 725,
      "amer": 726,
      "youn": 727,
      "str": 728,
      "someone": 729,
      "answer": 730,
      "pay": 731,
      "anyone": 732,
      "ult": 733,
      "clo": 734,
      "iz": 735,
      "teacher": 736,
      "hun": 737,
      "bought": 738,
      "ju": 739,
      "water": 740,
      "looked": 741,
      "ign": 742,
      "fast": 743,
      "lost": 744,
      "everyone": 745,
      "din": 746,
      "eas": 747,
      "ised": 748,
      "sat": 749,
      "fee": 750,
      "pped": 751,
      "matter": 752,
      "head": 753,
      "meeting": 754,
      "flo": 755,
      "times": 756,
      "food": 757,
      "great": 758,
      "doc": 759,
      "coming": 760,
      "bit": 761,
      "tried": 762,
      "sis": 763,
      "cor": 764,
      "lice": 765,
      "expe": 766,
      "class": 767,
      "ser": 768,
      "cident": 769,
      "pres": 770,
      "met": 771,
      "miss": 772,
      "ail": 773,
      "sor": 774,
      "hn": 775,
      "cr": 776,
      "lt": 777,
      "john": 778,
      "plain": 779,
      "toge": 780,
      "together": 781,
      "letter": 782,
      "haven": 783,
      "lis": 784,
      "another": 785,
      "else": 786,
      "sun": 787,
      "talking": 788,
      "brother": 789,
      "cess": 790,
      "both": 791,
      "pain": 792,
      "own": 793,
      "meet": 794,
      "possi": 795,
      "ky": 796,
      "word": 797,
      "month": 798,
      "learn": 799,
      "married": 800,
      "once": 801,
      "beau": 802,
      "beauti": 803,
      "je": 804,
      "00": 805,
      "table": 806,
      "ced": 807,
      "himself": 808,
      "paren": 809,
      "wear": 810,
      "having": 811,
      "pict": 812,
      "kill": 813,
      "beautiful": 814,
      "less": 815,
      "thank": 816,
      "listen": 817,
      "since": 818,
      "mistake": 819,
      "hair": 820,
      "accident": 821,
      "parents": 822,
      "gest": 823,
      "ago": 824,
      "ater": 825,
      "dinner": 826,
      "police": 827,
      "rough": 828,
      "trying": 829,
      "doctor": 830,
      "ball": 831,
      "cted": 832,
      "ue": 833,
      "quite": 834,
      "bor": 835,
      "vo": 836,
      "dress": 837,
      "ream": 838,
      "omen": 839,
      "tired": 840,
      "mer": 841,
      "sec": 842,
      "unti": 843,
      "osed": 844,
      "ank": 845,
      "until": 846,
      "sorry": 847,
      "ouble": 848,
      "sug": 849,
      "such": 850,
      "favor": 851,
      "hours": 852,
      ".\"": 853,
      "cof": 854,
      "pass": 855,
      "cent": 856,
      "break": 857,
      "coffee": 858,
      "ys": 859,
      "true": 860,
      "early": 861,
      "pretty": 862,
      "surpr": 863,
      "started": 864,
      "young": 865,
      "diffic": 866,
      "raid": 867,
      "died": 868,
      "office": 869,
      "likes": 870,
      "sister": 871,
      "led": 872,
      "set": 873,
      "working": 874,
      "afraid": 875,
      "unch": 876,
      "cont": 877,
      "nice": 878,
      "those": 879,
      "reas": 880,
      "adv": 881,
      "anger": 882,
      "called": 883,
      "family": 884,
      "suc": 885,
      "full": 886,
      "says": 887,
      "mus": 888,
      "cus": 889,
      "vie": 890,
      "decid": 891,
      "ses": 892,
      "through": 893,
      "world": 894,
      "books": 895,
      "ip": 896,
      "sick": 897,
      "almost": 898,
      "high": 899,
      "ather": 900,
      "bir": 901,
      "trouble": 902,
      "utes": 903,
      "far": 904,
      "sha": 905,
      "park": 906,
      "decided": 907,
      "ces": 908,
      "station": 909,
      "minutes": 910,
      "nu": 911,
      "truth": 912,
      "which": 913,
      "ese": 914,
      "myself": 915,
      "iness": 916,
      "town": 917,
      "cook": 918,
      "possible": 919,
      "change": 920,
      "lic": 921,
      "yourself": 922,
      "yes": 923,
      "sent": 924,
      "inv": 925,
      "music": 926,
      "mit": 927,
      "ste": 928,
      "writ": 929,
      "differ": 930,
      "ian": 931,
      "oss": 932,
      "order": 933,
      "import": 934,
      "thir": 935,
      "ital": 936,
      "alth": 937,
      "war": 938,
      "arge": 939,
      "fish": 940,
      "near": 941,
      "um": 942,
      "llow": 943,
      "wife": 944,
      "press": 945,
      "ves": 946,
      "finished": 947,
      "five": 948,
      "lunch": 949,
      "ward": 950,
      "noon": 951,
      "questions": 952,
      "enjo": 953,
      "fer": 954,
      "tonight": 955,
      "prom": 956,
      "chance": 957,
      "company": 958,
      "sound": 959,
      "small": 960,
      "students": 961,
      "du": 962,
      "pick": 963,
      "ating": 964,
      "dow": 965,
      "ared": 966,
      "playing": 967,
      "lau": 968,
      "shouldn": 969,
      "suggest": 970,
      "gg": 971,
      "cked": 972,
      "ition": 973,
      "ob": 974,
      "doll": 975,
      "needs": 976,
      "ction": 977,
      "road": 978,
      "fire": 979,
      "cons": 980,
      "waiting": 981,
      "anymore": 982,
      "deal": 983,
      "ates": 984,
      "ken": 985,
      "difficult": 986,
      "certain": 987,
      "gi": 988,
      "ali": 989,
      "att": 990,
      "lle": 991,
      "kyo": 992,
      "game": 993,
      "mean": 994,
      "dec": 995,
      "reading": 996,
      "hurt": 997,
      "news": 998,
      "japanese": 999,
      "form": 1000,
      "felt": 1001,
      "visit": 1002,
      "everybody": 1003,
      "favorite": 1004,
      "dro": 1005,
      "angry": 1006,
      "reason": 1007,
      "enjoy": 1008,
      "cau": 1009,
      "turned": 1010,
      "easy": 1011,
      "vi": 1012,
      "window": 1013,
      "trust": 1014,
      "probab": 1015,
      "low": 1016,
      "picture": 1017,
      "test": 1018,
      "important": 1019,
      "gone": 1020,
      "ot": 1021,
      "city": 1022,
      "op": 1023,
      "den": 1024,
      "safe": 1025,
      "probably": 1026,
      "arrived": 1027,
      "lives": 1028,
      "write": 1029,
      "country": 1030,
      "business": 1031,
      "ele": 1032,
      "ship": 1033,
      "close": 1034,
      "ze": 1035,
      "sum": 1036,
      "pital": 1037,
      "worry": 1038,
      "aught": 1039,
      "danger": 1040,
      "ark": 1041,
      "weather": 1042,
      "hung": 1043,
      "ran": 1044,
      "cut": 1045,
      "tv": 1046,
      "then": 1047,
      "tele": 1048,
      "hot": 1049,
      "usually": 1050,
      "clean": 1051,
      "baby": 1052,
      "caught": 1053,
      "later": 1054,
      "nobody": 1055,
      "eyes": 1056,
      "ub": 1057,
      "longer": 1058,
      "cond": 1059,
      "spend": 1060,
      "problems": 1061,
      "kid": 1062,
      "feeling": 1063,
      "sk": 1064,
      "tre": 1065,
      "ush": 1066,
      "log": 1067,
      "agree": 1068,
      "afternoon": 1069,
      "fail": 1070,
      "makes": 1071,
      "sen": 1072,
      "surprised": 1073,
      "number": 1074,
      "case": 1075,
      "free": 1076,
      "its": 1077,
      "stup": 1078,
      "ute": 1079,
      "drive": 1080,
      "?\"": 1081,
      "ider": 1082,
      "ta": 1083,
      "oud": 1084,
      "laugh": 1085,
      "stupid": 1086,
      "taking": 1087,
      "thinking": 1088,
      "face": 1089,
      "story": 1090,
      "appe": 1091,
      "secret": 1092,
      "mi": 1093,
      "ps": 1094,
      "sc": 1095,
      "ash": 1096,
      "exam": 1097,
      "health": 1098,
      "maybe": 1099,
      "30": 1100,
      "lang": 1101,
      "momen": 1102,
      "ont": 1103,
      "stree": 1104,
      "kept": 1105,
      "concer": 1106,
      "bag": 1107,
      "langu": 1108,
      "bill": 1109,
      "colle": 1110,
      "exc": 1111,
      "follow": 1112,
      "walked": 1113,
      "living": 1114,
      "bring": 1115,
      "law": 1116,
      "cli": 1117,
      "eating": 1118,
      "dream": 1119,
      "six": 1120,
      "broke": 1121,
      "cy": 1122,
      "gen": 1123,
      "nis": 1124,
      "als": 1125,
      "appo": 1126,
      "begin": 1127,
      "cannot": 1128,
      "front": 1129,
      "forget": 1130,
      "tel": 1131,
      "mine": 1132,
      "box": 1133,
      "ref": 1134,
      "along": 1135,
      "interested": 1136,
      "moment": 1137,
      "forgot": 1138,
      "homework": 1139,
      "hos": 1140,
      "enter": 1141,
      "anybody": 1142,
      "comple": 1143,
      "tennis": 1144,
      "consider": 1145,
      "street": 1146,
      "wall": 1147,
      "fight": 1148,
      "reg": 1149,
      "ative": 1150,
      "explain": 1151,
      "clear": 1152,
      "spo": 1153,
      "fell": 1154,
      "quick": 1155,
      "movie": 1156,
      "glad": 1157,
      "iet": 1158,
      "land": 1159,
      "hotel": 1160,
      "comes": 1161,
      "against": 1162,
      "interesting": 1163,
      "pon": 1164,
      "build": 1165,
      "paper": 1166,
      "advice": 1167,
      "ef": 1168,
      "hor": 1169,
      "ned": 1170,
      "goes": 1171,
      "woman": 1172,
      "began": 1173,
      "exact": 1174,
      "wearing": 1175,
      "av": 1176,
      "lived": 1177,
      "hold": 1178,
      "oking": 1179,
      "aw": 1180,
      "present": 1181,
      "making": 1182,
      "ness": 1183,
      "shoes": 1184,
      "store": 1185,
      "plane": 1186,
      "clock": 1187,
      "ding": 1188,
      "ring": 1189,
      "tak": 1190,
      "eng": 1191,
      "dollars": 1192,
      "grand": 1193,
      "summer": 1194,
      "large": 1195,
      "careful": 1196,
      "hind": 1197,
      "chang": 1198,
      "hospital": 1199,
      "fic": 1200,
      "serious": 1201,
      "snow": 1202,
      "catch": 1203,
      "inter": 1204,
      "behind": 1205,
      "vers": 1206,
      "hasn": 1207,
      "ular": 1208,
      "cour": 1209,
      "kis": 1210,
      "pat": 1211,
      "hungry": 1212,
      "wash": 1213,
      "known": 1214,
      "sol": 1215,
      "trave": 1216,
      "hands": 1217,
      "dark": 1218,
      "became": 1219,
      "ended": 1220,
      "needed": 1221,
      "return": 1222,
      "exactly": 1223,
      "hu": 1224,
      "ming": 1225,
      "cur": 1226,
      "gets": 1227,
      "short": 1228,
      "whole": 1229,
      "killed": 1230,
      "ma": 1231,
      "birth": 1232,
      "mr": 1233,
      "mes": 1234,
      "conf": 1235,
      "stayed": 1236,
      "cry": 1237,
      "suit": 1238,
      "taken": 1239,
      "hes": 1240,
      "whether": 1241,
      "tention": 1242,
      "offer": 1243,
      "cup": 1244,
      "fig": 1245,
      "tokyo": 1246,
      "tely": 1247,
      "expen": 1248,
      "ked": 1249,
      "cover": 1250,
      "death": 1251,
      "trip": 1252,
      "cou": 1253,
      "river": 1254,
      "works": 1255,
      "talked": 1256,
      "expect": 1257,
      "fac": 1258,
      "nei": 1259,
      "supposed": 1260,
      "song": 1261,
      "stood": 1262,
      "fort": 1263,
      "tive": 1264,
      "different": 1265,
      "ient": 1266,
      "ni": 1267,
      "leg": 1268,
      "ween": 1269,
      "key": 1270,
      "success": 1271,
      "cri": 1272,
      "cept": 1273,
      "az": 1274,
      "pop": 1275,
      "fine": 1276,
      "hate": 1277,
      "aged": 1278,
      "studying": 1279,
      "cal": 1280,
      "sive": 1281,
      "ures": 1282,
      "wers": 1283,
      "telling": 1284,
      "check": 1285,
      "fall": 1286,
      "stopped": 1287,
      "ev": 1288,
      "tall": 1289,
      "half": 1290,
      "outside": 1291,
      "unk": 1292,
      "uter": 1293,
      "ched": 1294,
      "luck": 1295,
      "hit": 1296,
      "strong": 1297,
      "thirty": 1298,
      "fl": 1299,
      "tory": 1300,
      "exper": 1301,
      "ican": 1302,
      "guess": 1303,
      "computer": 1304,
      "coat": 1305,
      "between": 1306,
      "loves": 1307,
      "ded": 1308,
      "hat": 1309,
      "sed": 1310,
      "sel": 1311,
      "point": 1312,
      "fully": 1313,
      "asses": 1314,
      "thes": 1315,
      "second": 1316,
      "ceed": 1317,
      "thinks": 1318,
      "uring": 1319,
      "sitting": 1320,
      "breakfast": 1321,
      "building": 1322,
      "band": 1323,
      "ff": 1324,
      "mil": 1325,
      "lying": 1326,
      "daught": 1327,
      "move": 1328,
      "ately": 1329,
      "ations": 1330,
      "reach": 1331,
      "discus": 1332,
      "base": 1333,
      "pie": 1334,
      "ual": 1335,
      "irt": 1336,
      "wine": 1337,
      "allow": 1338,
      "evening": 1339,
      "medic": 1340,
      "clothes": 1341,
      "ped": 1342,
      "become": 1343,
      "count": 1344,
      "travel": 1345,
      "aur": 1346,
      "main": 1347,
      "zy": 1348,
      "smoking": 1349,
      "dic": 1350,
      "team": 1351,
      "quiet": 1352,
      "hurry": 1353,
      "fect": 1354,
      "american": 1355,
      "ber": 1356,
      "real": 1357,
      "wel": 1358,
      "bank": 1359,
      "ison": 1360,
      "lea": 1361,
      "dead": 1362,
      "others": 1363,
      "paid": 1364,
      "pull": 1365,
      "icy": 1366,
      "worked": 1367,
      "complain": 1368,
      "speaking": 1369,
      "die": 1370,
      "ny": 1371,
      "language": 1372,
      "birthday": 1373,
      "during": 1374,
      "sign": 1375,
      "worried": 1376,
      "lon": 1377,
      "asleep": 1378,
      "nor": 1379,
      "white": 1380,
      "rich": 1381,
      "ages": 1382,
      "helped": 1383,
      "speaks": 1384,
      "finally": 1385,
      "touch": 1386,
      "sub": 1387,
      "spent": 1388,
      "cial": 1389,
      "ris": 1390,
      "uation": 1391,
      "terri": 1392,
      "sometimes": 1393,
      "swimming": 1394,
      "ize": 1395,
      "decis": 1396,
      "leaving": 1397,
      "bi": 1398,
      "vel": 1399,
      "seat": 1400,
      "rote": 1401,
      "worth": 1402,
      "wrote": 1403,
      "choice": 1404,
      "desk": 1405,
      "expensive": 1406,
      "apo": 1407,
      "lose": 1408,
      "reali": 1409,
      "carry": 1410,
      "gun": 1411,
      "tree": 1412,
      "saying": 1413,
      "restaur": 1414,
      "restaurant": 1415,
      "dou": 1416,
      "vac": 1417,
      "conv": 1418,
      "poor": 1419,
      "rather": 1420,
      "actually": 1421,
      "quickly": 1422,
      "daughter": 1423,
      "heart": 1424,
      "watching": 1425,
      "ident": 1426,
      "somebody": 1427,
      "ountain": 1428,
      "chair": 1429,
      "ms": 1430,
      "born": 1431,
      "decision": 1432,
      "pian": 1433,
      "sal": 1434,
      "send": 1435,
      "ject": 1436,
      "sell": 1437,
      "foot": 1438,
      "cost": 1439,
      "opened": 1440,
      "ane": 1441,
      "reci": 1442,
      "emp": 1443,
      "bot": 1444,
      "quit": 1445,
      "bar": 1446,
      "four": 1447,
      "hid": 1448,
      "umb": 1449,
      "uni": 1450,
      "ches": 1451,
      "sus": 1452,
      "liked": 1453,
      "pping": 1454,
      "brought": 1455,
      "price": 1456,
      "strange": 1457,
      "inted": 1458,
      "sever": 1459,
      "sunday": 1460,
      "certainly": 1461,
      "rece": 1462,
      "respon": 1463,
      "changed": 1464,
      "card": 1465,
      "fix": 1466,
      "sense": 1467,
      "icycle": 1468,
      "older": 1469,
      "doub": 1470,
      "beer": 1471,
      "ica": 1472,
      "guy": 1473,
      "black": 1474,
      "minute": 1475,
      "succeed": 1476,
      "val": 1477,
      "situation": 1478,
      "college": 1479,
      "19": 1480,
      "bicycle": 1481,
      "report": 1482,
      "tice": 1483,
      "guys": 1484,
      "cake": 1485,
      "mountain": 1486,
      "ased": 1487,
      "tea": 1488,
      "closed": 1489,
      "blo": 1490,
      "floor": 1491,
      "acr": 1492,
      "sold": 1493,
      "weekend": 1494,
      "mail": 1495,
      "rew": 1496,
      "kit": 1497,
      "words": 1498,
      "given": 1499,
      "trans": 1500,
      "apolog": 1501,
      "several": 1502,
      "across": 1503,
      "sy": 1504,
      "onest": 1505,
      "advis": 1506,
      "fair": 1507,
      "shot": 1508,
      "earth": 1509,
      "mas": 1510,
      "attention": 1511,
      "ene": 1512,
      "stru": 1513,
      "solu": 1514,
      "takes": 1515,
      "spee": 1516,
      "appreci": 1517,
      "flowers": 1518,
      "inside": 1519,
      "iday": 1520,
      "uncle": 1521,
      "appro": 1522,
      "expected": 1523,
      "tax": 1524,
      "couple": 1525,
      "milk": 1526,
      "baseball": 1527,
      "jack": 1528,
      "heav": 1529,
      "tem": 1530,
      "experi": 1531,
      "aper": 1532,
      "borrow": 1533,
      "weight": 1534,
      "blame": 1535,
      "running": 1536,
      "camer": 1537,
      "line": 1538,
      "piano": 1539,
      "thanks": 1540,
      "inc": 1541,
      "inform": 1542,
      "teen": 1543,
      "perfect": 1544,
      "america": 1545,
      "promise": 1546,
      "dangerous": 1547,
      "spoke": 1548,
      "neigh": 1549,
      "ds": 1550,
      "likely": 1551,
      "join": 1552,
      "happening": 1553,
      "ized": 1554,
      "gard": 1555,
      "inion": 1556,
      "rect": 1557,
      "necess": 1558,
      "apart": 1559,
      "showed": 1560,
      "opinion": 1561,
      "garden": 1562,
      "fre": 1563,
      "ged": 1564,
      "oc": 1565,
      "plans": 1566,
      "lfriend": 1567,
      "girlfriend": 1568,
      "though": 1569,
      "seven": 1570,
      "ical": 1571,
      "glass": 1572,
      "climb": 1573,
      "mid": 1574,
      "por": 1575,
      "seeing": 1576,
      "neighbor": 1577,
      "ei": 1578,
      "honest": 1579,
      "libr": 1580,
      "amed": 1581,
      "ility": 1582,
      "glasses": 1583,
      "planning": 1584,
      "missed": 1585,
      "sim": 1586,
      "women": 1587,
      "oup": 1588,
      "stair": 1589,
      "forward": 1590,
      "drinking": 1591,
      "lies": 1592,
      "speech": 1593,
      "warm": 1594,
      "least": 1595,
      "ier": 1596,
      "past": 1597,
      "scare": 1598,
      "wed": 1599,
      "disappo": 1600,
      "hardly": 1601,
      "held": 1602,
      "joke": 1603,
      "raw": 1604,
      "diction": 1605,
      "ished": 1606,
      "happens": 1607,
      "eaten": 1608,
      "grad": 1609,
      "arrive": 1610,
      "library": 1611,
      "crow": 1612,
      "et": 1613,
      "egg": 1614,
      "ants": 1615,
      "shirt": 1616,
      "camera": 1617,
      "bur": 1618,
      "bath": 1619,
      "pho": 1620,
      "pur": 1621,
      "rel": 1622,
      "adi": 1623,
      "boys": 1624,
      "telephone": 1625,
      "date": 1626,
      "anim": 1627,
      "traf": 1628,
      "months": 1629,
      "stairs": 1630,
      "eight": 1631,
      "post": 1632,
      "sil": 1633,
      "outh": 1634,
      "drunk": 1635,
      "concert": 1636,
      "traffic": 1637,
      "fill": 1638,
      "zed": 1639,
      "resu": 1640,
      "ford": 1641,
      "sud": 1642,
      "played": 1643,
      "fied": 1644,
      "famous": 1645,
      "pressed": 1646,
      "gent": 1647,
      "opp": 1648,
      "completely": 1649,
      "medicine": 1650,
      "either": 1651,
      "sudden": 1652,
      "hus": 1653,
      "une": 1654,
      "monday": 1655,
      "vacation": 1656,
      "ping": 1657,
      "smo": 1658,
      "slow": 1659,
      "states": 1660,
      "united": 1661,
      "pect": 1662,
      "visited": 1663,
      "dictionary": 1664,
      "grow": 1665,
      "mad": 1666,
      "rid": 1667,
      "vious": 1668,
      "ters": 1669,
      "fool": 1670,
      "eye": 1671,
      "sight": 1672,
      "also": 1673,
      "moved": 1674,
      "prison": 1675,
      "covered": 1676,
      "staying": 1677,
      "smi": 1678,
      "ia": 1679,
      "sad": 1680,
      "rell": 1681,
      "ments": 1682,
      "chen": 1683,
      "husband": 1684,
      "dred": 1685,
      "accept": 1686,
      "dep": 1687,
      "hundred": 1688,
      "mistakes": 1689,
      "patient": 1690,
      "kitchen": 1691,
      "shut": 1692,
      "newsp": 1693,
      "boss": 1694,
      "walking": 1695,
      "solve": 1696,
      "umbrell": 1697,
      "newspaper": 1698,
      "lied": 1699,
      "whatever": 1700,
      "guit": 1701,
      "broken": 1702,
      "blue": 1703,
      "sleeping": 1704,
      "kni": 1705,
      "means": 1706,
      "argu": 1707,
      "novel": 1708,
      "gover": 1709,
      "pictures": 1710,
      "figure": 1711,
      "information": 1712,
      "mach": 1713,
      "ins": 1714,
      "recent": 1715,
      "driving": 1716,
      "girls": 1717,
      "president": 1718,
      "heavy": 1719,
      "knife": 1720,
      "dan": 1721,
      "meat": 1722,
      "arr": 1723,
      "lead": 1724,
      "doubt": 1725,
      "lay": 1726,
      "tail": 1727,
      "asking": 1728,
      "weren": 1729,
      "selves": 1730,
      "guitar": 1731,
      "ug": 1732,
      "enti": 1733,
      "ticed": 1734,
      "fact": 1735,
      "somewhere": 1736,
      "pair": 1737,
      "kids": 1738,
      "umbrella": 1739,
      "cu": 1740,
      "cket": 1741,
      "jane": 1742,
      "ko": 1743,
      "mag": 1744,
      "top": 1745,
      "rope": 1746,
      "dist": 1747,
      "writing": 1748,
      "lawy": 1749,
      "necessary": 1750,
      "ries": 1751,
      "prof": 1752,
      "funny": 1753,
      "picked": 1754,
      "king": 1755,
      "swe": 1756,
      "col": 1757,
      "foreign": 1758,
      "standing": 1759,
      "fut": 1760,
      "remain": 1761,
      "abroad": 1762,
      "failed": 1763,
      "lucky": 1764,
      "pulled": 1765,
      "london": 1766,
      "esca": 1767,
      "willing": 1768,
      "shop": 1769,
      "gener": 1770,
      "discuss": 1771,
      "depend": 1772,
      "future": 1773,
      "gn": 1774,
      "list": 1775,
      "reco": 1776,
      "imag": 1777,
      "ext": 1778,
      "excuse": 1779,
      "appreciate": 1780,
      "waste": 1781,
      "rent": 1782,
      "cious": 1783,
      "satis": 1784,
      "custom": 1785,
      "fishing": 1786,
      "recei": 1787,
      "cell": 1788,
      "afford": 1789,
      "waited": 1790,
      "weeks": 1791,
      "medi": 1792,
      "passed": 1793,
      "messa": 1794,
      "hang": 1795,
      "pack": 1796,
      "ured": 1797,
      "ination": 1798,
      "address": 1799,
      "mission": 1800,
      "contin": 1801,
      "gif": 1802,
      "lad": 1803,
      "wood": 1804,
      "prac": 1805,
      "deser": 1806,
      "written": 1807,
      "scared": 1808,
      "pu": 1809,
      "noticed": 1810,
      "idge": 1811,
      "admit": 1812,
      "vous": 1813,
      "yours": 1814,
      "proud": 1815,
      "driver": 1816,
      "airport": 1817,
      "invited": 1818,
      "ator": 1819,
      "sme": 1820,
      "noise": 1821,
      "market": 1822,
      "attend": 1823,
      "terrible": 1824,
      "pub": 1825,
      "twi": 1826,
      "wind": 1827,
      "carefully": 1828,
      "learned": 1829,
      "contro": 1830,
      "bottle": 1831,
      "10": 1832,
      "flu": 1833,
      "gar": 1834,
      "wit": 1835,
      "ented": 1836,
      "herself": 1837,
      "advised": 1838,
      "smell": 1839,
      "cts": 1840,
      "emb": 1841,
      "oper": 1842,
      "sear": 1843,
      "immedi": 1844,
      "ics": 1845,
      "worse": 1846,
      "deli": 1847,
      "shopping": 1848,
      "prep": 1849,
      "smoke": 1850,
      "cra": 1851,
      "ined": 1852,
      "ature": 1853,
      "impossible": 1854,
      "board": 1855,
      "special": 1856,
      "club": 1857,
      "seemed": 1858,
      "nervous": 1859,
      "listening": 1860,
      "responsi": 1861,
      "bri": 1862,
      "fif": 1863,
      "native": 1864,
      "star": 1865,
      "beach": 1866,
      "hol": 1867,
      "deep": 1868,
      "lend": 1869,
      "vol": 1870,
      "vies": 1871,
      "ond": 1872,
      "keys": 1873,
      "vision": 1874,
      "assu": 1875,
      "tie": 1876,
      "agre": 1877,
      "giving": 1878,
      "machine": 1879,
      "lawyer": 1880,
      "char": 1881,
      "loved": 1882,
      "movies": 1883,
      "ticket": 1884,
      "winter": 1885,
      "popular": 1886,
      "twice": 1887,
      "mur": 1888,
      "radi": 1889,
      "smar": 1890,
      "iled": 1891,
      "horse": 1892,
      "grandfather": 1893,
      "crazy": 1894,
      "jim": 1895,
      "sand": 1896,
      "whose": 1897,
      "usual": 1898,
      "save": 1899,
      "stuff": 1900,
      "apple": 1901,
      "watched": 1902,
      "correct": 1903,
      "obvious": 1904,
      "recently": 1905,
      "cting": 1906,
      "gy": 1907,
      "sle": 1908,
      "yen": 1909,
      "locked": 1910,
      "fault": 1911,
      "easily": 1912,
      "piece": 1913,
      "recogn": 1914,
      "alive": 1915,
      "bas": 1916,
      "bread": 1917,
      "fat": 1918,
      "vill": 1919,
      "arely": 1920,
      "uty": 1921,
      "mand": 1922,
      "ina": 1923,
      "bother": 1924,
      "jud": 1925,
      "jump": 1926,
      "view": 1927,
      "kiss": 1928,
      "reached": 1929,
      "govern": 1930,
      "dance": 1931,
      "yor": 1932,
      "hood": 1933,
      "pet": 1934,
      "murder": 1935,
      "york": 1936,
      "ride": 1937,
      "till": 1938,
      "iling": 1939,
      "cks": 1940,
      "message": 1941,
      "bat": 1942,
      "cand": 1943,
      "stick": 1944,
      "hadn": 1945,
      "produ": 1946,
      "farm": 1947,
      "notice": 1948,
      "raining": 1949,
      "prefer": 1950,
      "000": 1951,
      "crying": 1952,
      "immediately": 1953,
      "los": 1954,
      "len": 1955,
      "mill": 1956,
      "thous": 1957,
      "ann": 1958,
      "beat": 1959,
      "charge": 1960,
      "tee": 1961,
      "stor": 1962,
      "eats": 1963,
      "ground": 1964,
      "handle": 1965,
      "promised": 1966,
      "ski": 1967,
      "radio": 1968,
      "thousand": 1969,
      "ahead": 1970,
      "avo": 1971,
      "ror": 1972,
      "step": 1973,
      "hall": 1974,
      "belong": 1975,
      "liar": 1976,
      "acted": 1977,
      "super": 1978,
      "cop": 1979,
      "ager": 1980,
      "ilt": 1981,
      "treat": 1982,
      "ushed": 1983,
      "entered": 1984,
      "lake": 1985,
      "dogs": 1986,
      "difference": 1987,
      "sounds": 1988,
      "television": 1989,
      "suddenly": 1990,
      "control": 1991,
      "government": 1992,
      "aust": 1993,
      "ened": 1994,
      "cep": 1995,
      "boat": 1996,
      "kets": 1997,
      "apartment": 1998,
      "avoid": 1999,
      "cas": 2000,
      "owe": 2001,
      "position": 2002,
      "allowed": 2003,
      "fing": 2004,
      "har": 2005,
      "inju": 2006,
      "anywhere": 2007,
      "ions": 2008,
      "upset": 2009,
      "dest": 2010,
      "race": 2011,
      "earli": 2012,
      "enjoyed": 2013,
      "public": 2014,
      "fu": 2015,
      "fas": 2016,
      "ities": 2017,
      "qui": 2018,
      "commit": 2019,
      "inese": 2020,
      "suppose": 2021,
      "disappointed": 2022,
      "aim": 2023,
      "chinese": 2024,
      "prote": 2025,
      "studied": 2026,
      "rules": 2027,
      "younger": 2028,
      "voice": 2029,
      "beginning": 2030,
      "eggs": 2031,
      "mouth": 2032,
      "named": 2033,
      "stra": 2034,
      "gram": 2035,
      "tries": 2036,
      "ai": 2037,
      "fit": 2038,
      "ances": 2039,
      "recor": 2040,
      "risk": 2041,
      "agreed": 2042,
      "ied": 2043,
      "intro": 2044,
      "bridge": 2045,
      "attack": 2046,
      "photo": 2047,
      "ones": 2048,
      "common": 2049,
      "paris": 2050,
      "learning": 2051,
      "animals": 2052,
      "gift": 2053,
      "dle": 2054,
      "ling": 2055,
      "rist": 2056,
      "lia": 2057,
      "polit": 2058,
      "singing": 2059,
      "cross": 2060,
      "univers": 2061,
      "loud": 2062,
      "tal": 2063,
      "yed": 2064,
      "marry": 2065,
      "cool": 2066,
      "pocket": 2067,
      "handed": 2068,
      "keeps": 2069,
      "boyfriend": 2070,
      "temper": 2071,
      "cam": 2072,
      "flight": 2073,
      "serv": 2074,
      "possib": 2075,
      "laughed": 2076,
      "received": 2077,
      "earlier": 2078,
      "meant": 2079,
      "vest": 2080,
      "christ": 2081,
      "intment": 2082,
      "harder": 2083,
      "buying": 2084,
      "grew": 2085,
      "sci": 2086,
      "soc": 2087,
      "stolen": 2088,
      "wonderful": 2089,
      "chur": 2090,
      "account": 2091,
      "built": 2092,
      "painting": 2093,
      "gas": 2094,
      "sky": 2095,
      "stri": 2096,
      "peace": 2097,
      "detail": 2098,
      "spring": 2099,
      "german": 2100,
      "kyoto": 2101,
      "viol": 2102,
      "refused": 2103,
      "austra": 2104,
      "introdu": 2105,
      "university": 2106,
      "lin": 2107,
      "wake": 2108,
      "veget": 2109,
      "oken": 2110,
      "itely": 2111,
      "leaves": 2112,
      "france": 2113,
      "experience": 2114,
      "christmas": 2115,
      "burn": 2116,
      "ctive": 2117,
      "pi": 2118,
      "round": 2119,
      "seas": 2120,
      "decide": 2121,
      "profess": 2122,
      "pun": 2123,
      "velo": 2124,
      "enty": 2125,
      "propos": 2126,
      "helping": 2127,
      "cats": 2128,
      "germany": 2129,
      "stead": 2130,
      "church": 2131,
      "fru": 2132,
      "dom": 2133,
      "ache": 2134,
      "acket": 2135,
      "pleas": 2136,
      "sport": 2137,
      "dropped": 2138,
      "storm": 2139,
      "dam": 2140,
      "sn": 2141,
      "sli": 2142,
      "acc": 2143,
      "moon": 2144,
      "power": 2145,
      "persu": 2146,
      "respect": 2147,
      "ideas": 2148,
      "suggested": 2149,
      "hiding": 2150,
      "village": 2151,
      "kno": 2152,
      "nation": 2153,
      "pose": 2154,
      "arrest": 2155,
      "aded": 2156,
      "mark": 2157,
      "absolu": 2158,
      "suf": 2159,
      "mention": 2160,
      "ief": 2161,
      "regret": 2162,
      "event": 2163,
      "gradu": 2164,
      "search": 2165,
      "smart": 2166,
      "straight": 2167,
      "oned": 2168,
      "ties": 2169,
      "using": 2170,
      "assist": 2171,
      "tions": 2172,
      "prev": 2173,
      "realized": 2174,
      "apologize": 2175,
      "crowd": 2176,
      "slowly": 2177,
      "color": 2178,
      "extreme": 2179,
      "gree": 2180,
      "vid": 2181,
      "thor": 2182,
      "note": 2183,
      "feed": 2184,
      "capt": 2185,
      "missing": 2186,
      "surprise": 2187,
      "holiday": 2188,
      "eu": 2189,
      "gotten": 2190,
      "pol": 2191,
      "apples": 2192,
      "shower": 2193,
      "prices": 2194,
      "cooking": 2195,
      "drop": 2196,
      "slept": 2197,
      "twent": 2198,
      "sea": 2199,
      "que": 2200,
      "cars": 2201,
      "shall": 2202,
      "taxi": 2203,
      "twenty": 2204,
      "cing": 2205,
      "sof": 2206,
      "exer": 2207,
      "player": 2208,
      "divor": 2209,
      "sooner": 2210,
      "drinks": 2211,
      "lax": 2212,
      "support": 2213,
      "wondered": 2214,
      "satur": 2215,
      "invol": 2216,
      "wallet": 2217,
      "kissed": 2218,
      "returned": 2219,
      "realize": 2220,
      "injured": 2221,
      "australia": 2222,
      "na": 2223,
      "none": 2224,
      "nic": 2225,
      "vide": 2226,
      "wise": 2227,
      "throw": 2228,
      "ists": 2229,
      "relax": 2230,
      "china": 2231,
      "gold": 2232,
      "canad": 2233,
      "impro": 2234,
      "depart": 2235,
      "understood": 2236,
      "green": 2237,
      "rule": 2238,
      "dressed": 2239,
      "appeared": 2240,
      "wedding": 2241,
      "cre": 2242,
      "nine": 2243,
      "toward": 2244,
      "memor": 2245,
      "orts": 2246,
      "history": 2247,
      "abo": 2248,
      "raised": 2249,
      "brown": 2250,
      "calm": 2251,
      "empty": 2252,
      "satisfied": 2253,
      "million": 2254,
      "ben": 2255,
      "gain": 2256,
      "ji": 2257,
      "ule": 2258,
      "golf": 2259,
      "plac": 2260,
      "raise": 2261,
      "speaker": 2262,
      "group": 2263,
      "bird": 2264,
      "fortun": 2265,
      "enemy": 2266,
      "econ": 2267,
      "sched": 2268,
      "inno": 2269,
      "project": 2270,
      "spoken": 2271,
      "dishes": 2272,
      "factory": 2273,
      "europe": 2274,
      "exerc": 2275,
      "dad": 2276,
      "hide": 2277,
      "wis": 2278,
      "habit": 2279,
      "bey": 2280,
      "bell": 2281,
      "plenty": 2282,
      "defin": 2283,
      "plays": 2284,
      "truck": 2285,
      "ordered": 2286,
      "condition": 2287,
      "appear": 2288,
      "examination": 2289,
      "aware": 2290,
      "blood": 2291,
      "cast": 2292,
      "cil": 2293,
      "island": 2294,
      "sugar": 2295,
      "trees": 2296,
      "laughing": 2297,
      "cha": 2298,
      "da": 2299,
      "jor": 2300,
      "ener": 2301,
      "lock": 2302,
      "unt": 2303,
      "talks": 2304,
      "calling": 2305,
      "grap": 2306,
      "policeman": 2307,
      "courage": 2308,
      "suitcase": 2309,
      "ial": 2310,
      "lled": 2311,
      "ense": 2312,
      "tight": 2313,
      "add": 2314,
      "absent": 2315,
      "among": 2316,
      "aked": 2317,
      "ilty": 2318,
      "guest": 2319,
      "guilty": 2320,
      "drank": 2321,
      "mike": 2322,
      "lts": 2323,
      "muse": 2324,
      "ply": 2325,
      "rup": 2326,
      "taught": 2327,
      "ables": 2328,
      "fired": 2329,
      "difficul": 2330,
      "cards": 2331,
      "smile": 2332,
      "fruit": 2333,
      "museum": 2334,
      "barely": 2335,
      "inced": 2336,
      "meal": 2337,
      "sty": 2338,
      "beha": 2339,
      "comfor": 2340,
      "managed": 2341,
      "choose": 2342,
      "fami": 2343,
      "answered": 2344,
      "paint": 2345,
      "considered": 2346,
      "convinced": 2347,
      "sandwi": 2348,
      "20": 2349,
      "pas": 2350,
      "rate": 2351,
      "osts": 2352,
      "invest": 2353,
      "amaz": 2354,
      "deb": 2355,
      "demand": 2356,
      "ends": 2357,
      "poe": 2358,
      "feelings": 2359,
      "middle": 2360,
      "magaz": 2361,
      "absolutely": 2362,
      "tears": 2363,
      "iron": 2364,
      "bob": 2365,
      "pleased": 2366,
      "igno": 2367,
      "prin": 2368,
      "convince": 2369,
      "suffer": 2370,
      "due": 2371,
      "fly": 2372,
      "sl": 2373,
      "bear": 2374,
      "pencil": 2375,
      "partic": 2376,
      "personal": 2377,
      "languages": 2378,
      "washing": 2379,
      "lady": 2380,
      "definitely": 2381,
      "explan": 2382,
      "sports": 2383,
      "singer": 2384,
      "feet": 2385,
      "healthy": 2386,
      "seriously": 2387,
      "prepared": 2388,
      "extremely": 2389,
      "comfortable": 2390,
      "particular": 2391,
      "cab": 2392,
      "gro": 2393,
      "threw": 2394,
      "anx": 2395,
      "button": 2396,
      "uses": 2397,
      "mbers": 2398,
      "lights": 2399,
      "expecting": 2400,
      "advant": 2401,
      "sentence": 2402,
      "scream": 2403,
      "appointment": 2404,
      "explained": 2405,
      "fresh": 2406,
      "cute": 2407,
      "pes": 2408,
      "scar": 2409,
      "idence": 2410,
      "hoping": 2411,
      "except": 2412,
      "whenever": 2413,
      "countries": 2414,
      "friday": 2415,
      "single": 2416,
      "engine": 2417,
      "major": 2418,
      "subject": 2419,
      "filled": 2420,
      "explanation": 2421,
      "fle": 2422,
      "rang": 2423,
      "uc": 2424,
      "ons": 2425,
      "lots": 2426,
      "motion": 2427,
      "ural": 2428,
      "contr": 2429,
      "offic": 2430,
      "contact": 2431,
      "followed": 2432,
      "grandmother": 2433,
      "responsible": 2434,
      "saturday": 2435,
      "request": 2436,
      "neck": 2437,
      "moving": 2438,
      "shar": 2439,
      "saved": 2440,
      "cap": 2441,
      "commen": 2442,
      "sons": 2443,
      "salt": 2444,
      "obviously": 2445,
      "basket": 2446,
      "arrested": 2447,
      "involved": 2448,
      "cream": 2449,
      "ease": 2450,
      "lar": 2451,
      "mal": 2452,
      "ising": 2453,
      "org": 2454,
      "rob": 2455,
      "unity": 2456,
      "qual": 2457,
      "feels": 2458,
      "tors": 2459,
      "legs": 2460,
      "furn": 2461,
      "gate": 2462,
      "instead": 2463,
      "recommen": 2464,
      "temp": 2465,
      "accep": 2466,
      "span": 2467,
      "painted": 2468,
      "listened": 2469,
      "concerned": 2470,
      "awake": 2471,
      "escape": 2472,
      "soccer": 2473,
      "proposal": 2474,
      "hy": 2475,
      "tour": 2476,
      "remind": 2477,
      "stam": 2478,
      "weak": 2479,
      "area": 2480,
      "bow": 2481,
      "pool": 2482,
      "reser": 2483,
      "believed": 2484,
      "arrass": 2485,
      "embarrass": 2486,
      "assume": 2487,
      "bs": 2488,
      "soup": 2489,
      "ered": 2490,
      "aka": 2491,
      "comm": 2492,
      "fighting": 2493,
      "emplo": 2494,
      "purpose": 2495,
      "accused": 2496,
      "hill": 2497,
      "slight": 2498,
      "ises": 2499,
      "forgive": 2500,
      "amoun": 2501,
      "quake": 2502,
      "ulation": 2503,
      "carried": 2504,
      "dire": 2505,
      "cip": 2506,
      "meaning": 2507,
      "drove": 2508,
      "figured": 2509,
      "earthquake": 2510,
      "organ": 2511,
      "ible": 2512,
      "jacket": 2513,
      "mate": 2514,
      "nat": 2515,
      "swee": 2516,
      "knowled": 2517,
      "illness": 2518,
      "permission": 2519,
      "woke": 2520,
      "ield": 2521,
      "intend": 2522,
      "checked": 2523,
      "corner": 2524,
      "letters": 2525,
      "simple": 2526,
      "schedule": 2527,
      "anxious": 2528,
      "cir": 2529,
      "dry": 2530,
      "mir": 2531,
      "map": 2532,
      "toes": 2533,
      "wears": 2534,
      "ently": 2535,
      "sue": 2536,
      "apped": 2537,
      "rude": 2538,
      "brothers": 2539,
      "nearly": 2540,
      "human": 2541,
      "solution": 2542,
      "judge": 2543,
      "finger": 2544,
      "vegetables": 2545,
      "above": 2546,
      "cro": 2547,
      "dir": 2548,
      "duty": 2549,
      "iers": 2550,
      "reli": 2551,
      "educ": 2552,
      "astic": 2553,
      "ney": 2554,
      "rious": 2555,
      "cance": 2556,
      "quar": 2557,
      "stole": 2558,
      "type": 2559,
      "match": 2560,
      "picnic": 2561,
      "share": 2562,
      "vior": 2563,
      "excited": 2564,
      "confused": 2565,
      "transl": 2566,
      "exercise": 2567,
      "fur": 2568,
      "tar": 2569,
      "theater": 2570,
      "heat": 2571,
      "wet": 2572,
      "chick": 2573,
      "aches": 2574,
      "anyway": 2575,
      "express": 2576,
      "butter": 2577,
      "friendly": 2578,
      "brit": 2579,
      "breath": 2580,
      "forgotten": 2581,
      "offered": 2582,
      "crime": 2583,
      "climbed": 2584,
      "gentle": 2585,
      "imagine": 2586,
      "behavior": 2587,
      "dirty": 2588,
      "tas": 2589,
      "anti": 2590,
      "stared": 2591,
      "excell": 2592,
      "stuck": 2593,
      "pretended": 2594,
      "flower": 2595,
      "classroom": 2596,
      "ashed": 2597,
      "huge": 2598,
      "soldiers": 2599,
      "advantage": 2600,
      "spanish": 2601,
      "ban": 2602,
      "cig": 2603,
      "ners": 2604,
      "za": 2605,
      "army": 2606,
      "orge": 2607,
      "unte": 2608,
      "impressed": 2609,
      "ury": 2610,
      "caused": 2611,
      "grab": 2612,
      "dies": 2613,
      "bigger": 2614,
      "prize": 2615,
      "headache": 2616,
      "birds": 2617,
      "steal": 2618,
      "sweater": 2619,
      "volunte": 2620,
      "emer": 2621,
      "ging": 2622,
      "harm": 2623,
      "hates": 2624,
      "tur": 2625,
      "zz": 2626,
      "ences": 2627,
      "rice": 2628,
      "accor": 2629,
      "ific": 2630,
      "resign": 2631,
      "names": 2632,
      "priv": 2633,
      "gged": 2634,
      "guests": 2635,
      "excellent": 2636,
      "ado": 2637,
      "bby": 2638,
      "draw": 2639,
      "lack": 2640,
      "rele": 2641,
      "anted": 2642,
      "impress": 2643,
      "fear": 2644,
      "tra": 2645,
      "exha": 2646,
      "careless": 2647,
      "england": 2648,
      "treated": 2649,
      "bike": 2650,
      "result": 2651,
      "distance": 2652,
      "teeth": 2653,
      "record": 2654,
      "magazine": 2655,
      "ns": 2656,
      "reat": 2657,
      "attr": 2658,
      "within": 2659,
      "active": 2660,
      "uts": 2661,
      "tickets": 2662,
      "badly": 2663,
      "arms": 2664,
      "crit": 2665,
      "elect": 2666,
      "neither": 2667,
      "welcome": 2668,
      "jackson": 2669,
      "opport": 2670,
      "dancing": 2671,
      "jumped": 2672,
      "accepted": 2673,
      "taste": 2674,
      "50": 2675,
      "bye": 2676,
      "gress": 2677,
      "oil": 2678,
      "tu": 2679,
      "anno": 2680,
      "state": 2681,
      "ham": 2682,
      "colate": 2683,
      "mood": 2684,
      "workers": 2685,
      "dying": 2686,
      "chocolate": 2687,
      "wore": 2688,
      "gives": 2689,
      "cheap": 2690,
      "themselves": 2691,
      "vote": 2692,
      "ctions": 2693,
      "failure": 2694,
      "seldom": 2695,
      "supermarket": 2696,
      "innocent": 2697,
      "aunt": 2698,
      "pou": 2699,
      "itu": 2700,
      "cher": 2701,
      "alous": 2702,
      "unlikely": 2703,
      "def": 2704,
      "space": 2705,
      "drug": 2706,
      "blind": 2707,
      "rains": 2708,
      "runs": 2709,
      "wondering": 2710,
      "paying": 2711,
      "jealous": 2712,
      "following": 2713,
      "facts": 2714,
      "population": 2715,
      "americans": 2716,
      "results": 2717,
      "entire": 2718,
      "remained": 2719,
      "continue": 2720,
      "delicious": 2721,
      "faster": 2722,
      "chicken": 2723,
      "100": 2724,
      "oo": 2725,
      "wound": 2726,
      "inst": 2727,
      "ister": 2728,
      "lebr": 2729,
      "roof": 2730,
      "celebr": 2731,
      "lower": 2732,
      "ability": 2733,
      "usted": 2734,
      "mom": 2735,
      "proper": 2736,
      "ilar": 2737,
      "manage": 2738,
      "tony": 2739,
      "rumor": 2740,
      "teaching": 2741,
      "understanding": 2742,
      "descri": 2743,
      "miles": 2744,
      "regard": 2745,
      "taller": 2746,
      "occur": 2747,
      "practice": 2748,
      "recognize": 2749,
      "skiing": 2750,
      "national": 2751,
      "kate": 2752,
      "ued": 2753,
      "ying": 2754,
      "formed": 2755,
      "capital": 2756,
      "author": 2757,
      "calls": 2758,
      "firm": 2759,
      "teachers": 2760,
      "doors": 2761,
      "silent": 2762,
      "protect": 2763,
      "captain": 2764,
      "poured": 2765,
      "kick": 2766,
      "math": 2767,
      "non": 2768,
      "rat": 2769,
      "threat": 2770,
      "intention": 2771,
      "iting": 2772,
      "weap": 2773,
      "aret": 2774,
      "unless": 2775,
      "tells": 2776,
      "goodbye": 2777,
      "manager": 2778,
      "audi": 2779,
      "size": 2780,
      "lately": 2781,
      "smiled": 2782,
      "docu": 2783,
      "games": 2784,
      "complete": 2785,
      "clearly": 2786,
      "syste": 2787,
      "temperature": 2788,
      "electri": 2789,
      "cred": 2790,
      "dating": 2791,
      "fed": 2792,
      "gather": 2793,
      "mic": 2794,
      "squ": 2795,
      "sort": 2796,
      "arti": 2797,
      "forced": 2798,
      "aband": 2799,
      "pected": 2800,
      "convers": 2801,
      "useful": 2802,
      "boring": 2803,
      "voted": 2804,
      "license": 2805,
      "successful": 2806,
      "salary": 2807,
      "neighbors": 2808,
      "practic": 2809,
      "brief": 2810,
      "losing": 2811,
      "announ": 2812,
      "familiar": 2813,
      "natural": 2814,
      "according": 2815,
      "ired": 2816,
      "push": 2817,
      "tast": 2818,
      "god": 2819,
      "bored": 2820,
      "upstairs": 2821,
      "delay": 2822,
      "clu": 2823,
      "clos": 2824,
      "starting": 2825,
      "rained": 2826,
      "hearing": 2827,
      "cookies": 2828,
      "logy": 2829,
      "course": 2830,
      "football": 2831,
      "eventually": 2832,
      "cigaret": 2833,
      "emergen": 2834,
      "bly": 2835,
      "bright": 2836,
      "cried": 2837,
      "field": 2838,
      "ience": 2839,
      "loss": 2840,
      "stom": 2841,
      "twin": 2842,
      "ancy": 2843,
      "sales": 2844,
      "forest": 2845,
      "obje": 2846,
      "windows": 2847,
      "traveling": 2848,
      "complaining": 2849,
      "carrying": 2850,
      "perfectly": 2851,
      "neighborhood": 2852,
      "vided": 2853,
      "education": 2854,
      "conversation": 2855,
      "costs": 2856,
      "ges": 2857,
      "vic": 2858,
      "zen": 2859,
      "intell": 2860,
      "requi": 2861,
      "ings": 2862,
      "iture": 2863,
      "lean": 2864,
      "lift": 2865,
      "tire": 2866,
      "terms": 2867,
      "ourselves": 2868,
      "guard": 2869,
      "normal": 2870,
      "mountains": 2871,
      "garage": 2872,
      "details": 2873,
      "energy": 2874,
      "sandwich": 2875,
      "passport": 2876,
      "furniture": 2877,
      "further": 2878,
      "cash": 2879,
      "fence": 2880,
      "jam": 2881,
      "jail": 2882,
      "zoo": 2883,
      "osaka": 2884,
      "haps": 2885,
      "rock": 2886,
      "unhappy": 2887,
      "extra": 2888,
      "blew": 2889,
      "perhaps": 2890,
      "speed": 2891,
      "claim": 2892,
      "handsome": 2893,
      "appears": 2894,
      "couch": 2895,
      "admitted": 2896,
      "copy": 2897,
      "prevented": 2898,
      "recommend": 2899,
      "18": 2900,
      "cous": 2901,
      "diet": 2902,
      "fro": 2903,
      "fright": 2904,
      "lone": 2905,
      "nar": 2906,
      "sco": 2907,
      "spl": 2908,
      "swit": 2909,
      "tot": 2910,
      "member": 2911,
      "asha": 2912,
      "tied": 2913,
      "marri": 2914,
      "action": 2915,
      "tery": 2916,
      "fever": 2917,
      "happiness": 2918,
      "consu": 2919,
      "finding": 2920,
      "mates": 2921,
      "survi": 2922,
      "elected": 2923,
      "skin": 2924,
      "approach": 2925,
      "jokes": 2926,
      "season": 2927,
      "places": 2928,
      "system": 2929,
      "cong": 2930,
      "fil": 2931,
      "nose": 2932,
      "pan": 2933,
      "repair": 2934,
      "becoming": 2935,
      "wild": 2936,
      "cancer": 2937,
      "text": 2938,
      "acqu": 2939,
      "washed": 2940,
      "translate": 2941,
      "opportunity": 2942,
      "emergency": 2943,
      "ashamed": 2944,
      "dra": 2945,
      "hon": 2946,
      "repe": 2947,
      "repor": 2948,
      "antly": 2949,
      "moder": 2950,
      "motor": 2951,
      "saving": 2952,
      "urgent": 2953,
      "fold": 2954,
      "conven": 2955,
      "pota": 2956,
      "lazy": 2957,
      "pretend": 2958,
      "fortune": 2959,
      "suspic": 2960,
      "succeeded": 2961,
      "escaped": 2962,
      "continued": 2963,
      "professor": 2964,
      "bench": 2965,
      "difficulty": 2966,
      "private": 2967,
      "intellig": 2968,
      "mt": 2969,
      "pit": 2970,
      "pill": 2971,
      "piz": 2972,
      "pushed": 2973,
      "ines": 2974,
      "remark": 2975,
      "unfortun": 2976,
      "houses": 2977,
      "brave": 2978,
      "believes": 2979,
      "easier": 2980,
      "fixed": 2981,
      "fifty": 2982,
      "amount": 2983,
      "sweet": 2984,
      "knowledge": 2985,
      "credit": 2986,
      "lonely": 2987,
      "totally": 2988,
      "bound": 2989,
      "drew": 2990,
      "hum": 2991,
      "enced": 2992,
      "bea": 2993,
      "shelf": 2994,
      "tray": 2995,
      "del": 2996,
      "affe": 2997,
      "tooth": 2998,
      "supper": 2999,
      "writer": 3000,
      "conscious": 3001,
      "avail": 3002,
      "smith": 3003,
      "recognized": 3004,
      "destro": 3005,
      "polite": 3006,
      "marriage": 3007,
      "acquain": 3008,
      "mu": 3009,
      "nur": 3010,
      "instru": 3011,
      "ert": 3012,
      "hell": 3013,
      "chose": 3014,
      "upon": 3015,
      "shy": 3016,
      "decl": 3017,
      "concent": 3018,
      "program": 3019,
      "frank": 3020,
      "prepar": 3021,
      "matters": 3022,
      "third": 3023,
      "trusted": 3024,
      "current": 3025,
      "mess": 3026,
      "borrowed": 3027,
      "leader": 3028,
      "graduated": 3029,
      "exhausted": 3030,
      "article": 3031,
      "bal": 3032,
      "ears": 3033,
      "thief": 3034,
      "istic": 3035,
      "lling": 3036,
      "idi": 3037,
      "george": 3038,
      "stock": 3039,
      "forever": 3040,
      "mistaken": 3041,
      "gue": 3042,
      "path": 3043,
      "passeng": 3044,
      "suggestion": 3045,
      "election": 3046,
      "dreams": 3047,
      "rupt": 3048,
      "contract": 3049,
      "sharp": 3050,
      "audience": 3051,
      "pizza": 3052,
      "beauty": 3053,
      "passengers": 3054,
      "bite": 3055,
      "flying": 3056,
      "omy": 3057,
      "var": 3058,
      "yard": 3059,
      "tou": 3060,
      "insis": 3061,
      "hey": 3062,
      "envelo": 3063,
      "hole": 3064,
      "hopes": 3065,
      "accom": 3066,
      "ama": 3067,
      "sale": 3068,
      "progress": 3069,
      "bud": 3070,
      "studies": 3071,
      "applic": 3072,
      "visi": 3073,
      "phys": 3074,
      "desper": 3075,
      "sisters": 3076,
      "cleaning": 3077,
      "papers": 3078,
      "discussed": 3079,
      "burst": 3080,
      "foolish": 3081,
      "responsib": 3082,
      "battle": 3083,
      "possibility": 3084,
      "memory": 3085,
      "nancy": 3086,
      "obey": 3087,
      "rus": 3088,
      "anced": 3089,
      "theor": 3090,
      "sev": 3091,
      "tiv": 3092,
      "permit": 3093,
      "brush": 3094,
      "laid": 3095,
      "brea": 3096,
      "juice": 3097,
      "secre": 3098,
      "italy": 3099,
      "solved": 3100,
      "songs": 3101,
      "similar": 3102,
      "committee": 3103,
      "service": 3104,
      "canada": 3105,
      "available": 3106,
      "ba": 3107,
      "fond": 3108,
      "lted": 3109,
      "rose": 3110,
      "members": 3111,
      "whis": 3112,
      "weir": 3113,
      "loc": 3114,
      "unable": 3115,
      "unusual": 3116,
      "diary": 3117,
      "cheer": 3118,
      "bedroom": 3119,
      "sleepy": 3120,
      "drives": 3121,
      "airplane": 3122,
      "shake": 3123,
      "crimin": 3124,
      "fallen": 3125,
      "prepare": 3126,
      "fifteen": 3127,
      "belongs": 3128,
      "introduce": 3129,
      "soft": 3130,
      "amazing": 3131,
      "hello": 3132,
      "bra": 3133,
      "issue": 3134,
      "orig": 3135,
      "ides": 3136,
      "acting": 3137,
      "dece": 3138,
      "shoulder": 3139,
      "cloud": 3140,
      "putting": 3141,
      "granted": 3142,
      "childhood": 3143,
      "cheese": 3144,
      "worrying": 3145,
      "effort": 3146,
      "animal": 3147,
      "staring": 3148,
      "scient": 3149,
      "department": 3150,
      "graph": 3151,
      "british": 3152,
      "cult": 3153,
      "email": 3154,
      "plo": 3155,
      "south": 3156,
      "vator": 3157,
      "thro": 3158,
      "antic": 3159,
      "aled": 3160,
      "local": 3161,
      "suic": 3162,
      "cow": 3163,
      "develo": 3164,
      "tongue": 3165,
      "warned": 3166,
      "elevator": 3167,
      "agreement": 3168,
      "horses": 3169,
      "confess": 3170,
      "suspect": 3171,
      "crowded": 3172,
      "silence": 3173,
      "deserve": 3174,
      "science": 3175,
      "assistant": 3176,
      "video": 3177,
      "improve": 3178,
      "econom": 3179,
      "investig": 3180,
      "basketball": 3181,
      "occurred": 3182,
      "stomach": 3183,
      "envelope": 3184,
      "russi": 3185,
      "fli": 3186,
      "ks": 3187,
      "ption": 3188,
      "ros": 3189,
      "uce": 3190,
      "relie": 3191,
      "reply": 3192,
      "goti": 3193,
      "negoti": 3194,
      "admi": 3195,
      "ices": 3196,
      "deter": 3197,
      "yellow": 3198,
      "conne": 3199,
      "stranger": 3200,
      "classmates": 3201,
      "served": 3202,
      "gging": 3203,
      "opti": 3204,
      "secretary": 3205,
      "north": 3206,
      "struck": 3207,
      "distur": 3208,
      "puzz": 3209,
      "persuade": 3210,
      "divorced": 3211,
      "poem": 3212,
      "critic": 3213,
      "ii": 3214,
      "ior": 3215,
      "rac": 3216,
      "sang": 3217,
      "tes": 3218,
      "zer": 3219,
      "thin": 3220,
      "insu": 3221,
      "incident": 3222,
      "aside": 3223,
      "itation": 3224,
      "chic": 3225,
      "sometime": 3226,
      "ional": 3227,
      "shout": 3228,
      "depressed": 3229,
      "affair": 3230,
      "stories": 3231,
      "discovered": 3232,
      "disease": 3233,
      "grate": 3234,
      "kinds": 3235,
      "parked": 3236,
      "safety": 3237,
      "spot": 3238,
      "holding": 3239,
      "flat": 3240,
      "seats": 3241,
      "depends": 3242,
      "deeply": 3243,
      "fuji": 3244,
      "gentleman": 3245,
      "abandoned": 3246,
      "optimis": 3247,
      "fash": 3248,
      "tool": 3249,
      "error": 3250,
      "chief": 3251,
      "limit": 3252,
      "ung": 3253,
      "ents": 3254,
      "coin": 3255,
      "hero": 3256,
      "everywhere": 3257,
      "ille": 3258,
      "compet": 3259,
      "stone": 3260,
      "typho": 3261,
      "hired": 3262,
      "supplies": 3263,
      "tribut": 3264,
      "serve": 3265,
      "drown": 3266,
      "cleaned": 3267,
      "scene": 3268,
      "exciting": 3269,
      "cycle": 3270,
      "fairly": 3271,
      "master": 3272,
      "midnight": 3273,
      "strict": 3274,
      "burned": 3275,
      "frightened": 3276,
      "suspicious": 3277,
      "grateful": 3278,
      "center": 3279,
      "dish": 3280,
      "ians": 3281,
      "joking": 3282,
      "ki": 3283,
      "kne": 3284,
      "kil": 3285,
      "nail": 3286,
      "pound": 3287,
      "tend": 3288,
      "twel": 3289,
      "ya": 3290,
      "towel": 3291,
      "research": 3292,
      "chi": 3293,
      "wasting": 3294,
      "forty": 3295,
      "accustom": 3296,
      "pper": 3297,
      "model": 3298,
      "plants": 3299,
      "const": 3300,
      "prove": 3301,
      "spare": 3302,
      "iety": 3303,
      "clever": 3304,
      "planned": 3305,
      "shook": 3306,
      "mater": 3307,
      "dentist": 3308,
      "dollar": 3309,
      "climate": 3310,
      "engaged": 3311,
      "chess": 3312,
      "incred": 3313,
      "argument": 3314,
      "possibly": 3315,
      "stamps": 3316,
      "reserv": 3317,
      "itude": 3318,
      "nurse": 3319,
      "desperate": 3320,
      "responsibility": 3321,
      "origin": 3322,
      "twelve": 3323,
      "blow": 3324,
      "cit": 3325,
      "meth": 3326,
      "hesit": 3327,
      "hoped": 3328,
      "coll": 3329,
      "cooper": 3330,
      "bomb": 3331,
      "illy": 3332,
      "asks": 3333,
      "disappeared": 3334,
      "hire": 3335,
      "mped": 3336,
      "orders": 3337,
      "although": 3338,
      "warn": 3339,
      "visiting": 3340,
      "complained": 3341,
      "bottom": 3342,
      "tempt": 3343,
      "growing": 3344,
      "introduced": 3345,
      "pleasant": 3346,
      "damage": 3347,
      "divorce": 3348,
      "wishes": 3349,
      "ignore": 3350,
      "commun": 3351,
      "kicked": 3352,
      "modern": 3353,
      "intelligent": 3354,
      "unfortunately": 3355,
      "theory": 3356,
      "suicide": 3357,
      "ka": 3358,
      "page": 3359,
      "rap": 3360,
      "sion": 3361,
      "lect": 3362,
      "behave": 3363,
      "betray": 3364,
      "wealth": 3365,
      "myster": 3366,
      "actor": 3367,
      "oko": 3368,
      "boo": 3369,
      "worst": 3370,
      "shor": 3371,
      "defe": 3372,
      "ulous": 3373,
      "percent": 3374,
      "afri": 3375,
      "friendship": 3376,
      "answers": 3377,
      "finan": 3378,
      "shoot": 3379,
      "sundays": 3380,
      "invite": 3381,
      "attended": 3382,
      "dreamed": 3383,
      "quietly": 3384,
      "sym": 3385,
      "increas": 3386,
      "woods": 3387,
      "crossed": 3388,
      "violin": 3389,
      "style": 3390,
      "tough": 3391,
      "weird": 3392,
      "typhoon": 3393,
      "accustomed": 3394,
      "aver": 3395,
      "bul": 3396,
      "double": 3397,
      "gal": 3398,
      "nap": 3399,
      "sou": 3400,
      "skill": 3401,
      "meas": 3402,
      "env": 3403,
      "stat": 3404,
      "force": 3405,
      "forts": 3406,
      "knowing": 3407,
      "akes": 3408,
      "rail": 3409,
      "spread": 3410,
      "pray": 3411,
      "lesson": 3412,
      "direct": 3413,
      "lovely": 3414,
      "smiling": 3415,
      "cooked": 3416,
      "kidding": 3417,
      "bags": 3418,
      "changes": 3419,
      "curtain": 3420,
      "pieces": 3421,
      "apologized": 3422,
      "novels": 3423,
      "pleasure": 3424,
      "knocked": 3425,
      "canadian": 3426,
      "economy": 3427,
      "method": 3428,
      "dess": 3429,
      "gage": 3430,
      "gloves": 3431,
      "igh": 3432,
      "jour": 3433,
      "ker": 3434,
      "oce": 3435,
      "scr": 3436,
      "wing": 3437,
      "wide": 3438,
      "income": 3439,
      "isy": 3440,
      "orange": 3441,
      "separ": 3442,
      "alarm": 3443,
      "riger": 3444,
      "ples": 3445,
      "confer": 3446,
      "proof": 3447,
      "polic": 3448,
      "pointed": 3449,
      "grass": 3450,
      "jobs": 3451,
      "pale": 3452,
      "file": 3453,
      "hurts": 3454,
      "izen": 3455,
      "headed": 3456,
      "flood": 3457,
      "highly": 3458,
      "reasonable": 3459,
      "closet": 3460,
      "begins": 3461,
      "refriger": 3462,
      "efforts": 3463,
      "patience": 3464,
      "expert": 3465,
      "dependent": 3466,
      "larger": 3467,
      "announced": 3468,
      "idiot": 3469,
      "citizen": 3470,
      "policy": 3471,
      "refrigerator": 3472,
      "bark": 3473,
      "cul": 3474,
      "cru": 3475,
      "hated": 3476,
      "ire": 3477,
      "ls": 3478,
      "nes": 3479,
      "pants": 3480,
      "scold": 3481,
      "vive": 3482,
      "erg": 3483,
      "refer": 3484,
      "ency": 3485,
      "itali": 3486,
      "weigh": 3487,
      "rome": 3488,
      "tech": 3489,
      "trad": 3490,
      "somed": 3491,
      "socks": 3492,
      "atest": 3493,
      "liter": 3494,
      "themat": 3495,
      "greatest": 3496,
      "compan": 3497,
      "crack": 3498,
      "parking": 3499,
      "reasons": 3500,
      "psy": 3501,
      "mathemat": 3502,
      "medical": 3503,
      "signed": 3504,
      "selling": 3505,
      "bathroom": 3506,
      "generally": 3507,
      "candy": 3508,
      "camping": 3509,
      "lines": 3510,
      "persuaded": 3511,
      "knock": 3512,
      "sofa": 3513,
      "taro": 3514,
      "tastes": 3515,
      "cousin": 3516,
      "insisted": 3517,
      "braz": 3518,
      "fashion": 3519,
      "kilome": 3520,
      "dessert": 3521,
      ",\"": 3522,
      "bon": 3523,
      "eager": 3524,
      "pred": 3525,
      "pity": 3526,
      "tan": 3527,
      "van": 3528,
      "stars": 3529,
      "nod": 3530,
      "webs": 3531,
      "load": 3532,
      "tered": 3533,
      "entr": 3534,
      "track": 3535,
      "conce": 3536,
      "goods": 3537,
      "spain": 3538,
      "applied": 3539,
      "chest": 3540,
      "earns": 3541,
      "winning": 3542,
      "survive": 3543,
      "kindness": 3544,
      "accidents": 3545,
      "sett": 3546,
      "advance": 3547,
      "cookie": 3548,
      "musician": 3549,
      "thirteen": 3550,
      "denied": 3551,
      "spends": 3552,
      "bills": 3553,
      "refuse": 3554,
      "pond": 3555,
      "horri": 3556,
      "touched": 3557,
      "purse": 3558,
      "arguing": 3559,
      "hanging": 3560,
      "deliver": 3561,
      "politic": 3562,
      "notebook": 3563,
      "castle": 3564,
      "closer": 3565,
      "cigarette": 3566,
      "motorcycle": 3567,
      "preparing": 3568,
      "application": 3569,
      "severe": 3570,
      "chicago": 3571,
      "average": 3572,
      "someday": 3573,
      "ctor": 3574,
      "ler": 3575,
      "mos": 3576,
      "pul": 3577,
      "rit": 3578,
      "rab": 3579,
      "rarely": 3580,
      "sam": 3581,
      "thick": 3582,
      "inclu": 3583,
      "repa": 3584,
      "mex": 3585,
      "meals": 3586,
      "beard": 3587,
      "abs": 3588,
      "plant": 3589,
      "wheel": 3590,
      "apri": 3591,
      "classes": 3592,
      "lasted": 3593,
      "stays": 3594,
      "diam": 3595,
      "chee": 3596,
      "blan": 3597,
      "posed": 3598,
      "complic": 3599,
      "rainy": 3600,
      "court": 3601,
      "couraged": 3602,
      "evidence": 3603,
      "value": 3604,
      "occas": 3605,
      "argue": 3606,
      "assumed": 3607,
      "camp": 3608,
      "beyond": 3609,
      "grown": 3610,
      "embarrassed": 3611,
      "cancel": 3612,
      "film": 3613,
      "accompl": 3614,
      "alice": 3615,
      "cue": 3616,
      "tro": 3617,
      "ution": 3618,
      "total": 3619,
      "itive": 3620,
      "stren": 3621,
      "west": 3622,
      "chances": 3623,
      "alco": 3624,
      "worn": 3625,
      "expl": 3626,
      "poin": 3627,
      "artist": 3628,
      "aff": 3629,
      "assign": 3630,
      "walks": 3631,
      "ruined": 3632,
      "doctors": 3633,
      "invitation": 3634,
      "writes": 3635,
      "smaller": 3636,
      "suggesting": 3637,
      "falling": 3638,
      "stronger": 3639,
      "cases": 3640,
      "committed": 3641,
      "slipped": 3642,
      "appearance": 3643,
      "square": 3644,
      "destroyed": 3645,
      "ocean": 3646,
      "mathematics": 3647,
      "predic": 3648,
      "website": 3649,
      "repaired": 3650,
      "200": 3651,
      "cere": 3652,
      "equal": 3653,
      "fought": 3654,
      "lab": 3655,
      "silly": 3656,
      "reput": 3657,
      "noisy": 3658,
      "ays": 3659,
      "net": 3660,
      "accent": 3661,
      "okay": 3662,
      "contest": 3663,
      "bles": 3664,
      "ults": 3665,
      "poison": 3666,
      "achie": 3667,
      "buried": 3668,
      "spite": 3669,
      "rooms": 3670,
      "mayor": 3671,
      "brain": 3672,
      "apply": 3673,
      "final": 3674,
      "blamed": 3675,
      "rub": 3676,
      "ruin": 3677,
      "compared": 3678,
      "understands": 3679,
      "umi": 3680,
      "regular": 3681,
      "mrs": 3682,
      "confidence": 3683,
      "valu": 3684,
      "approve": 3685,
      "relation": 3686,
      "politics": 3687,
      "professional": 3688,
      "ignored": 3689,
      "relig": 3690,
      "drawer": 3691,
      "optimistic": 3692,
      "italian": 3693,
      "entrance": 3694,
      "rabbit": 3695,
      "april": 3696,
      "gust": 3697,
      "kn": 3698,
      "kai": 3699,
      "leng": 3700,
      "pted": 3701,
      "sink": 3702,
      "sour": 3703,
      "erk": 3704,
      "ism": 3705,
      "retired": 3706,
      "atic": 3707,
      "edge": 3708,
      "level": 3709,
      "stret": 3710,
      "dozen": 3711,
      "wever": 3712,
      "vert": 3713,
      "hok": 3714,
      "however": 3715,
      "cope": 3716,
      "protest": 3717,
      "pot": 3718,
      "poll": 3719,
      "bulle": 3720,
      "autom": 3721,
      "downstairs": 3722,
      "starts": 3723,
      "surround": 3724,
      "lugg": 3725,
      "thirsty": 3726,
      "spending": 3727,
      "general": 3728,
      "discussion": 3729,
      "witness": 3730,
      "candid": 3731,
      "punished": 3732,
      "debt": 3733,
      "officer": 3734,
      "employe": 3735,
      "gathered": 3736,
      "folded": 3737,
      "potatoes": 3738,
      "illegal": 3739,
      "communic": 3740,
      "conference": 3741,
      "absence": 3742,
      "streng": 3743,
      "kaido": 3744,
      "luggage": 3745,
      "cin": 3746,
      "fain": 3747,
      "ili": 3748,
      "sides": 3749,
      "ering": 3750,
      "meters": 3751,
      "hawa": 3752,
      "below": 3753,
      "arest": 3754,
      "soci": 3755,
      "dete": 3756,
      "helps": 3757,
      "reads": 3758,
      "anges": 3759,
      "intended": 3760,
      "shows": 3761,
      "hurried": 3762,
      "wished": 3763,
      "thanked": 3764,
      "promises": 3765,
      "sounded": 3766,
      "eleven": 3767,
      "baggage": 3768,
      "climbing": 3769,
      "arrange": 3770,
      "attacked": 3771,
      "strike": 3772,
      "robbed": 3773,
      "grabbed": 3774,
      "twins": 3775,
      "honor": 3776,
      "secrets": 3777,
      "africa": 3778,
      "financial": 3779,
      "kilometers": 3780,
      "length": 3781,
      "strength": 3782,
      "aut": 3783,
      "gam": 3784,
      "lent": 3785,
      "nuts": 3786,
      "sw": 3787,
      "retire": 3788,
      "nearest": 3789,
      "loan": 3790,
      "teaches": 3791,
      "ably": 3792,
      "hobby": 3793,
      "acy": 3794,
      "trade": 3795,
      "plate": 3796,
      "poc": 3797,
      "perfor": 3798,
      "wherever": 3799,
      "spir": 3800,
      "apparen": 3801,
      "shock": 3802,
      "bling": 3803,
      "phoned": 3804,
      "biggest": 3805,
      "corn": 3806,
      "crash": 3807,
      "settle": 3808,
      "shape": 3809,
      "stepped": 3810,
      "importance": 3811,
      "awful": 3812,
      "engage": 3813,
      "traveled": 3814,
      "burning": 3815,
      "ential": 3816,
      "curious": 3817,
      "generous": 3818,
      "translated": 3819,
      "document": 3820,
      "delayed": 3821,
      "clouds": 3822,
      "hokkaido": 3823,
      "apparent": 3824,
      "500": 3825,
      "baked": 3826,
      "cree": 3827,
      "cities": 3828,
      "gra": 3829,
      "honey": 3830,
      "ile": 3831,
      "pin": 3832,
      "phot": 3833,
      "rise": 3834,
      "ware": 3835,
      "zing": 3836,
      "toy": 3837,
      "eral": 3838,
      "ana": 3839,
      "rely": 3840,
      "rease": 3841,
      "lly": 3842,
      "oranges": 3843,
      "straw": 3844,
      "rot": 3845,
      "nel": 3846,
      "und": 3847,
      "cot": 3848,
      "exchange": 3849,
      "indust": 3850,
      "ours": 3851,
      "contain": 3852,
      "ilities": 3853,
      "jogging": 3854,
      "shocked": 3855,
      "june": 3856,
      "ignor": 3857,
      "surprising": 3858,
      "enjoying": 3859,
      "example": 3860,
      "hug": 3861,
      "humor": 3862,
      "computers": 3863,
      "advise": 3864,
      "appropri": 3865,
      "sweat": 3866,
      "coln": 3867,
      "package": 3868,
      "deserves": 3869,
      "searched": 3870,
      "product": 3871,
      "products": 3872,
      "photograph": 3873,
      "loudly": 3874,
      "lincoln": 3875,
      "largest": 3876,
      "tempted": 3877,
      "circ": 3878,
      "mirror": 3879,
      "stealing": 3880,
      "adopted": 3881,
      "ratul": 3882,
      "threatened": 3883,
      "weapon": 3884,
      "briefcase": 3885,
      "congratul": 3886,
      "reservation": 3887,
      "scolded": 3888,
      "settled": 3889,
      "horrible": 3890,
      "complicated": 3891,
      "hawaii": 3892,
      "photos": 3893,
      "bage": 3894,
      "cd": 3895,
      "cough": 3896,
      "een": 3897,
      "ggl": 3898,
      "ius": 3899,
      "oh": 3900,
      "sne": 3901,
      "uary": 3902,
      "arily": 3903,
      "ordin": 3904,
      "stage": 3905,
      "nowhere": 3906,
      "belt": 3907,
      "alle": 3908,
      "rie": 3909,
      "adays": 3910,
      "nowadays": 3911,
      "union": 3912,
      "unlocked": 3913,
      "irts": 3914,
      "ague": 3915,
      "helpful": 3916,
      "tense": 3917,
      "manners": 3918,
      "iest": 3919,
      "assy": 3920,
      "distr": 3921,
      "cares": 3922,
      "parti": 3923,
      "trains": 3924,
      "jeans": 3925,
      "higher": 3926,
      "warning": 3927,
      "eleph": 3928,
      "receive": 3929,
      "related": 3930,
      "riding": 3931,
      "ridic": 3932,
      "embassy": 3933,
      "treaty": 3934,
      "fingers": 3935,
      "champ": 3936,
      "dawn": 3937,
      "demanded": 3938,
      "suffering": 3939,
      "particularly": 3940,
      "flew": 3941,
      "reliable": 3942,
      "anticip": 3943,
      "attractive": 3944,
      "split": 3945,
      "culture": 3946,
      "environ": 3947,
      "reputation": 3948,
      "relationship": 3949,
      "em": 3950,
      "ith": 3951,
      "sch": 3952,
      "tin": 3953,
      "xed": 3954,
      "ata": 3955,
      "chan": 3956,
      "neg": 3957,
      "lobby": 3958,
      "access": 3959,
      "odd": 3960,
      "anged": 3961,
      "ames": 3962,
      "lessons": 3963,
      "minor": 3964,
      "turns": 3965,
      "pical": 3966,
      "sleeps": 3967,
      "opening": 3968,
      "sunglasses": 3969,
      "jewel": 3970,
      "century": 3971,
      "nearby": 3972,
      "enjoys": 3973,
      "legal": 3974,
      "subway": 3975,
      "oppos": 3976,
      "ugly": 3977,
      "punish": 3978,
      "mentioned": 3979,
      "greeted": 3980,
      "quality": 3981,
      "slightly": 3982,
      "canceled": 3983,
      "impression": 3984,
      "cherry": 3985,
      "wounded": 3986,
      "repeat": 3987,
      "acquainted": 3988,
      "currently": 3989,
      "visitors": 3990,
      "throat": 3991,
      "roses": 3992,
      "shorter": 3993,
      "engagement": 3994,
      "environment": 3995,
      "craw": 3996,
      "dust": 3997,
      "dig": 3998,
      "fan": 3999,
      "task": 4000,
      "xpected": 4001,
      "osen": 4002,
      "informed": 4003,
      "thetic": 4004,
      "relu": 4005,
      "beside": 4006,
      "roll": 4007,
      "wasted": 4008,
      "allerg": 4009,
      "tip": 4010,
      "ceiling": 4011,
      "advert": 4012,
      "uncomfortable": 4013,
      "sheep": 4014,
      "ambit": 4015,
      "social": 4016,
      "exist": 4017,
      "uled": 4018,
      "poet": 4019,
      "rescue": 4020,
      "mance": 4021,
      "spell": 4022,
      "thoughts": 4023,
      "disagree": 4024,
      "cleared": 4025,
      "owed": 4026,
      "begun": 4027,
      "breaking": 4028,
      "desp": 4029,
      "expectations": 4030,
      "flash": 4031,
      "salad": 4032,
      "taxes": 4033,
      "octo": 4034,
      "burgl": 4035,
      "unexpected": 4036,
      "newspapers": 4037,
      "publ": 4038,
      "fluently": 4039,
      "operation": 4040,
      "charac": 4041,
      "thousands": 4042,
      "prevent": 4043,
      "captured": 4044,
      "placed": 4045,
      "direction": 4046,
      "quarrel": 4047,
      "survived": 4048,
      "criminal": 4049,
      "rapid": 4050,
      "lecture": 4051,
      "brazil": 4052,
      "pulse": 4053,
      "diamond": 4054,
      "ceremon": 4055,
      "performance": 4056,
      "reluct": 4057,
      "tends": 4058,
      "ues": 4059,
      "insur": 4060,
      "asy": 4061,
      "hea": 4062,
      "stances": 4063,
      "adjust": 4064,
      "imate": 4065,
      "peter": 4066,
      "irrit": 4067,
      "excep": 4068,
      "india": 4069,
      "fog": 4070,
      "constru": 4071,
      "provided": 4072,
      "command": 4073,
      "clus": 4074,
      "pron": 4075,
      "parts": 4076,
      "latest": 4077,
      "bled": 4078,
      "paul": 4079,
      "minister": 4080,
      "trick": 4081,
      "pressure": 4082,
      "presence": 4083,
      "owns": 4084,
      "forms": 4085,
      "skirt": 4086,
      "effe": 4087,
      "expenses": 4088,
      "chairman": 4089,
      "gym": 4090,
      "political": 4091,
      "graduate": 4092,
      "assistance": 4093,
      "difficulties": 4094,
      "annoying": 4095,
      "leaned": 4096,
      "convenient": 4097,
      "mud": 4098,
      "breathe": 4099,
      "located": 4100,
      "tributed": 4101,
      "betrayed": 4102,
      "appropriate": 4103,
      "ridiculous": 4104,
      "october": 4105,
      "60": 4106,
      "aid": 4107,
      "equ": 4108,
      "host": 4109,
      "mies": 4110,
      "swear": 4111,
      "vase": 4112,
      "yal": 4113,
      "charm": 4114,
      "goal": 4115,
      "demo": 4116,
      "romantic": 4117,
      "fox": 4118,
      "bleed": 4119,
      "aves": 4120,
      "bum": 4121,
      "players": 4122,
      "misunderstanding": 4123,
      "grade": 4124,
      "divided": 4125,
      "keeping": 4126,
      "sitive": 4127,
      "hibit": 4128,
      "suppor": 4129,
      "funeral": 4130,
      "hunting": 4131,
      "crush": 4132,
      "jected": 4133,
      "shame": 4134,
      "attitude": 4135,
      "sensitive": 4136,
      "international": 4137,
      "evil": 4138,
      "flag": 4139,
      "basement": 4140,
      "complaints": 4141,
      "terribly": 4142,
      "apology": 4143,
      "enemies": 4144,
      "increase": 4145,
      "honesty": 4146,
      "grades": 4147,
      "prisoner": 4148,
      "packed": 4149,
      "smells": 4150,
      "departure": 4151,
      "towards": 4152,
      "gained": 4153,
      "released": 4154,
      "describe": 4155,
      "victi": 4156,
      "narrow": 4157,
      "concentrate": 4158,
      "determin": 4159,
      "pounds": 4160,
      "blanket": 4161,
      "occasion": 4162,
      "pockets": 4163,
      "insurance": 4164,
      "12": 4165,
      "bac": 4166,
      "chall": 4167,
      "east": 4168,
      "fy": 4169,
      "fal": 4170,
      "flies": 4171,
      "gri": 4172,
      "nature": 4173,
      "pig": 4174,
      "rare": 4175,
      "vain": 4176,
      "zes": 4177,
      "insec": 4178,
      "ery": 4179,
      "reck": 4180,
      "removed": 4181,
      "meg": 4182,
      "hen": 4183,
      "stress": 4184,
      "chris": 4185,
      "plastic": 4186,
      "happier": 4187,
      "stove": 4188,
      "apt": 4189,
      "betty": 4190,
      "puts": 4191,
      "stands": 4192,
      "pens": 4193,
      "cially": 4194,
      "tical": 4195,
      "stops": 4196,
      "desire": 4197,
      "cloth": 4198,
      "foods": 4199,
      "crashed": 4200,
      "options": 4201,
      "kidn": 4202,
      "concern": 4203,
      "genius": 4204,
      "boxes": 4205,
      "ficient": 4206,
      "confident": 4207,
      "sells": 4208,
      "hidden": 4209,
      "freed": 4210,
      "relative": 4211,
      "eighteen": 4212,
      "garbage": 4213,
      "bothering": 4214,
      "relaxed": 4215,
      "defend": 4216,
      "weapons": 4217,
      "claimed": 4218,
      "economic": 4219,
      "russian": 4220,
      "mystery": 4221,
      "explos": 4222,
      "bullet": 4223,
      "ceremony": 4224,
      "false": 4225,
      "fus": 4226,
      "iod": 4227,
      "ials": 4228,
      "nal": 4229,
      "og": 4230,
      "oven": 4231,
      "pir": 4232,
      "pages": 4233,
      "rushed": 4234,
      "tat": 4235,
      "tori": 4236,
      "tower": 4237,
      "recover": 4238,
      "recovered": 4239,
      "armed": 4240,
      "added": 4241,
      "abl": 4242,
      "absor": 4243,
      "unconscious": 4244,
      "trunk": 4245,
      "ify": 4246,
      "shi": 4247,
      "conclus": 4248,
      "composition": 4249,
      "joy": 4250,
      "inet": 4251,
      "watches": 4252,
      "establ": 4253,
      "finds": 4254,
      "actress": 4255,
      "lighted": 4256,
      "design": 4257,
      "july": 4258,
      "bitter": 4259,
      "invented": 4260,
      "umstances": 4261,
      "dreaming": 4262,
      "considering": 4263,
      "register": 4264,
      "suitable": 4265,
      "worthy": 4266,
      "soldier": 4267,
      "heavily": 4268,
      "ports": 4269,
      "simply": 4270,
      "danced": 4271,
      "satisfactory": 4272,
      "customers": 4273,
      "ladder": 4274,
      "aire": 4275,
      "talent": 4276,
      "talented": 4277,
      "thorough": 4278,
      "addition": 4279,
      "stamp": 4280,
      "embarrassing": 4281,
      "volunteer": 4282,
      "turning": 4283,
      "electric": 4284,
      "switch": 4285,
      "various": 4286,
      "relieved": 4287,
      "affairs": 4288,
      "employees": 4289,
      "swam": 4290,
      "circumstances": 4291,
      "allergic": 4292,
      "bing": 4293,
      "ilet": 4294,
      "junk": 4295,
      "jury": 4296,
      "lam": 4297,
      "mild": 4298,
      "naked": 4299,
      "ox": 4300,
      "pac": 4301,
      "tag": 4302,
      "yoko": 4303,
      "topic": 4304,
      "toilet": 4305,
      "inven": 4306,
      "influ": 4307,
      "eds": 4308,
      "itch": 4309,
      "itself": 4310,
      "staff": 4311,
      "bel": 4312,
      "sem": 4313,
      "sequ": 4314,
      "alter": 4315,
      "undry": 4316,
      "activ": 4317,
      "oked": 4318,
      "impatient": 4319,
      "amused": 4320,
      "aki": 4321,
      "provide": 4322,
      "comed": 4323,
      "compe": 4324,
      "comfort": 4325,
      "period": 4326,
      "faith": 4327,
      "whoever": 4328,
      "bookstore": 4329,
      "guide": 4330,
      "downtown": 4331,
      "sip": 4332,
      "handker": 4333,
      "cies": 4334,
      "visa": 4335,
      "counting": 4336,
      "laundry": 4337,
      "arrival": 4338,
      "answering": 4339,
      "section": 4340,
      "alibi": 4341,
      "complex": 4342,
      "interpre": 4343,
      "interview": 4344,
      "198": 4345,
      "199": 4346,
      "experiment": 4347,
      "joined": 4348,
      "opposed": 4349,
      "kore": 4350,
      "slee": 4351,
      "sticks": 4352,
      "steps": 4353,
      "furious": 4354,
      "fascin": 4355,
      "society": 4356,
      "damaged": 4357,
      "improved": 4358,
      "suffered": 4359,
      "capable": 4360,
      "documents": 4361,
      "salesman": 4362,
      "decei": 4363,
      "confessed": 4364,
      "tools": 4365,
      "boots": 4366,
      "tradition": 4367,
      "nodded": 4368,
      "valuable": 4369,
      "ordinary": 4370,
      "handkerchief": 4371,
      "11": 4372,
      "alike": 4373,
      "ico": 4374,
      "jones": 4375,
      "lap": 4376,
      "racket": 4377,
      "sque": 4378,
      "vit": 4379,
      "thus": 4380,
      "aster": 4381,
      "stain": 4382,
      "chat": 4383,
      "rots": 4384,
      "loose": 4385,
      "loaded": 4386,
      "unwilling": 4387,
      "notes": 4388,
      "term": 4389,
      "coins": 4390,
      "somehow": 4391,
      "tron": 4392,
      "shine": 4393,
      "urity": 4394,
      "decent": 4395,
      "devoted": 4396,
      "explo": 4397,
      "agers": 4398,
      "agger": 4399,
      "quali": 4400,
      "carpet": 4401,
      "angers": 4402,
      "stub": 4403,
      "rights": 4404,
      "grave": 4405,
      "cheating": 4406,
      "pathetic": 4407,
      "comprom": 4408,
      "causes": 4409,
      "arriving": 4410,
      "remembered": 4411,
      "killing": 4412,
      "sentenced": 4413,
      "obli": 4414,
      "dealing": 4415,
      "babysit": 4416,
      "changing": 4417,
      "snowing": 4418,
      "kissing": 4419,
      "bio": 4420,
      "transfer": 4421,
      "warmer": 4422,
      "charged": 4423,
      "murdered": 4424,
      "punct": 4425,
      "holidays": 4426,
      "queen": 4427,
      "sandwiches": 4428,
      "amazed": 4429,
      "prints": 4430,
      "robber": 4431,
      "hammer": 4432,
      "incredible": 4433,
      "mexico": 4434,
      "surrounded": 4435,
      "apparently": 4436,
      "explosion": 4437,
      "15": 4438,
      "40": 4439,
      "bare": 4440,
      "bited": 4441,
      "han": 4442,
      "mig": 4443,
      "mouse": 4444,
      "rush": 4445,
      "tite": 4446,
      "treas": 4447,
      "vard": 4448,
      "toys": 4449,
      "height": 4450,
      "encouraged": 4451,
      "rolled": 4452,
      "verse": 4453,
      "ghosts": 4454,
      "shel": 4455,
      "acts": 4456,
      "oker": 4457,
      "ppy": 4458,
      "trap": 4459,
      "sop": 4460,
      "sail": 4461,
      "depos": 4462,
      "delighted": 4463,
      "condu": 4464,
      "resour": 4465,
      "render": 4466,
      "glanced": 4467,
      "oldest": 4468,
      "sunny": 4469,
      "owner": 4470,
      "security": 4471,
      "content": 4472,
      "laurie": 4473,
      "ships": 4474,
      "appetite": 4475,
      "mile": 4476,
      "screw": 4477,
      "completed": 4478,
      "calcul": 4479,
      "decisions": 4480,
      "remains": 4481,
      "battery": 4482,
      "aimed": 4483,
      "pilot": 4484,
      "poems": 4485,
      "tempor": 4486,
      "organized": 4487,
      "crops": 4488,
      "annoyed": 4489,
      "property": 4490,
      "authority": 4491,
      "budget": 4492,
      "coincid": 4493,
      "material": 4494,
      "points": 4495,
      "detective": 4496,
      "democr": 4497,
      "fant": 4498,
      "pal": 4499,
      "rated": 4500,
      "uko": 4501,
      "wra": 4502,
      "yumi": 4503,
      "isted": 4504,
      "rejected": 4505,
      "attempt": 4506,
      "toma": 4507,
      "chosen": 4508,
      "ghost": 4509,
      "adult": 4510,
      "tex": 4511,
      "histic": 4512,
      "suits": 4513,
      "shin": 4514,
      "degre": 4515,
      "exhibit": 4516,
      "consequ": 4517,
      "manner": 4518,
      "tingu": 4519,
      "drag": 4520,
      "bran": 4521,
      "cheaper": 4522,
      "lucy": 4523,
      "begged": 4524,
      "fridge": 4525,
      "sings": 4526,
      "lightning": 4527,
      "prime": 4528,
      "shared": 4529,
      "dumb": 4530,
      "picking": 4531,
      "laught": 4532,
      "object": 4533,
      "interrup": 4534,
      "suitcases": 4535,
      "faces": 4536,
      "tallest": 4537,
      "buildings": 4538,
      "discussing": 4539,
      "gunshot": 4540,
      "frequ": 4541,
      "postpon": 4542,
      "dancer": 4543,
      "kobe": 4544,
      "harvard": 4545,
      "violent": 4546,
      "screaming": 4547,
      "statement": 4548,
      "drugs": 4549,
      "celebrate": 4550,
      "electricity": 4551,
      "scientist": 4552,
      "scientists": 4553,
      "competition": 4554,
      "increased": 4555,
      "politician": 4556,
      "alcohol": 4557,
      "automob": 4558,
      "character": 4559,
      "exception": 4560,
      "determined": 4561,
      "sophistic": 4562,
      "degrees": 4563,
      "sophisticated": 4564,
      "300": 4565,
      "based": 4566,
      "cence": 4567,
      "io": 4568,
      "ku": 4569,
      "py": 4570,
      "phe": 4571,
      "pier": 4572,
      "sake": 4573,
      "tit": 4574,
      "tun": 4575,
      "vant": 4576,
      "infe": 4577,
      "anci": 4578,
      "revol": 4579,
      "attempted": 4580,
      "noti": 4581,
      "beef": 4582,
      "lips": 4583,
      "liber": 4584,
      "march": 4585,
      "urged": 4586,
      "dev": 4587,
      "yelling": 4588,
      "ako": 4589,
      "worker": 4590,
      "cath": 4591,
      "conserv": 4592,
      "promotion": 4593,
      "ached": 4594,
      "carrots": 4595,
      "otherwise": 4596,
      "typical": 4597,
      "cared": 4598,
      "earn": 4599,
      "counter": 4600,
      "jeff": 4601,
      "haircut": 4602,
      "steak": 4603,
      "umn": 4604,
      "suggestions": 4605,
      "billion": 4606,
      "consideration": 4607,
      "effect": 4608,
      "presented": 4609,
      "interrupt": 4610,
      "maid": 4611,
      "milit": 4612,
      "doubts": 4613,
      "197": 4614,
      "cakes": 4615,
      "appreciated": 4616,
      "incere": 4617,
      "occup": 4618,
      "magn": 4619,
      "magic": 4620,
      "imagination": 4621,
      "judging": 4622,
      "families": 4623,
      "neckl": 4624,
      "reminds": 4625,
      "bowl": 4626,
      "entirely": 4627,
      "pillow": 4628,
      "instructions": 4629,
      "admire": 4630,
      "errors": 4631,
      "drowned": 4632,
      "original": 4633,
      "autumn": 4634,
      "schol": 4635,
      "burglar": 4636,
      "compromise": 4637,
      "ancient": 4638,
      "25": 4639,
      "gs": 4640,
      "pink": 4641,
      "punch": 4642,
      "san": 4643,
      "shave": 4644,
      "tent": 4645,
      "tore": 4646,
      "independent": 4647,
      "ano": 4648,
      "anni": 4649,
      "isto": 4650,
      "regre": 4651,
      "arian": 4652,
      "enthus": 4653,
      "leather": 4654,
      "beth": 4655,
      "lif": 4656,
      "aly": 4657,
      "espe": 4658,
      "accur": 4659,
      "terror": 4660,
      "peel": 4661,
      "ammed": 4662,
      "hers": 4663,
      "deaf": 4664,
      "demon": 4665,
      "cave": 4666,
      "confirm": 4667,
      "useless": 4668,
      "bull": 4669,
      "spin": 4670,
      "selfish": 4671,
      "overweight": 4672,
      "tles": 4673,
      "career": 4674,
      "planes": 4675,
      "waiter": 4676,
      "compare": 4677,
      "tained": 4678,
      "finishing": 4679,
      "athle": 4680,
      "dining": 4681,
      "meetings": 4682,
      "closely": 4683,
      "sixty": 4684,
      "internet": 4685,
      "hugged": 4686,
      "popcorn": 4687,
      "dedic": 4688,
      "guns": 4689,
      "bargain": 4690,
      "block": 4691,
      "weekends": 4692,
      "approved": 4693,
      "opinions": 4694,
      "disappoint": 4695,
      "silver": 4696,
      "arranged": 4697,
      "imagined": 4698,
      "gifts": 4699,
      "wooden": 4700,
      "deserved": 4701,
      "charges": 4702,
      "candles": 4703,
      "copies": 4704,
      "pipe": 4705,
      "snakes": 4706,
      "daily": 4707,
      "washington": 4708,
      "screamed": 4709,
      "tourists": 4710,
      "relevant": 4711,
      "nonsense": 4712,
      "practical": 4713,
      "requires": 4714,
      "frankly": 4715,
      "puzzle": 4716,
      "shouted": 4717,
      "railroad": 4718,
      "scrat": 4719,
      "accomplish": 4720,
      "labor": 4721,
      "charming": 4722,
      "established": 4723,
      "stubborn": 4724,
      "coincidence": 4725,
      "wrapped": 4726,
      "laughter": 4727,
      "regrets": 4728,
      "enthusi": 4729,
      "especially": 4730,
      "bone": 4731,
      "bent": 4732,
      "buses": 4733,
      "cure": 4734,
      "data": 4735,
      "fere": 4736,
      "ffe": 4737,
      "glo": 4738,
      "grace": 4739,
      "lat": 4740,
      "oth": 4741,
      "oting": 4742,
      "ration": 4743,
      "ume": 4744,
      "ossing": 4745,
      "toast": 4746,
      "onto": 4747,
      "bee": 4748,
      "seated": 4749,
      "lim": 4750,
      "rode": 4751,
      "album": 4752,
      "essay": 4753,
      "timid": 4754,
      "rifle": 4755,
      "ador": 4756,
      "aces": 4757,
      "accompan": 4758,
      "imp": 4759,
      "yourselves": 4760,
      "cock": 4761,
      "coward": 4762,
      "ically": 4763,
      "boil": 4764,
      "decor": 4765,
      "ending": 4766,
      "exchanged": 4767,
      "pover": 4768,
      "comb": 4769,
      "resist": 4770,
      "rented": 4771,
      "discount": 4772,
      "mayuko": 4773,
      "brand": 4774,
      "diplo": 4775,
      "blos": 4776,
      "counts": 4777,
      "surrender": 4778,
      "hibited": 4779,
      "fran": 4780,
      "previous": 4781,
      "clothing": 4782,
      "classical": 4783,
      "ops": 4784,
      "deny": 4785,
      "examined": 4786,
      "appointed": 4787,
      "interfere": 4788,
      "cups": 4789,
      "convic": 4790,
      "respond": 4791,
      "struggl": 4792,
      "experienced": 4793,
      "disappointment": 4794,
      "insane": 4795,
      "foreigners": 4796,
      "fifth": 4797,
      "charity": 4798,
      "smarter": 4799,
      "snack": 4800,
      "fortunate": 4801,
      "innocence": 4802,
      "cabinet": 4803,
      "scarce": 4804,
      "engineer": 4805,
      "britain": 4806,
      "carelessness": 4807,
      "properly": 4808,
      "consult": 4809,
      "remarkable": 4810,
      "acquaint": 4811,
      "permitted": 4812,
      "wealthy": 4813,
      "statue": 4814,
      "directly": 4815,
      "cruel": 4816,
      "assignment": 4817,
      "candidate": 4818,
      "alley": 4819,
      "particip": 4820,
      "champion": 4821,
      "construction": 4822,
      "pronoun": 4823,
      "bleeding": 4824,
      "freedom": 4825,
      "tattoo": 4826,
      "qualified": 4827,
      "necklace": 4828,
      "13": 4829,
      "16": 4830,
      "17": 4831,
      "dated": 4832,
      "eli": 4833,
      "fare": 4834,
      "fers": 4835,
      "jan": 4836,
      "lou": 4837,
      "lor": 4838,
      "mall": 4839,
      "nago": 4840,
      "oph": 4841,
      "poker": 4842,
      "sir": 4843,
      "sca": 4844,
      "swall": 4845,
      "sincere": 4846,
      "tw": 4847,
      "tune": 4848,
      "reen": 4849,
      "youth": 4850,
      "aston": 4851,
      "arch": 4852,
      "enge": 4853,
      "stun": 4854,
      "nology": 4855,
      "chased": 4856,
      "role": 4857,
      "cane": 4858,
      "loyal": 4859,
      "pects": 4860,
      "pepper": 4861,
      "plu": 4862,
      "degree": 4863,
      "exagger": 4864,
      "aging": 4865,
      "indi": 4866,
      "promo": 4867,
      "proceed": 4868,
      "illed": 4869,
      "resses": 4870,
      "igner": 4871,
      "clerk": 4872,
      "chop": 4873,
      "essential": 4874,
      "bush": 4875,
      "auto": 4876,
      "prince": 4877,
      "lottery": 4878,
      "shoe": 4879,
      "blank": 4880,
      "parties": 4881,
      "phil": 4882,
      "nerves": 4883,
      "pretti": 4884,
      "personally": 4885,
      "prefers": 4886,
      "prior": 4887,
      "arrives": 4888,
      "sors": 4889,
      "crossing": 4890,
      "ipment": 4891,
      "vili": 4892,
      "screen": 4893,
      "collection": 4894,
      "laws": 4895,
      "azz": 4896,
      "flour": 4897,
      "pianist": 4898,
      "sending": 4899,
      "bloom": 4900,
      "grows": 4901,
      "prisoners": 4902,
      "insist": 4903,
      "customer": 4904,
      "treatment": 4905,
      "avoiding": 4906,
      "owes": 4907,
      "risks": 4908,
      "searching": 4909,
      "grocer": 4910,
      "scary": 4911,
      "motional": 4912,
      "tues": 4913,
      "practicing": 4914,
      "cigarettes": 4915,
      "objection": 4916,
      "scot": 4917,
      "panic": 4918,
      "reported": 4919,
      "pretending": 4920,
      "affected": 4921,
      "knee": 4922,
      "hesitate": 4923,
      "defeated": 4924,
      "conceal": 4925,
      "cheek": 4926,
      "knit": 4927,
      "pollution": 4928,
      "industry": 4929,
      "rapidly": 4930,
      "equipment": 4931,
      "insects": 4932,
      "temporary": 4933,
      "fantastic": 4934,
      "postponed": 4935,
      "scholar": 4936,
      "blosso": 4937,
      "nagoya": 4938,
      "fate": 4939,
      "gers": 4940,
      "lung": 4941,
      "mere": 4942,
      "pure": 4943,
      "tub": 4944,
      "vir": 4945,
      "ws": 4946,
      "reward": 4947,
      "ats": 4948,
      "ara": 4949,
      "aries": 4950,
      "beating": 4951,
      "web": 4952,
      "sees": 4953,
      "liqu": 4954,
      "forgetting": 4955,
      "forces": 4956,
      "admir": 4957,
      "actions": 4958,
      "pean": 4959,
      "coach": 4960,
      "fellow": 4961,
      "soap": 4962,
      "shed": 4963,
      "shif": 4964,
      "shirts": 4965,
      "exe": 4966,
      "fol": 4967,
      "letting": 4968,
      "consis": 4969,
      "bucket": 4970,
      "forehead": 4971,
      "pride": 4972,
      "drum": 4973,
      "gray": 4974,
      "waved": 4975,
      "nights": 4976,
      "handy": 4977,
      "cheated": 4978,
      "driven": 4979,
      "swimmer": 4980,
      "ization": 4981,
      "cris": 4982,
      "password": 4983,
      "deals": 4984,
      "collecting": 4985,
      "entering": 4986,
      "presents": 4987,
      "versary": 4988,
      "shortly": 4989,
      "falls": 4990,
      "seconds": 4991,
      "longest": 4992,
      "bible": 4993,
      "chairs": 4994,
      "susan": 4995,
      "sushi": 4996,
      "smooth": 4997,
      "hundreds": 4998,
      "imagin": 4999,
      "customs": 5000,
      "puppy": 5001,
      "farmer": 5002,
      "proposed": 5003,
      "naive": 5004,
      "conditions": 5005,
      "official": 5006,
      "community": 5007,
      "employ": 5008,
      "circle": 5009,
      "attracted": 5010,
      "defense": 5011,
      "frozen": 5012,
      "congress": 5013,
      "affection": 5014,
      "balance": 5015,
      "admired": 5016,
      "kilo": 5017,
      "barking": 5018,
      "technology": 5019,
      "literature": 5020,
      "delivered": 5021,
      "communicate": 5022,
      "underest": 5023,
      "distracted": 5024,
      "published": 5025,
      "challenge": 5026,
      "deceived": 5027,
      "treasure": 5028,
      "resources": 5029,
      "conservative": 5030,
      "military": 5031,
      "anniversary": 5032,
      "demonstr": 5033,
      "individ": 5034,
      "philos": 5035,
      "bid": 5036,
      "hir": 5037,
      "jazz": 5038,
      "kward": 5039,
      "pone": 5040,
      "ram": 5041,
      "rating": 5042,
      "sno": 5043,
      "slo": 5044,
      "ud": 5045,
      "uff": 5046,
      "zzy": 5047,
      "thri": 5048,
      "thumb": 5049,
      "inch": 5050,
      "issors": 5051,
      "replace": 5052,
      "remove": 5053,
      "resem": 5054,
      "assure": 5055,
      "associ": 5056,
      "astron": 5057,
      "arab": 5058,
      "lli": 5059,
      "ens": 5060,
      "stab": 5061,
      "becomes": 5062,
      "identi": 5063,
      "wiped": 5064,
      "fork": 5065,
      "forgiven": 5066,
      "cel": 5067,
      "tear": 5068,
      "usa": 5069,
      "acqui": 5070,
      "coast": 5071,
      "boiled": 5072,
      "modest": 5073,
      "sore": 5074,
      "safer": 5075,
      "ender": 5076,
      "process": 5077,
      "prohibited": 5078,
      "shoulders": 5079,
      "rescu": 5080,
      "aft": 5081,
      "ously": 5082,
      "misunderstood": 5083,
      "disco": 5084,
      "print": 5085,
      "grou": 5086,
      "standard": 5087,
      "partner": 5088,
      "dizzy": 5089,
      "civili": 5090,
      "pardon": 5091,
      "positive": 5092,
      "minis": 5093,
      "mature": 5094,
      "hiking": 5095,
      "gery": 5096,
      "trained": 5097,
      "hopeless": 5098,
      "strangers": 5099,
      "pays": 5100,
      "judy": 5101,
      "listens": 5102,
      "passing": 5103,
      "breaks": 5104,
      "nuclear": 5105,
      "dumped": 5106,
      "obst": 5107,
      "lley": 5108,
      "scri": 5109,
      "scener": 5110,
      "scissors": 5111,
      "follows": 5112,
      "holds": 5113,
      "awkward": 5114,
      "ringing": 5115,
      "nia": 5116,
      "checking": 5117,
      "strongly": 5118,
      "dict": 5119,
      "bert": 5120,
      "valent": 5121,
      "necessarily": 5122,
      "growth": 5123,
      "receipt": 5124,
      "packing": 5125,
      "ladies": 5126,
      "bottles": 5127,
      "correctly": 5128,
      "candle": 5129,
      "fastest": 5130,
      "grams": 5131,
      "records": 5132,
      "throwing": 5133,
      "millionaire": 5134,
      "wisdom": 5135,
      "demands": 5136,
      "princip": 5137,
      "slammed": 5138,
      "requested": 5139,
      "hypo": 5140,
      "reminded": 5141,
      "translation": 5142,
      "target": 5143,
      "turkey": 5144,
      "drawing": 5145,
      "require": 5146,
      "approached": 5147,
      "potato": 5148,
      "physical": 5149,
      "whisper": 5150,
      "developed": 5151,
      "disturbed": 5152,
      "collap": 5153,
      "sympath": 5154,
      "soul": 5155,
      "curtains": 5156,
      "journey": 5157,
      "knocking": 5158,
      "stretch": 5159,
      "lamp": 5160,
      "automobile": 5161,
      "accompanied": 5162,
      "poverty": 5163,
      "tuesday": 5164,
      "consists": 5165,
      "scenery": 5166,
      "principal": 5167,
      "atom": 5168,
      "cis": 5169,
      "crew": 5170,
      "fake": 5171,
      "hig": 5172,
      "ibly": 5173,
      "juni": 5174,
      "nam": 5175,
      "nick": 5176,
      "nations": 5177,
      "obe": 5178,
      "praised": 5179,
      "sank": 5180,
      "thur": 5181,
      "aspir": 5182,
      "hest": 5183,
      "hears": 5184,
      "stream": 5185,
      "lion": 5186,
      "esper": 5187,
      "ric": 5188,
      "admission": 5189,
      "adults": 5190,
      "ante": 5191,
      "holic": 5192,
      "unted": 5193,
      "unfair": 5194,
      "acknowled": 5195,
      "ppers": 5196,
      "sued": 5197,
      "trash": 5198,
      "ambul": 5199,
      "ura": 5200,
      "yelled": 5201,
      "justice": 5202,
      "faults": 5203,
      "stores": 5204,
      "spy": 5205,
      "overseas": 5206,
      "miser": 5207,
      "erson": 5208,
      "dislike": 5209,
      "files": 5210,
      "phr": 5211,
      "showing": 5212,
      "hike": 5213,
      "hurting": 5214,
      "ketch": 5215,
      "supply": 5216,
      "mplo": 5217,
      "painful": 5218,
      "voices": 5219,
      "volley": 5220,
      "safely": 5221,
      "skate": 5222,
      "skating": 5223,
      "exams": 5224,
      "collect": 5225,
      "brings": 5226,
      "refre": 5227,
      "planet": 5228,
      "male": 5229,
      "daughters": 5230,
      "porch": 5231,
      "postpone": 5232,
      "unemplo": 5233,
      "acceptable": 5234,
      "leaders": 5235,
      "fluent": 5236,
      "opera": 5237,
      "farmers": 5238,
      "anna": 5239,
      "flights": 5240,
      "steady": 5241,
      "snake": 5242,
      "colors": 5243,
      "princess": 5244,
      "scarf": 5245,
      "recommended": 5246,
      "directions": 5247,
      "resigned": 5248,
      "nara": 5249,
      "pills": 5250,
      "develop": 5251,
      "russia": 5252,
      "flir": 5253,
      "connection": 5254,
      "strictly": 5255,
      "constant": 5256,
      "incredibly": 5257,
      "blowing": 5258,
      "psycho": 5259,
      "religion": 5260,
      "gambling": 5261,
      "grav": 5262,
      "strawber": 5263,
      "contains": 5264,
      "opposite": 5265,
      "flashlight": 5266,
      "effective": 5267,
      "alternative": 5268,
      "squee": 5269,
      "punctual": 5270,
      "consequences": 5271,
      "branch": 5272,
      "occupied": 5273,
      "diplomat": 5274,
      "crisis": 5275,
      "highest": 5276,
      "junior": 5277,
      "volleyball": 5278,
      "bass": 5279,
      "dor": 5280,
      "dick": 5281,
      "eld": 5282,
      "fried": 5283,
      "gon": 5284,
      "kin": 5285,
      "kim": 5286,
      "lind": 5287,
      "rout": 5288,
      "shad": 5289,
      "vil": 5290,
      "wand": 5291,
      "anto": 5292,
      "reve": 5293,
      "ony": 5294,
      "mester": 5295,
      "leak": 5296,
      "stiff": 5297,
      "idy": 5298,
      "semester": 5299,
      "chu": 5300,
      "rog": 5301,
      "allies": 5302,
      "neat": 5303,
      "loving": 5304,
      "maria": 5305,
      "fest": 5306,
      "fewer": 5307,
      "utter": 5308,
      "pole": 5309,
      "reduce": 5310,
      "els": 5311,
      "elbow": 5312,
      "mbled": 5313,
      "august": 5314,
      "mistook": 5315,
      "guar": 5316,
      "distri": 5317,
      "handwriting": 5318,
      "broad": 5319,
      "shooting": 5320,
      "buys": 5321,
      "blon": 5322,
      "belief": 5323,
      "parade": 5324,
      "matches": 5325,
      "surgery": 5326,
      "lawn": 5327,
      "fund": 5328,
      "hunger": 5329,
      "greatly": 5330,
      "bitten": 5331,
      "border": 5332,
      "wards": 5333,
      "fails": 5334,
      "rings": 5335,
      "solving": 5336,
      "reality": 5337,
      "welcomed": 5338,
      "universe": 5339,
      "response": 5340,
      "blown": 5341,
      "kitten": 5342,
      "seventeen": 5343,
      "gradually": 5344,
      "sights": 5345,
      "doubtful": 5346,
      "generation": 5347,
      "extent": 5348,
      "desert": 5349,
      "agrees": 5350,
      "batter": 5351,
      "superior": 5352,
      "violence": 5353,
      "powerful": 5354,
      "politely": 5355,
      "created": 5356,
      "creative": 5357,
      "aboard": 5358,
      "benef": 5359,
      "personality": 5360,
      "organization": 5361,
      "quarter": 5362,
      "victory": 5363,
      "approaching": 5364,
      "savings": 5365,
      "convenience": 5366,
      "breathing": 5367,
      "drowning": 5368,
      "skills": 5369,
      "journal": 5370,
      "troops": 5371,
      "achieve": 5372,
      "achieved": 5373,
      "rotten": 5374,
      "punishment": 5375,
      "kidnapped": 5376,
      "fussy": 5377,
      "absorbed": 5378,
      "influence": 5379,
      "accurate": 5380,
      "limited": 5381,
      "individual": 5382,
      "rescued": 5383,
      "esperanto": 5384,
      "awe": 5385,
      "bunch": 5386,
      "dried": 5387,
      "dresses": 5388,
      "fra": 5389,
      "gorge": 5390,
      "lid": 5391,
      "pand": 5392,
      "pisto": 5393,
      "sin": 5394,
      "ske": 5395,
      "swed": 5396,
      "wink": 5397,
      "wage": 5398,
      "zi": 5399,
      "inher": 5400,
      "analy": 5401,
      "remo": 5402,
      "attor": 5403,
      "heli": 5404,
      "ening": 5405,
      "lemon": 5406,
      "stadi": 5407,
      "haunted": 5408,
      "chase": 5409,
      "lifor": 5410,
      "rigu": 5411,
      "geon": 5412,
      "outdoors": 5413,
      "mari": 5414,
      "acle": 5415,
      "imum": 5416,
      "immig": 5417,
      "pets": 5418,
      "someplace": 5419,
      "febr": 5420,
      "trapped": 5421,
      "planted": 5422,
      "depress": 5423,
      "cage": 5424,
      "califor": 5425,
      "tenti": 5426,
      "manu": 5427,
      "carries": 5428,
      "offended": 5429,
      "hometown": 5430,
      "menu": 5431,
      "speakers": 5432,
      "disgust": 5433,
      "intrigu": 5434,
      "pros": 5435,
      "waist": 5436,
      "handled": 5437,
      "civil": 5438,
      "torn": 5439,
      "moral": 5440,
      "pajam": 5441,
      "rug": 5442,
      "compli": 5443,
      "wins": 5444,
      "shown": 5445,
      "babies": 5446,
      "frust": 5447,
      "precious": 5448,
      "trial": 5449,
      "tricks": 5450,
      "funds": 5451,
      "prescri": 5452,
      "johnson": 5453,
      "thankful": 5454,
      "advent": 5455,
      "advanced": 5456,
      "numbers": 5457,
      "ggy": 5458,
      "observe": 5459,
      "dealt": 5460,
      "visits": 5461,
      "tests": 5462,
      "telephoned": 5463,
      "mix": 5464,
      "sixteen": 5465,
      "spoon": 5466,
      "awfully": 5467,
      "solid": 5468,
      "deadline": 5469,
      "complaint": 5470,
      "signific": 5471,
      "subst": 5472,
      "rising": 5473,
      "suspected": 5474,
      "blackboard": 5475,
      "freak": 5476,
      "wednes": 5477,
      "eighty": 5478,
      "oppon": 5479,
      "patients": 5480,
      "leading": 5481,
      "cellphone": 5482,
      "messages": 5483,
      "smokes": 5484,
      "bribe": 5485,
      "brilli": 5486,
      "loses": 5487,
      "burns": 5488,
      "slip": 5489,
      "scheduled": 5490,
      "tightly": 5491,
      "magazines": 5492,
      "majority": 5493,
      "director": 5494,
      "volunteers": 5495,
      "volunteered": 5496,
      "ificent": 5497,
      "celebrating": 5498,
      "lowered": 5499,
      "rumors": 5500,
      "description": 5501,
      "required": 5502,
      "cousins": 5503,
      "score": 5504,
      "textbook": 5505,
      "declared": 5506,
      "declined": 5507,
      "whistle": 5508,
      "cows": 5509,
      "puzzled": 5510,
      "nails": 5511,
      "separated": 5512,
      "pless": 5513,
      "citizens": 5514,
      "mosqui": 5515,
      "fainted": 5516,
      "honeymoon": 5517,
      "ignorance": 5518,
      "elephants": 5519,
      "conclusion": 5520,
      "pacific": 5521,
      "invention": 5522,
      "deposit": 5523,
      "magnificent": 5524,
      "scratch": 5525,
      "francis": 5526,
      "blossoms": 5527,
      "arabic": 5528,
      "ambulance": 5529,
      "linda": 5530,
      "festi": 5531,
      "guarante": 5532,
      "awesome": 5533,
      "gorgeous": 5534,
      "stadium": 5535,
      "february": 5536,
      "california": 5537,
      "pajamas": 5538,
      "ale": 5539,
      "awoke": 5540,
      "brace": 5541,
      "eth": 5542,
      "egy": 5543,
      "gor": 5544,
      "james": 5545,
      "mass": 5546,
      "nag": 5547,
      "tap": 5548,
      "tank": 5549,
      "toss": 5550,
      "uk": 5551,
      "osity": 5552,
      "thunder": 5553,
      "tone": 5554,
      "toler": 5555,
      "represent": 5556,
      "meter": 5557,
      "mechan": 5558,
      "asse": 5559,
      "itated": 5560,
      "vey": 5561,
      "stare": 5562,
      "hamb": 5563,
      "beans": 5564,
      "tires": 5565,
      "riosity": 5566,
      "hook": 5567,
      "unken": 5568,
      "accompany": 5569,
      "impolite": 5570,
      "coal": 5571,
      "irrelevant": 5572,
      "trou": 5573,
      "mobi": 5574,
      "motiv": 5575,
      "ups": 5576,
      "deer": 5577,
      "exit": 5578,
      "expressed": 5579,
      "focus": 5580,
      "cafe": 5581,
      "pers": 5582,
      "joe": 5583,
      "spec": 5584,
      "homeless": 5585,
      "forecast": 5586,
      "overcome": 5587,
      "overcoat": 5588,
      "drunken": 5589,
      "meets": 5590,
      "mental": 5591,
      "shots": 5592,
      "mondays": 5593,
      "monkey": 5594,
      "earned": 5595,
      "posses": 5596,
      "nerve": 5597,
      "sits": 5598,
      "minds": 5599,
      "colder": 5600,
      "corre": 5601,
      "expects": 5602,
      "sunset": 5603,
      "votes": 5604,
      "passion": 5605,
      "muscle": 5606,
      "viet": 5607,
      "sickness": 5608,
      "licate": 5609,
      "musical": 5610,
      "ggle": 5611,
      "option": 5612,
      "eyesight": 5613,
      "senior": 5614,
      "streets": 5615,
      "refle": 5616,
      "horror": 5617,
      "snowed": 5618,
      "reception": 5619,
      "fixing": 5620,
      "postcard": 5621,
      "uneasy": 5622,
      "fooled": 5623,
      "curiosity": 5624,
      "lawyers": 5625,
      "pump": 5626,
      "jimmy": 5627,
      "production": 5628,
      "beaten": 5629,
      "paintings": 5630,
      "events": 5631,
      "feeding": 5632,
      "ninety": 5633,
      "habits": 5634,
      "grapes": 5635,
      "crop": 5636,
      "expression": 5637,
      "lacks": 5638,
      "critical": 5639,
      "itution": 5640,
      "install": 5641,
      "described": 5642,
      "regarded": 5643,
      "cluded": 5644,
      "pitch": 5645,
      "humili": 5646,
      "physics": 5647,
      "shakespe": 5648,
      "negotiate": 5649,
      "disturb": 5650,
      "materials": 5651,
      "companies": 5652,
      "rabbits": 5653,
      "elephant": 5654,
      "tiny": 5655,
      "victims": 5656,
      "shelter": 5657,
      "frequently": 5658,
      "latin": 5659,
      "pronounce": 5660,
      "stunned": 5661,
      "stabbed": 5662,
      "valentine": 5663,
      "thurs": 5664,
      "pistol": 5665,
      "attorney": 5666,
      "wednesday": 5667,
      "brilliant": 5668,
      "francisco": 5669,
      "festival": 5670,
      "hambur": 5671,
      "mobile": 5672,
      "14": 5673,
      "24": 5674,
      "awa": 5675,
      "bones": 5676,
      "cen": 5677,
      "emotional": 5678,
      "fred": 5679,
      "gall": 5680,
      "gang": 5681,
      "ium": 5682,
      "mous": 5683,
      "ov": 5684,
      "oly": 5685,
      "praise": 5686,
      "sac": 5687,
      "uge": 5688,
      "wha": 5689,
      "wol": 5690,
      "tody": 5691,
      "erly": 5692,
      "melon": 5693,
      "velt": 5694,
      "ley": 5695,
      "besides": 5696,
      "iders": 5697,
      "lip": 5698,
      "limp": 5699,
      "ligent": 5700,
      "roose": 5701,
      "ripped": 5702,
      "abol": 5703,
      "imports": 5704,
      "pear": 5705,
      "boiling": 5706,
      "tran": 5707,
      "plat": 5708,
      "upside": 5709,
      "ified": 5710,
      "export": 5711,
      "quo": 5712,
      "contributed": 5713,
      "proced": 5714,
      "potenti": 5715,
      "comic": 5716,
      "comment": 5717,
      "helpless": 5718,
      "perform": 5719,
      "stopping": 5720,
      "igning": 5721,
      "redu": 5722,
      "backyard": 5723,
      "rage": 5724,
      "overnight": 5725,
      "distingu": 5726,
      "sible": 5727,
      "fined": 5728,
      "cia": 5729,
      "firmed": 5730,
      "surface": 5731,
      "angeles": 5732,
      "cattle": 5733,
      "tricked": 5734,
      "izing": 5735,
      "policemen": 5736,
      "ballo": 5737,
      "contacted": 5738,
      "custody": 5739,
      "throughout": 5740,
      "shaken": 5741,
      "shaking": 5742,
      "dug": 5743,
      "vier": 5744,
      "zeal": 5745,
      "skip": 5746,
      "tape": 5747,
      "cycl": 5748,
      "refuge": 5749,
      "walls": 5750,
      "region": 5751,
      "travels": 5752,
      "bankrupt": 5753,
      "complains": 5754,
      "valid": 5755,
      "blocks": 5756,
      "temple": 5757,
      "bathtub": 5758,
      "argued": 5759,
      "governor": 5760,
      "attending": 5761,
      "smelled": 5762,
      "starving": 5763,
      "volume": 5764,
      "protection": 5765,
      "memories": 5766,
      "conditioner": 5767,
      "debts": 5768,
      "flex": 5769,
      "tourist": 5770,
      "reserve": 5771,
      "impressive": 5772,
      "regards": 5773,
      "abandon": 5774,
      "tasted": 5775,
      "switched": 5776,
      "survivor": 5777,
      "repeated": 5778,
      "remarks": 5779,
      "investigation": 5780,
      "connected": 5781,
      "zero": 5782,
      "measure": 5783,
      "campus": 5784,
      "accomplished": 5785,
      "predict": 5786,
      "religious": 5787,
      "source": 5788,
      "congratulated": 5789,
      "sneak": 5790,
      "jewelry": 5791,
      "ambitious": 5792,
      "activity": 5793,
      "interpreted": 5794,
      "vitam": 5795,
      "transferred": 5796,
      "struggled": 5797,
      "january": 5798,
      "chopsticks": 5799,
      "prettier": 5800,
      "resembles": 5801,
      "acquired": 5802,
      "groups": 5803,
      "atomic": 5804,
      "miserable": 5805,
      "phrase": 5806,
      "helicop": 5807,
      "manufact": 5808,
      "shakespeare": 5809,
      "thursday": 5810,
      "roosevelt": 5811,
      "70": 5812,
      "80": 5813,
      "ax": 5814,
      "bun": 5815,
      "bers": 5816,
      "cise": 5817,
      "dare": 5818,
      "dates": 5819,
      "fountain": 5820,
      "gaz": 5821,
      "hic": 5822,
      "hil": 5823,
      "ially": 5824,
      "itor": 5825,
      "nav": 5826,
      "phere": 5827,
      "range": 5828,
      "sla": 5829,
      "tti": 5830,
      "uki": 5831,
      "vague": 5832,
      "thom": 5833,
      "thie": 5834,
      "thai": 5835,
      "tories": 5836,
      "incorrect": 5837,
      "indoors": 5838,
      "rep": 5839,
      "recess": 5840,
      "replaced": 5841,
      "online": 5842,
      "mel": 5843,
      "asing": 5844,
      "asia": 5845,
      "orph": 5846,
      "ita": 5847,
      "hai": 5848,
      "behaving": 5849,
      "sewing": 5850,
      "chim": 5851,
      "liver": 5852,
      "forgave": 5853,
      "former": 5854,
      "forbid": 5855,
      "abilities": 5856,
      "holes": 5857,
      "sheet": 5858,
      "accus": 5859,
      "imit": 5860,
      "tern": 5861,
      "anytime": 5862,
      "code": 5863,
      "cops": 5864,
      "colon": 5865,
      "somewhat": 5866,
      "uted": 5867,
      "worries": 5868,
      "plates": 5869,
      "endar": 5870,
      "agent": 5871,
      "aggress": 5872,
      "agues": 5873,
      "consent": 5874,
      "ives": 5875,
      "ulated": 5876,
      "comments": 5877,
      "homes": 5878,
      "itect": 5879,
      "itement": 5880,
      "clue": 5881,
      "bug": 5882,
      "bumped": 5883,
      "foreigner": 5884,
      "wrap": 5885,
      "wrist": 5886,
      "thoughtful": 5887,
      "disaster": 5888,
      "drama": 5889,
      "bru": 5890,
      "divide": 5891,
      "chemis": 5892,
      "pace": 5893,
      "phones": 5894,
      "greed": 5895,
      "minimum": 5896,
      "doorbell": 5897,
      "launch": 5898,
      "founded": 5899,
      "training": 5900,
      "privac": 5901,
      "swims": 5902,
      "heads": 5903,
      "metal": 5904,
      "jects": 5905,
      "accidentally": 5906,
      "ankle": 5907,
      "attached": 5908,
      "decreas": 5909,
      "scand": 5910,
      "moments": 5911,
      "excused": 5912,
      "excitement": 5913,
      "cliff": 5914,
      "appoint": 5915,
      "spoiled": 5916,
      "efficient": 5917,
      "figures": 5918,
      "calendar": 5919,
      "terrified": 5920,
      "worthwhile": 5921,
      "footprints": 5922,
      "barn": 5923,
      "193": 5924,
      "194": 5925,
      "196": 5926,
      "mailbox": 5927,
      "operate": 5928,
      "boarding": 5929,
      "murderer": 5930,
      "harvest": 5931,
      "grammar": 5932,
      "accuse": 5933,
      "knob": 5934,
      "jiro": 5935,
      "behaved": 5936,
      "debate": 5937,
      "reserved": 5938,
      "employed": 5939,
      "resignation": 5940,
      "fields": 5941,
      "claims": 5942,
      "switzer": 5943,
      "humid": 5944,
      "secretive": 5945,
      "bald": 5946,
      "negotiations": 5947,
      "criticized": 5948,
      "constantly": 5949,
      "defeat": 5950,
      "measures": 5951,
      "tanaka": 5952,
      "rubbed": 5953,
      "faint": 5954,
      "cott": 5955,
      "cotton": 5956,
      "advertise": 5957,
      "ambition": 5958,
      "reluctant": 5959,
      "reluctantly": 5960,
      "heavier": 5961,
      "relatives": 5962,
      "designed": 5963,
      "korean": 5964,
      "fascinating": 5965,
      "laptop": 5966,
      "conduct": 5967,
      "tomatoes": 5968,
      "tunnel": 5969,
      "notified": 5970,
      "lifted": 5971,
      "enthusiastic": 5972,
      "rational": 5973,
      "scarcely": 5974,
      "architect": 5975,
      "promoted": 5976,
      "acknowledged": 5977,
      "shade": 5978,
      "zealand": 5979,
      "flexible": 5980,
      "helicopter": 5981,
      "slavery": 5982,
      "thieves": 5983,
      "privacy": 5984,
      "switzerland": 5985,
      "bak": 5986,
      "brow": 5987,
      "bars": 5988,
      "cated": 5989,
      "fits": 5990,
      "gin": 5991,
      "gger": 5992,
      "hilar": 5993,
      "kan": 5994,
      "kar": 5995,
      "mare": 5996,
      "mally": 5997,
      "mort": 5998,
      "nast": 5999,
      "pte": 6000,
      "slice": 6001,
      "snu": 6002,
      "uine": 6003,
      "vable": 6004,
      "wag": 6005,
      "wanna": 6006,
      "init": 6007,
      "inches": 6008,
      "theft": 6009,
      "isher": 6010,
      "reven": 6011,
      "recall": 6012,
      "react": 6013,
      "atten": 6014,
      "attic": 6015,
      "atmos": 6016,
      "heated": 6017,
      "heels": 6018,
      "hetti": 6019,
      "leaf": 6020,
      "behalf": 6021,
      "septe": 6022,
      "roger": 6023,
      "rocks": 6024,
      "robert": 6025,
      "ometer": 6026,
      "ada": 6027,
      "canadi": 6028,
      "uncertain": 6029,
      "acu": 6030,
      "imated": 6031,
      "sage": 6032,
      "aghetti": 6033,
      "lets": 6034,
      "contri": 6035,
      "needle": 6036,
      "resort": 6037,
      "respected": 6038,
      "wned": 6039,
      "ila": 6040,
      "manual": 6041,
      "makeup": 6042,
      "homesick": 6043,
      "items": 6044,
      "backed": 6045,
      "raising": 6046,
      "clou": 6047,
      "choos": 6048,
      "choices": 6049,
      "spaghetti": 6050,
      "roommate": 6051,
      "gum": 6052,
      "diseas": 6053,
      "discouraged": 6054,
      "brakes": 6055,
      "estate": 6056,
      "nightmare": 6057,
      "diving": 6058,
      "shore": 6059,
      "trum": 6060,
      "blink": 6061,
      "stern": 6062,
      "theirs": 6063,
      "parcel": 6064,
      "ruden": 6065,
      "istent": 6066,
      "remembers": 6067,
      "kindly": 6068,
      "preju": 6069,
      "pregn": 6070,
      "trigger": 6071,
      "string": 6072,
      "hunter": 6073,
      "fasten": 6074,
      "corpor": 6075,
      "mush": 6076,
      "ipad": 6077,
      "shallow": 6078,
      "shadow": 6079,
      "sentences": 6080,
      "steam": 6081,
      "dolls": 6082,
      "freezing": 6083,
      "collected": 6084,
      "genuine": 6085,
      "landing": 6086,
      "catching": 6087,
      "shortage": 6088,
      "faced": 6089,
      "luckily": 6090,
      "signal": 6091,
      "normally": 6092,
      "submit": 6093,
      "restaurants": 6094,
      "chairperson": 6095,
      "recipe": 6096,
      "uniform": 6097,
      "uniforms": 6098,
      "relations": 6099,
      "swept": 6100,
      "excuses": 6101,
      "addressed": 6102,
      "deserted": 6103,
      "windy": 6104,
      "brian": 6105,
      "treats": 6106,
      "casual": 6107,
      "absolute": 6108,
      "create": 6109,
      "locker": 6110,
      "investment": 6111,
      "princi": 6112,
      "cabin": 6113,
      "harmful": 6114,
      "release": 6115,
      "instinc": 6116,
      "objected": 6117,
      "leaning": 6118,
      "reports": 6119,
      "cheerful": 6120,
      "criticism": 6121,
      "insult": 6122,
      "insulted": 6123,
      "knees": 6124,
      "cooperate": 6125,
      "increasing": 6126,
      "politicians": 6127,
      "include": 6128,
      "stretched": 6129,
      "arrangements": 6130,
      "congratulate": 6131,
      "anticipated": 6132,
      "jewels": 6133,
      "despite": 6134,
      "irritated": 6135,
      "victim": 6136,
      "jefferson": 6137,
      "tless": 6138,
      "athlete": 6139,
      "dedicated": 6140,
      "participate": 6141,
      "louder": 6142,
      "swallow": 6143,
      "shift": 6144,
      "execu": 6145,
      "kilograms": 6146,
      "underestimate": 6147,
      "philosoph": 6148,
      "hiros": 6149,
      "collapsed": 6150,
      "aspirin": 6151,
      "flirting": 6152,
      "gonna": 6153,
      "chuck": 6154,
      "skep": 6155,
      "significant": 6156,
      "platform": 6157,
      "potential": 6158,
      "thomas": 6159,
      "chemistry": 6160,
      "scandal": 6161,
      "nasty": 6162,
      "attentive": 6163,
      "atmosphere": 6164,
      "september": 6165,
      "canadians": 6166,
      "diseases": 6167,
      "rudeness": 6168,
      "prejudic": 6169,
      "!\"": 6170,
      "blog": 6171,
      "dim": 6172,
      "dirt": 6173,
      "ditch": 6174,
      "fab": 6175,
      "fist": 6176,
      "iko": 6177,
      "lun": 6178,
      "link": 6179,
      "mut": 6180,
      "mpic": 6181,
      "mug": 6182,
      "rant": 6183,
      "rants": 6184,
      "sword": 6185,
      "tidy": 6186,
      "yam": 6187,
      "osaur": 6188,
      "inspe": 6189,
      "injury": 6190,
      "err": 6191,
      "anas": 6192,
      "atl": 6193,
      "arrog": 6194,
      "ensive": 6195,
      "ors": 6196,
      "ites": 6197,
      "lected": 6198,
      "stir": 6199,
      "sters": 6200,
      "hama": 6201,
      "dol": 6202,
      "ida": 6203,
      "sets": 6204,
      "lican": 6205,
      "tiger": 6206,
      "tives": 6207,
      "areas": 6208,
      "richest": 6209,
      "adam": 6210,
      "adap": 6211,
      "anta": 6212,
      "cano": 6213,
      "marath": 6214,
      "unlucky": 6215,
      "wanting": 6216,
      "acity": 6217,
      "teria": 6218,
      "pest": 6219,
      "thern": 6220,
      "female": 6221,
      "trace": 6222,
      "amusing": 6223,
      "ambass": 6224,
      "hima": 6225,
      "sailing": 6226,
      "sauce": 6227,
      "dee": 6228,
      "depri": 6229,
      "exceed": 6230,
      "expi": 6231,
      "indians": 6232,
      "foc": 6233,
      "illa": 6234,
      "helen": 6235,
      "respects": 6236,
      "fauce": 6237,
      "talkative": 6238,
      "oline": 6239,
      "carol": 6240,
      "carbon": 6241,
      "cking": 6242,
      "spelling": 6243,
      "background": 6244,
      "spilled": 6245,
      "glance": 6246,
      "disgu": 6247,
      "dismissed": 6248,
      "disappear": 6249,
      "dram": 6250,
      "applau": 6251,
      "sigh": 6252,
      "diag": 6253,
      "diligent": 6254,
      "cheat": 6255,
      "waitress": 6256,
      "monster": 6257,
      "blouse": 6258,
      "paused": 6259,
      "questioned": 6260,
      "situ": 6261,
      "medal": 6262,
      "minded": 6263,
      "colds": 6264,
      "precise": 6265,
      "priest": 6266,
      "rested": 6267,
      "youngest": 6268,
      "dinosaur": 6269,
      "crushed": 6270,
      "balls": 6271,
      "businessman": 6272,
      "logical": 6273,
      "colleagues": 6274,
      "bringing": 6275,
      "forgets": 6276,
      "explaining": 6277,
      "landed": 6278,
      "snowman": 6279,
      "interfer": 6280,
      "darker": 6281,
      "confusing": 6282,
      "factories": 6283,
      "evacu": 6284,
      "halfway": 6285,
      "hitting": 6286,
      "guessed": 6287,
      "subur": 6288,
      "terrific": 6289,
      "unique": 6290,
      "blocked": 6291,
      "experiences": 6292,
      "blames": 6293,
      "teenager": 6294,
      "teenagers": 6295,
      "ported": 6296,
      "warming": 6297,
      "machines": 6298,
      "leads": 6299,
      "profit": 6300,
      "sweep": 6301,
      "ators": 6302,
      "basic": 6303,
      "skipped": 6304,
      "belonged": 6305,
      "boats": 6306,
      "avoided": 6307,
      "destination": 6308,
      "fuel": 6309,
      "protective": 6310,
      "services": 6311,
      "gasoline": 6312,
      "vegetarian": 6313,
      "greek": 6314,
      "greece": 6315,
      "saturdays": 6316,
      "golden": 6317,
      "memorize": 6318,
      "graphy": 6319,
      "sharpen": 6320,
      "earthquakes": 6321,
      "quarters": 6322,
      "typewriter": 6323,
      "banana": 6324,
      "bananas": 6325,
      "management": 6326,
      "rats": 6327,
      "micro": 6328,
      "announce": 6329,
      "pushing": 6330,
      "textbooks": 6331,
      "accommo": 6332,
      "visitor": 6333,
      "software": 6334,
      "investigate": 6335,
      "limits": 6336,
      "cooperative": 6337,
      "referred": 6338,
      "mexican": 6339,
      "alcoholic": 6340,
      "regularly": 6341,
      "coughing": 6342,
      "anticipate": 6343,
      "heaven": 6344,
      "supported": 6345,
      "bachel": 6346,
      "torical": 6347,
      "yokohama": 6348,
      "korea": 6349,
      "obliged": 6350,
      "babysitter": 6351,
      "robbery": 6352,
      "exhibition": 6353,
      "interrupted": 6354,
      "acquaintance": 6355,
      "peanuts": 6356,
      "sympathy": 6357,
      "district": 6358,
      "blonde": 6359,
      "remote": 6360,
      "guarantee": 6361,
      "bracelet": 6362,
      "egypt": 6363,
      "tossed": 6364,
      "olympic": 6365,
      "greedy": 6366,
      "cloudy": 6367,
      "trumpet": 6368,
      "ambassador": 6369,
      "faucet": 6370,
      "1st": 6371,
      "22": 6372,
      "ah": 6373,
      "ament": 6374,
      "bb": 6375,
      "cart": 6376,
      "emo": 6377,
      "ets": 6378,
      "fled": 6379,
      "fbi": 6380,
      "fries": 6381,
      "jar": 6382,
      "jess": 6383,
      "jerk": 6384,
      "mac": 6385,
      "mask": 6386,
      "oween": 6387,
      "ray": 6388,
      "rack": 6389,
      "rank": 6390,
      "sally": 6391,
      "slu": 6392,
      "snor": 6393,
      "uous": 6394,
      "valley": 6395,
      "wages": 6396,
      "wreck": 6397,
      "ygen": 6398,
      "zation": 6399,
      "inct": 6400,
      "infl": 6401,
      "intense": 6402,
      "renew": 6403,
      "reconsider": 6404,
      "melted": 6405,
      "ori": 6406,
      "lee": 6407,
      "sting": 6408,
      "stall": 6409,
      "hay": 6410,
      "dome": 6411,
      "ided": 6412,
      "kee": 6413,
      "goals": 6414,
      "roast": 6415,
      "verb": 6416,
      "verted": 6417,
      "alp": 6418,
      "alert": 6419,
      "tim": 6420,
      "gestu": 6421,
      "adminis": 6422,
      "abuse": 6423,
      "absur": 6424,
      "unpleasant": 6425,
      "sheets": 6426,
      "acha": 6427,
      "acles": 6428,
      "image": 6429,
      "pee": 6430,
      "therm": 6431,
      "ira": 6432,
      "tration": 6433,
      "trous": 6434,
      "traged": 6435,
      "aming": 6436,
      "utch": 6437,
      "worm": 6438,
      "plug": 6439,
      "sober": 6440,
      "shang": 6441,
      "deleg": 6442,
      "delicate": 6443,
      "odds": 6444,
      "roman": 6445,
      "existed": 6446,
      "indic": 6447,
      "causing": 6448,
      "confirmed": 6449,
      "proved": 6450,
      "jored": 6451,
      "angle": 6452,
      "angri": 6453,
      "spicy": 6454,
      "types": 6455,
      "overtime": 6456,
      "overheard": 6457,
      "guilt": 6458,
      "retur": 6459,
      "discover": 6460,
      "housework": 6461,
      "grin": 6462,
      "brag": 6463,
      "brushed": 6464,
      "hardworking": 6465,
      "bluff": 6466,
      "blaming": 6467,
      "paign": 6468,
      "winner": 6469,
      "englishman": 6470,
      "bedtime": 6471,
      "lux": 6472,
      "sidewalk": 6473,
      "runner": 6474,
      "lighter": 6475,
      "trips": 6476,
      "heading": 6477,
      "listed": 6478,
      "painter": 6479,
      "kyush": 6480,
      "killer": 6481,
      "deciding": 6482,
      "shaved": 6483,
      "cooks": 6484,
      "stew": 6485,
      "roads": 6486,
      "alized": 6487,
      "formal": 6488,
      "cauti": 6489,
      "trusts": 6490,
      "trustworthy": 6491,
      "summit": 6492,
      "cutting": 6493,
      "logist": 6494,
      "sensible": 6495,
      "freezer": 6496,
      "laughs": 6497,
      "appeal": 6498,
      "mixed": 6499,
      "concerts": 6500,
      "refuses": 6501,
      "horn": 6502,
      "horiz": 6503,
      "grandparents": 6504,
      "fiction": 6505,
      "intersection": 6506,
      "version": 6507,
      "darkness": 6508,
      "curry": 6509,
      "majored": 6510,
      "messed": 6511,
      "offering": 6512,
      "facing": 6513,
      "differently": 6514,
      "flor": 6515,
      "medication": 6516,
      "realistic": 6517,
      "pulling": 6518,
      "signature": 6519,
      "doubted": 6520,
      "195": 6521,
      "transla": 6522,
      "speeches": 6523,
      "jacksons": 6524,
      "teens": 6525,
      "joining": 6526,
      "purchase": 6527,
      "silk": 6528,
      "oppose": 6529,
      "smiles": 6530,
      "shuttle": 6531,
      "pairs": 6532,
      "flute": 6533,
      "immediate": 6534,
      "boarded": 6535,
      "lending": 6536,
      "grounded": 6537,
      "halloween": 6538,
      "harsh": 6539,
      "campaign": 6540,
      "peaceful": 6541,
      "gains": 6542,
      "slapped": 6543,
      "pencils": 6544,
      "motioned": 6545,
      "slightest": 6546,
      "humans": 6547,
      "educated": 6548,
      "tube": 6549,
      "instant": 6550,
      "closing": 6551,
      "objective": 6552,
      "extraordinary": 6553,
      "skinny": 6554,
      "concentrating": 6555,
      "preparations": 6556,
      "thrown": 6557,
      "investigating": 6558,
      "relief": 6559,
      "competent": 6560,
      "temptation": 6561,
      "sympathetic": 6562,
      "methods": 6563,
      "scrap": 6564,
      "separate": 6565,
      "weighs": 6566,
      "severely": 6567,
      "brains": 6568,
      "spirits": 6569,
      "creepy": 6570,
      "negative": 6571,
      "opposition": 6572,
      "crawled": 6573,
      "digging": 6574,
      "adjusted": 6575,
      "hostages": 6576,
      "registered": 6577,
      "thoroughly": 6578,
      "oxygen": 6579,
      "interpreter": 6580,
      "sleeve": 6581,
      "fascinated": 6582,
      "traditional": 6583,
      "democracy": 6584,
      "palace": 6585,
      "texas": 6586,
      "liberty": 6587,
      "devast": 6588,
      "catho": 6589,
      "cathy": 6590,
      "convicted": 6591,
      "farewell": 6592,
      "twenti": 6593,
      "astonished": 6594,
      "groceries": 6595,
      "scotland": 6596,
      "merely": 6597,
      "folks": 6598,
      "thrilled": 6599,
      "associate": 6600,
      "whispered": 6601,
      "gravity": 6602,
      "elderly": 6603,
      "inherited": 6604,
      "immigrants": 6605,
      "opponent": 6606,
      "specific": 6607,
      "humiliated": 6608,
      "centime": 6609,
      "sacri": 6610,
      "distinguish": 6611,
      "refugees": 6612,
      "hilton": 6613,
      "navy": 6614,
      "orphan": 6615,
      "chimney": 6616,
      "hilarious": 6617,
      "contribu": 6618,
      "instincts": 6619,
      "skeptical": 6620,
      "marathon": 6621,
      "focused": 6622,
      "dramatic": 6623,
      "inflation": 6624,
      "absurd": 6625,
      "kyushu": 6626,
      "baking": 6627,
      "ctic": 6628,
      "cub": 6629,
      "cds": 6630,
      "dar": 6631,
      "dashed": 6632,
      "eur": 6633,
      "fry": 6634,
      "gos": 6635,
      "gment": 6636,
      "hint": 6637,
      "ij": 6638,
      "ito": 6639,
      "jung": 6640,
      "naught": 6641,
      "ots": 6642,
      "pam": 6643,
      "pute": 6644,
      "passes": 6645,
      "rust": 6646,
      "sack": 6647,
      "site": 6648,
      "tack": 6649,
      "waves": 6650,
      "toe": 6651,
      "inspir": 6652,
      "anne": 6653,
      "issu": 6654,
      "review": 6655,
      "reunion": 6656,
      "onions": 6657,
      "encourage": 6658,
      "hak": 6659,
      "hael": 6660,
      "beij": 6661,
      "welf": 6662,
      "ids": 6663,
      "chip": 6664,
      "verge": 6665,
      "tigers": 6666,
      "ripe": 6667,
      "riot": 6668,
      "gear": 6669,
      "cease": 6670,
      "ades": 6671,
      "adapt": 6672,
      "mars": 6673,
      "marked": 6674,
      "teles": 6675,
      "unsure": 6676,
      "unnecessary": 6677,
      "acious": 6678,
      "oka": 6679,
      "entit": 6680,
      "suff": 6681,
      "colu": 6682,
      "iche": 6683,
      "boast": 6684,
      "bowed": 6685,
      "dear": 6686,
      "yell": 6687,
      "exis": 6688,
      "exped": 6689,
      "ategy": 6690,
      "agitated": 6691,
      "happiest": 6692,
      "ishing": 6693,
      "quet": 6694,
      "perman": 6695,
      "performed": 6696,
      "fax": 6697,
      "tence": 6698,
      "joint": 6699,
      "mansion": 6700,
      "species": 6701,
      "inevit": 6702,
      "backs": 6703,
      "backpack": 6704,
      "backwards": 6705,
      "mented": 6706,
      "clar": 6707,
      "buck": 6708,
      "spider": 6709,
      "overslept": 6710,
      "dispos": 6711,
      "dispute": 6712,
      "grat": 6713,
      "schools": 6714,
      "dia": 6715,
      "handling": 6716,
      "shops": 6717,
      "truly": 6718,
      "startled": 6719,
      "fier": 6720,
      "differs": 6721,
      "counted": 6722,
      "surgeon": 6723,
      "opens": 6724,
      "interests": 6725,
      "strategy": 6726,
      "watering": 6727,
      "float": 6728,
      "flows": 6729,
      "greater": 6730,
      "expelled": 6731,
      "crad": 6732,
      "setting": 6733,
      "inviting": 6734,
      "fireplace": 6735,
      "consci": 6736,
      "kenji": 6737,
      "sensed": 6738,
      "facebook": 6739,
      "examin": 6740,
      "considerate": 6741,
      "spoil": 6742,
      "checks": 6743,
      "signs": 6744,
      "subscri": 6745,
      "subjects": 6746,
      "emphas": 6747,
      "barber": 6748,
      "strangely": 6749,
      "1960": 6750,
      "graduation": 6751,
      "cuff": 6752,
      "profits": 6753,
      "recovery": 6754,
      "satisfac": 6755,
      "receiving": 6756,
      "delivery": 6757,
      "nervously": 6758,
      "stuffed": 6759,
      "villagers": 6760,
      "bothered": 6761,
      "millions": 6762,
      "belongings": 6763,
      "protected": 6764,
      "servant": 6765,
      "accountant": 6766,
      "wakes": 6767,
      "vegetable": 6768,
      "burnt": 6769,
      "marks": 6770,
      "sufficient": 6771,
      "regretted": 6772,
      "relaxing": 6773,
      "fortunately": 6774,
      "european": 6775,
      "islands": 6776,
      "chain": 6777,
      "advantages": 6778,
      "amounts": 6779,
      "miracle": 6780,
      "translating": 6781,
      "butterflies": 6782,
      "gentlemen": 6783,
      "privately": 6784,
      "regardless": 6785,
      "intentions": 6786,
      "michael": 6787,
      "intelligence": 6788,
      "unfortunate": 6789,
      "humming": 6790,
      "destroy": 6791,
      "articles": 6792,
      "variety": 6793,
      "insists": 6794,
      "physic": 6795,
      "seventy": 6796,
      "bathing": 6797,
      "criminals": 6798,
      "economics": 6799,
      "flipped": 6800,
      "dishonest": 6801,
      "constitution": 6802,
      "reservations": 6803,
      "cooperation": 6804,
      "prayed": 6805,
      "nesses": 6806,
      "weighed": 6807,
      "cheeks": 6808,
      "assigned": 6809,
      "protested": 6810,
      "snee": 6811,
      "advertising": 6812,
      "despise": 6813,
      "effects": 6814,
      "reckless": 6815,
      "kidnapp": 6816,
      "conclusions": 6817,
      "oblig": 6818,
      "hanako": 6819,
      "title": 6820,
      "terrorists": 6821,
      "scholarship": 6822,
      "virus": 6823,
      "liquor": 6824,
      "discovery": 6825,
      "obeyed": 6826,
      "refreshed": 6827,
      "unemployed": 6828,
      "sweden": 6829,
      "intrigued": 6830,
      "compliment": 6831,
      "substit": 6832,
      "troubled": 6833,
      "muscles": 6834,
      "hamburger": 6835,
      "quote": 6836,
      "forbidden": 6837,
      "aggressive": 6838,
      "appointments": 6839,
      "choosing": 6840,
      "pregnant": 6841,
      "philosophy": 6842,
      "dolph": 6843,
      "deprived": 6844,
      "suburbs": 6845,
      "announcement": 6846,
      "emotions": 6847,
      "jessie": 6848,
      "thermometer": 6849,
      "shanghai": 6850,
      "returning": 6851,
      "florida": 6852,
      "catholic": 6853,
      "centimeters": 6854,
      "jungle": 6855,
      "naughty": 6856,
      "issues": 6857,
      "beijing": 6858,
      "telescope": 6859,
      "permanent": 6860,
      "inevitable": 6861,
      "ais": 6862,
      "award": 6863,
      "atory": 6864,
      "bake": 6865,
      "boun": 6866,
      "bble": 6867,
      "bart": 6868,
      "dull": 6869,
      "fla": 6870,
      "gig": 6871,
      "hong": 6872,
      "kong": 6873,
      "mul": 6874,
      "nical": 6875,
      "oto": 6876,
      "ored": 6877,
      "pad": 6878,
      "pess": 6879,
      "rin": 6880,
      "ron": 6881,
      "sorrow": 6882,
      "shaving": 6883,
      "tam": 6884,
      "vent": 6885,
      "wder": 6886,
      "woken": 6887,
      "yu": 6888,
      "yage": 6889,
      "thread": 6890,
      "inde": 6891,
      "inate": 6892,
      "intru": 6893,
      "era": 6894,
      "aned": 6895,
      "thesis": 6896,
      "ishes": 6897,
      "reform": 6898,
      "rewrite": 6899,
      "repub": 6900,
      "resolution": 6901,
      "reaction": 6902,
      "asive": 6903,
      "heating": 6904,
      "arrow": 6905,
      "enor": 6906,
      "enger": 6907,
      "enna": 6908,
      "vember": 6909,
      "stro": 6910,
      "stic": 6911,
      "stink": 6912,
      "stable": 6913,
      "november": 6914,
      "bees": 6915,
      "belts": 6916,
      "whist": 6917,
      "whiche": 6918,
      "weeds": 6919,
      "idential": 6920,
      "sex": 6921,
      "seeds": 6922,
      "lions": 6923,
      "robe": 6924,
      "root": 6925,
      "wil": 6926,
      "wire": 6927,
      "neu": 6928,
      "tible": 6929,
      "rib": 6930,
      "usion": 6931,
      "withdraw": 6932,
      "withdrew": 6933,
      "okina": 6934,
      "imposed": 6935,
      "imported": 6936,
      "therap": 6937,
      "feared": 6938,
      "trail": 6939,
      "ami": 6940,
      "soil": 6941,
      "shinju": 6942,
      "indian": 6943,
      "wheat": 6944,
      "quant": 6945,
      "pox": 6946,
      "compar": 6947,
      "compos": 6948,
      "tens": 6949,
      "stool": 6950,
      "dyed": 6951,
      "ideal": 6952,
      "mend": 6953,
      "clin": 6954,
      "spiders": 6955,
      "gled": 6956,
      "gull": 6957,
      "disney": 6958,
      "grain": 6959,
      "brid": 6960,
      "bride": 6961,
      "childish": 6962,
      "handbag": 6963,
      "ressed": 6964,
      "earrings": 6965,
      "questioning": 6966,
      "compass": 6967,
      "lifetime": 6968,
      "drivers": 6969,
      "beggar": 6970,
      "brew": 6971,
      "desired": 6972,
      "mption": 6973,
      "primary": 6974,
      "trim": 6975,
      "restless": 6976,
      "remembering": 6977,
      "payment": 6978,
      "julie": 6979,
      "voyage": 6980,
      "dresser": 6981,
      "mercy": 6982,
      "secure": 6983,
      "passenger": 6984,
      "contented": 6985,
      "highway": 6986,
      "farther": 6987,
      "parks": 6988,
      "differences": 6989,
      "duties": 6990,
      "picky": 6991,
      "observed": 6992,
      "via": 6993,
      "element": 6994,
      "cuted": 6995,
      "telegram": 6996,
      "skirts": 6997,
      "treating": 6998,
      "appealed": 6999,
      "clicked": 7000,
      "clients": 7001,
      "beginners": 7002,
      "pony": 7003,
      "paperwork": 7004,
      "grandma": 7005,
      "hospitality": 7006,
      "ficial": 7007,
      "snows": 7008,
      "expense": 7009,
      "berg": 7010,
      "berlin": 7011,
      "banks": 7012,
      "risky": 7013,
      "footsteps": 7014,
      "emptied": 7015,
      "quitting": 7016,
      "fourth": 7017,
      "susp": 7018,
      "bicycles": 7019,
      "approval": 7020,
      "cameras": 7021,
      "pork": 7022,
      "portion": 7023,
      "burden": 7024,
      "filling": 7025,
      "resulted": 7026,
      "fooling": 7027,
      "practiced": 7028,
      "starved": 7029,
      "charles": 7030,
      "fatter": 7031,
      "supervis": 7032,
      "harry": 7033,
      "harbor": 7034,
      "injuries": 7035,
      "destin": 7036,
      "ancestors": 7037,
      "talents": 7038,
      "cooler": 7039,
      "fruits": 7040,
      "slippers": 7041,
      "respectful": 7042,
      "improving": 7043,
      "daddy": 7044,
      "museums": 7045,
      "ironing": 7046,
      "furnished": 7047,
      "tempting": 7048,
      "antique": 7049,
      "adopt": 7050,
      "opportun": 7051,
      "gathering": 7052,
      "practices": 7053,
      "forests": 7054,
      "guards": 7055,
      "speeding": 7056,
      "froze": 7057,
      "consulted": 7058,
      "repairs": 7059,
      "instrument": 7060,
      "decline": 7061,
      "istics": 7062,
      "cowboy": 7063,
      "disturbing": 7064,
      "raced": 7065,
      "spotted": 7066,
      "towels": 7067,
      "widely": 7068,
      "trading": 7069,
      "rubber": 7070,
      "sinking": 7071,
      "retirement": 7072,
      "creet": 7073,
      "grape": 7074,
      "undant": 7075,
      "channel": 7076,
      "crawling": 7077,
      "muddy": 7078,
      "henry": 7079,
      "activities": 7080,
      "biology": 7081,
      "tomato": 7082,
      "shining": 7083,
      "revolution": 7084,
      "punched": 7085,
      "spinach": 7086,
      "global": 7087,
      "lord": 7088,
      "scale": 7089,
      "autograph": 7090,
      "knitting": 7091,
      "identify": 7092,
      "ketchup": 7093,
      "squeezed": 7094,
      "route": 7095,
      "batteries": 7096,
      "benefit": 7097,
      "zipped": 7098,
      "depression": 7099,
      "prosper": 7100,
      "prescription": 7101,
      "cafeteria": 7102,
      "lipstick": 7103,
      "procedure": 7104,
      "cycling": 7105,
      "survivors": 7106,
      "recession": 7107,
      "launched": 7108,
      "prejudiced": 7109,
      "errand": 7110,
      "adapted": 7111,
      "applauded": 7112,
      "dinosaurs": 7113,
      "alpha": 7114,
      "trousers": 7115,
      "tragedy": 7116,
      "delegates": 7117,
      "angrily": 7118,
      "bluffing": 7119,
      "horizon": 7120,
      "devastated": 7121,
      "twenties": 7122,
      "euros": 7123,
      "suffers": 7124,
      "expedition": 7125,
      "fierce": 7126,
      "cradle": 7127,
      "satisfaction": 7128,
      "pessim": 7129,
      "republican": 7130,
      "enormous": 7131,
      "stroke": 7132,
      "whichever": 7133,
      "okinawa": 7134,
      "shinjuku": 7135,
      "150": 7136,
      "23": 7137,
      "33": 7138,
      "dive": 7139,
      "daz": 7140,
      "ec": 7141,
      "faded": 7142,
      "glimp": 7143,
      "iv": 7144,
      "ires": 7145,
      "jes": 7146,
      "kish": 7147,
      "mical": 7148,
      "ology": 7149,
      "plot": 7150,
      "rhe": 7151,
      "sar": 7152,
      "santa": 7153,
      "twis": 7154,
      "vin": 7155,
      "vod": 7156,
      "wrest": 7157,
      "wings": 7158,
      "yach": 7159,
      "yog": 7160,
      "insp": 7161,
      "inated": 7162,
      "independ": 7163,
      "isol": 7164,
      "repay": 7165,
      "refund": 7166,
      "ashes": 7167,
      "heater": 7168,
      "endid": 7169,
      "iter": 7170,
      "vehic": 7171,
      "leon": 7172,
      "leap": 7173,
      "hack": 7174,
      "bears": 7175,
      "beers": 7176,
      "seized": 7177,
      "lian": 7178,
      "wig": 7179,
      "wives": 7180,
      "alty": 7181,
      "forth": 7182,
      "nephe": 7183,
      "ria": 7184,
      "rial": 7185,
      "getic": 7186,
      "outstanding": 7187,
      "adic": 7188,
      "canned": 7189,
      "teasing": 7190,
      "abor": 7191,
      "abused": 7192,
      "donated": 7193,
      "unmarried": 7194,
      "unfinished": 7195,
      "unknown": 7196,
      "actors": 7197,
      "immature": 7198,
      "cola": 7199,
      "ained": 7200,
      "sato": 7201,
      "excess": 7202,
      "exposed": 7203,
      "exports": 7204,
      "agency": 7205,
      "indis": 7206,
      "whel": 7207,
      "happily": 7208,
      "ques": 7209,
      "contribut": 7210,
      "concluded": 7211,
      "propose": 7212,
      "needing": 7213,
      "ula": 7214,
      "poo": 7215,
      "powder": 7216,
      "helmet": 7217,
      "perfu": 7218,
      "resched": 7219,
      "arts": 7220,
      "tenth": 7221,
      "tension": 7222,
      "affect": 7223,
      "stones": 7224,
      "spect": 7225,
      "tons": 7226,
      "clapped": 7227,
      "mbus": 7228,
      "wow": 7229,
      "wool": 7230,
      "spouse": 7231,
      "booked": 7232,
      "overwhel": 7233,
      "aud": 7234,
      "misses": 7235,
      "discreet": 7236,
      "gras": 7237,
      "grant": 7238,
      "gross": 7239,
      "brake": 7240,
      "penalty": 7241,
      "parted": 7242,
      "chewing": 7243,
      "shoved": 7244,
      "shovel": 7245,
      "mono": 7246,
      "monica": 7247,
      "ciation": 7248,
      "pharm": 7249,
      "doorknob": 7250,
      "media": 7251,
      "survey": 7252,
      "hurri": 7253,
      "beings": 7254,
      "breast": 7255,
      "fron": 7256,
      "frantic": 7257,
      "singers": 7258,
      "pretends": 7259,
      "function": 7260,
      "swimsuit": 7261,
      "classmate": 7262,
      "serving": 7263,
      "series": 7264,
      "preser": 7265,
      "elsewhere": 7266,
      "sung": 7267,
      "sham": 7268,
      "numb": 7269,
      "writers": 7270,
      "promising": 7271,
      "attach": 7272,
      "dropping": 7273,
      "caution": 7274,
      "cuts": 7275,
      "skis": 7276,
      "freeze": 7277,
      "healthier": 7278,
      "client": 7279,
      "refrain": 7280,
      "hotels": 7281,
      "mah": 7282,
      "confli": 7283,
      "confuse": 7284,
      "evol": 7285,
      "evident": 7286,
      "flames": 7287,
      "experts": 7288,
      "hats": 7289,
      "touching": 7290,
      "risen": 7291,
      "biased": 7292,
      "worthless": 7293,
      "convinc": 7294,
      "eigh": 7295,
      "honestly": 7296,
      "silently": 7297,
      "novelist": 7298,
      "remaining": 7299,
      "garlic": 7300,
      "witch": 7301,
      "clubs": 7302,
      "starve": 7303,
      "assured": 7304,
      "basis": 7305,
      "judged": 7306,
      "judgment": 7307,
      "jumping": 7308,
      "loser": 7309,
      "miller": 7310,
      "grammat": 7311,
      "marrying": 7312,
      "possibilities": 7313,
      "polish": 7314,
      "involve": 7315,
      "nause": 7316,
      "golfer": 7317,
      "europeans": 7318,
      "chap": 7319,
      "grapher": 7320,
      "slave": 7321,
      "capacity": 7322,
      "sweets": 7323,
      "circus": 7324,
      "fingerprints": 7325,
      "butterfly": 7326,
      "exhaust": 7327,
      "instantly": 7328,
      "celebrated": 7329,
      "micros": 7330,
      "stomacha": 7331,
      "recommendation": 7332,
      "frowned": 7333,
      "narita": 7334,
      "splendid": 7335,
      "drawn": 7336,
      "reporter": 7337,
      "pitcher": 7338,
      "toothache": 7339,
      "concentrated": 7340,
      "programs": 7341,
      "permitting": 7342,
      "location": 7343,
      "softly": 7344,
      "determine": 7345,
      "races": 7346,
      "yawn": 7347,
      "collar": 7348,
      "envy": 7349,
      "flooded": 7350,
      "referring": 7351,
      "techni": 7352,
      "brazili": 7353,
      "fashioned": 7354,
      "sample": 7355,
      "explor": 7356,
      "knives": 7357,
      "automatic": 7358,
      "communication": 7359,
      "sociable": 7360,
      "ignoring": 7361,
      "surprisingly": 7362,
      "neglected": 7363,
      "crawl": 7364,
      "aids": 7365,
      "grip": 7366,
      "defendant": 7367,
      "exploded": 7368,
      "pierced": 7369,
      "liberal": 7370,
      "cocktail": 7371,
      "championship": 7372,
      "priority": 7373,
      "admiring": 7374,
      "drums": 7375,
      "demonstrated": 7376,
      "standards": 7377,
      "psychology": 7378,
      "strawberry": 7379,
      "strawberries": 7380,
      "diplomatic": 7381,
      "revealed": 7382,
      "journalist": 7383,
      "adventure": 7384,
      "mosquito": 7385,
      "tolerate": 7386,
      "mechanic": 7387,
      "motivated": 7388,
      "persistent": 7389,
      "overe": 7390,
      "whales": 7391,
      "pearl": 7392,
      "reduced": 7393,
      "balloon": 7394,
      "accusing": 7395,
      "imitate": 7396,
      "cottage": 7397,
      "bakery": 7398,
      "executive": 7399,
      "hiroshima": 7400,
      "evacuate": 7401,
      "microphone": 7402,
      "bachelor": 7403,
      "domestic": 7404,
      "keeper": 7405,
      "luxury": 7406,
      "welfare": 7407,
      "entitled": 7408,
      "substitute": 7409,
      "wilson": 7410,
      "gullible": 7411,
      "suspended": 7412,
      "opportunities": 7413,
      "sarcas": 7414,
      "vodka": 7415,
      "perfume": 7416,
      "convincing": 7417,
      "stomachache": 7418,
      "brazilian": 7419,
      "35": 7420,
      "ao": 7421,
      "bin": 7422,
      "bay": 7423,
      "dye": 7424,
      "dread": 7425,
      "dav": 7426,
      "dutch": 7427,
      "fuse": 7428,
      "filed": 7429,
      "ga": 7430,
      "gul": 7431,
      "guts": 7432,
      "iam": 7433,
      "jong": 7434,
      "jill": 7435,
      "kumi": 7436,
      "mour": 7437,
      "mble": 7438,
      "mers": 7439,
      "nish": 7440,
      "nie": 7441,
      "oy": 7442,
      "rates": 7443,
      "sas": 7444,
      "sain": 7445,
      "sation": 7446,
      "sche": 7447,
      "skilled": 7448,
      "swore": 7449,
      "sketch": 7450,
      "ugu": 7451,
      "va": 7452,
      "vul": 7453,
      "vending": 7454,
      "wave": 7455,
      "yos": 7456,
      "yment": 7457,
      "yank": 7458,
      "yama": 7459,
      "zard": 7460,
      "ão": 7461,
      "toed": 7462,
      "incl": 7463,
      "inexpensive": 7464,
      "intimid": 7465,
      "isure": 7466,
      "rebe": 7467,
      "rebell": 7468,
      "rehears": 7469,
      "atures": 7470,
      "attributed": 7471,
      "ingred": 7472,
      "metic": 7473,
      "asso": 7474,
      "hens": 7475,
      "hebrew": 7476,
      "arctic": 7477,
      "llen": 7478,
      "ena": 7479,
      "entical": 7480,
      "ories": 7481,
      "leisure": 7482,
      "dozed": 7483,
      "idle": 7484,
      "identical": 7485,
      "sew": 7486,
      "keiko": 7487,
      "roe": 7488,
      "royal": 7489,
      "alo": 7490,
      "tick": 7491,
      "outrage": 7492,
      "addict": 7493,
      "loaf": 7494,
      "locks": 7495,
      "abrupt": 7496,
      "hop": 7497,
      "lyric": 7498,
      "unbelie": 7499,
      "unciation": 7500,
      "impulse": 7501,
      "termin": 7502,
      "peas": 7503,
      "coke": 7504,
      "covers": 7505,
      "bold": 7506,
      "amuse": 7507,
      "mod": 7508,
      "pler": 7509,
      "pled": 7510,
      "shark": 7511,
      "urge": 7512,
      "urally": 7513,
      "destru": 7514,
      "william": 7515,
      "romance": 7516,
      "extingu": 7517,
      "agious": 7518,
      "quate": 7519,
      "quie": 7520,
      "proposition": 7521,
      "compart": 7522,
      "composed": 7523,
      "arten": 7524,
      "butcher": 7525,
      "speci": 7526,
      "iceland": 7527,
      "chopin": 7528,
      "woo": 7529,
      "studi": 7530,
      "spill": 7531,
      "eater": 7532,
      "omi": 7533,
      "busier": 7534,
      "adequate": 7535,
      "wrink": 7536,
      "misplaced": 7537,
      "fulfill": 7538,
      "dislikes": 7539,
      "intends": 7540,
      "pru": 7541,
      "surely": 7542,
      "waving": 7543,
      "apping": 7544,
      "chew": 7545,
      "chewed": 7546,
      "cheered": 7547,
      "chemical": 7548,
      "hardware": 7549,
      "monroe": 7550,
      "tort": 7551,
      "fires": 7552,
      "earning": 7553,
      "smashed": 7554,
      "smoked": 7555,
      "parag": 7556,
      "parano": 7557,
      "mini": 7558,
      "ruins": 7559,
      "portug": 7560,
      "portugu": 7561,
      "rainbow": 7562,
      "surfing": 7563,
      "picasso": 7564,
      "angel": 7565,
      "drif": 7566,
      "kinderg": 7567,
      "taining": 7568,
      "singapo": 7569,
      "rung": 7570,
      "runners": 7571,
      "desc": 7572,
      "desires": 7573,
      "priced": 7574,
      "resting": 7575,
      "restroom": 7576,
      "easter": 7577,
      "biting": 7578,
      "correspon": 7579,
      "lisa": 7580,
      "sunlight": 7581,
      "sunshine": 7582,
      "owned": 7583,
      "monthly": 7584,
      "tables": 7585,
      "voc": 7586,
      "contagious": 7587,
      "troubles": 7588,
      "numer": 7589,
      "towns": 7590,
      "steel": 7591,
      "thirties": 7592,
      "warrant": 7593,
      "pressing": 7594,
      "duck": 7595,
      "dealer": 7596,
      "giants": 7597,
      "aliens": 7598,
      "drops": 7599,
      "ota": 7600,
      "elec": 7601,
      "closest": 7602,
      "sensation": 7603,
      "tale": 7604,
      "secretly": 7605,
      "clip": 7606,
      "click": 7607,
      "beginner": 7608,
      "forgetful": 7609,
      "regul": 7610,
      "lands": 7611,
      "grandchildren": 7612,
      "couraging": 7613,
      "patch": 7614,
      "solar": 7615,
      "milton": 7616,
      "travelers": 7617,
      "maintained": 7618,
      "richer": 7619,
      "rises": 7620,
      "risked": 7621,
      "realizes": 7622,
      "poorly": 7623,
      "hearted": 7624,
      "barbar": 7625,
      "susie": 7626,
      "severance": 7627,
      "fairy": 7628,
      "struggle": 7629,
      "appreciates": 7630,
      "girlfriends": 7631,
      "seventh": 7632,
      "speechless": 7633,
      "warmly": 7634,
      "crowbar": 7635,
      "kingdom": 7636,
      "sweating": 7637,
      "extend": 7638,
      "satisfy": 7639,
      "pud": 7640,
      "deliber": 7641,
      "brick": 7642,
      "popularity": 7643,
      "grounds": 7644,
      "recording": 7645,
      "peacefully": 7646,
      "detailed": 7647,
      "germans": 7648,
      "australian": 7649,
      "seaside": 7650,
      "persuasive": 7651,
      "graduates": 7652,
      "nicer": 7653,
      "exercising": 7654,
      "exercises": 7655,
      "20th": 7656,
      "paste": 7657,
      "slid": 7658,
      "slack": 7659,
      "engineers": 7660,
      "contrary": 7661,
      "amounted": 7662,
      "organize": 7663,
      "naturally": 7664,
      "turkish": 7665,
      "blinds": 7666,
      "chickens": 7667,
      "wounds": 7668,
      "electrical": 7669,
      "microw": 7670,
      "brightest": 7671,
      "frog": 7672,
      "panick": 7673,
      "repairing": 7674,
      "folding": 7675,
      "pitched": 7676,
      "consciousness": 7677,
      "budd": 7678,
      "whiskey": 7679,
      "deceive": 7680,
      "shouting": 7681,
      "competitive": 7682,
      "tendency": 7683,
      "hesitated": 7684,
      "violinist": 7685,
      "bulb": 7686,
      "southern": 7687,
      "railway": 7688,
      "proofread": 7689,
      "cracked": 7690,
      "vanilla": 7691,
      "loading": 7692,
      "includes": 7693,
      "including": 7694,
      "included": 7695,
      "tropical": 7696,
      "predicted": 7697,
      "employee": 7698,
      "arrangement": 7699,
      "creeps": 7700,
      "emily": 7701,
      "environmental": 7702,
      "roller": 7703,
      "pronunciation": 7704,
      "breathed": 7705,
      "challeng": 7706,
      "stressed": 7707,
      "compete": 7708,
      "faithful": 7709,
      "1980": 7710,
      "stained": 7711,
      "heights": 7712,
      "frequent": 7713,
      "infection": 7714,
      "athletic": 7715,
      "cockro": 7716,
      "boils": 7717,
      "decorated": 7718,
      "snacks": 7719,
      "astonish": 7720,
      "exaggerate": 7721,
      "grocery": 7722,
      "folk": 7723,
      "slope": 7724,
      "astronaut": 7725,
      "obstinate": 7726,
      "wandered": 7727,
      "frame": 7728,
      "disgusting": 7729,
      "frustrated": 7730,
      "representative": 7731,
      "assembled": 7732,
      "corrected": 7733,
      "reflection": 7734,
      "wolf": 7735,
      "abolished": 7736,
      "transport": 7737,
      "colony": 7738,
      "decreasing": 7739,
      "kanji": 7740,
      "revenge": 7741,
      "yamada": 7742,
      "adams": 7743,
      "deepest": 7744,
      "expires": 7745,
      "gossip": 7746,
      "inspiration": 7747,
      "columbus": 7748,
      "existence": 7749,
      "conscience": 7750,
      "examinations": 7751,
      "subscribe": 7752,
      "bartender": 7753,
      "ribbon": 7754,
      "quantity": 7755,
      "destiny": 7756,
      "glimpse": 7757,
      "inspired": 7758,
      "independence": 7759,
      "hurricane": 7760,
      "mahjong": 7761,
      "nauseous": 7762,
      "technique": 7763,
      "inclined": 7764,
      "ingredient": 7765,
      "portugal": 7766,
      "portuguese": 7767,
      "kindergarten": 7768,
      "singapore": 7769,
      "27": 7770,
      "45": 7771,
      "aven": 7772,
      "bour": 7773,
      "bable": 7774,
      "ckey": 7775,
      "crude": 7776,
      "dough": 7777,
      "dney": 7778,
      "eve": 7779,
      "emi": 7780,
      "iphone": 7781,
      "kite": 7782,
      "lers": 7783,
      "mice": 7784,
      "nos": 7785,
      "nut": 7786,
      "oak": 7787,
      "oliver": 7788,
      "pour": 7789,
      "pry": 7790,
      "pine": 7791,
      "pau": 7792,
      "pip": 7793,
      "plow": 7794,
      "ral": 7795,
      "rad": 7796,
      "rink": 7797,
      "rural": 7798,
      "ruled": 7799,
      "swis": 7800,
      "slower": 7801,
      "tere": 7802,
      "trom": 7803,
      "tren": 7804,
      "tide": 7805,
      "ufo": 7806,
      "ump": 7807,
      "zone": 7808,
      "thr": 7809,
      "tobac": 7810,
      "toaster": 7811,
      "inqui": 7812,
      "inappropriate": 7813,
      "inconvenience": 7814,
      "ouch": 7815,
      "erent": 7816,
      "iso": 7817,
      "isen": 7818,
      "rear": 7819,
      "retr": 7820,
      "rehen": 7821,
      "onds": 7822,
      "asm": 7823,
      "heal": 7824,
      "orche": 7825,
      "orbit": 7826,
      "orient": 7827,
      "bes": 7828,
      "dod": 7829,
      "dove": 7830,
      "weed": 7831,
      "western": 7832,
      "chor": 7833,
      "chill": 7834,
      "choked": 7835,
      "kelly": 7836,
      "rocket": 7837,
      "washes": 7838,
      "wicked": 7839,
      "verdict": 7840,
      "alt": 7841,
      "altogether": 7842,
      "allel": 7843,
      "tian": 7844,
      "tiring": 7845,
      "rio": 7846,
      "outfit": 7847,
      "ading": 7848,
      "adding": 7849,
      "addic": 7850,
      "marily": 7851,
      "abled": 7852,
      "abundant": 7853,
      "unlike": 7854,
      "unaware": 7855,
      "shell": 7856,
      "accounts": 7857,
      "imper": 7858,
      "noted": 7859,
      "sured": 7860,
      "bodies": 7861,
      "trai": 7862,
      "amate": 7863,
      "motel": 7864,
      "motive": 7865,
      "plus": 7866,
      "upcoming": 7867,
      "enda": 7868,
      "seek": 7869,
      "exp": 7870,
      "expand": 7871,
      "agne": 7872,
      "agri": 7873,
      "agenda": 7874,
      "justify": 7875,
      "indiff": 7876,
      "confron": 7877,
      "proverb": 7878,
      "poli": 7879,
      "commer": 7880,
      "commission": 7881,
      "compens": 7882,
      "resigning": 7883,
      "mankind": 7884,
      "carved": 7885,
      "carpen": 7886,
      "venice": 7887,
      "offensive": 7888,
      "oused": 7889,
      "raises": 7890,
      "spor": 7891,
      "spit": 7892,
      "spont": 7893,
      "sprained": 7894,
      "bookcase": 7895,
      "typing": 7896,
      "playground": 7897,
      "overlooked": 7898,
      "disagreed": 7899,
      "disgrace": 7900,
      "intently": 7901,
      "mustache": 7902,
      "draft": 7903,
      "grud": 7904,
      "downs": 7905,
      "brass": 7906,
      "estimate": 7907,
      "penny": 7908,
      "applies": 7909,
      "dile": 7910,
      "dial": 7911,
      "diox": 7912,
      "finnish": 7913,
      "blush": 7914,
      "blaz": 7915,
      "blushed": 7916,
      "visible": 7917,
      "mostly": 7918,
      "believing": 7919,
      "parallel": 7920,
      "posted": 7921,
      "matic": 7922,
      "understandable": 7923,
      "istan": 7924,
      "raine": 7925,
      "raincoat": 7926,
      "babbling": 7927,
      "label": 7928,
      "frost": 7929,
      "supplied": 7930,
      "airplanes": 7931,
      "mp3": 7932,
      "mptom": 7933,
      "tripped": 7934,
      "izu": 7935,
      "hunted": 7936,
      "watered": 7937,
      "watermelon": 7938,
      "flown": 7939,
      "bites": 7940,
      "corp": 7941,
      "ails": 7942,
      "sorts": 7943,
      "cran": 7944,
      "sunscreen": 7945,
      "owners": 7946,
      "beautifully": 7947,
      "parent": 7948,
      "dressing": 7949,
      "central": 7950,
      "surprises": 7951,
      "shares": 7952,
      "thirst": 7953,
      "warmed": 7954,
      "umulated": 7955,
      "prompt": 7956,
      "obses": 7957,
      "vivid": 7958,
      "suming": 7959,
      "logic": 7960,
      "driveway": 7961,
      "examine": 7962,
      "colleague": 7963,
      "hospit": 7964,
      "considerable": 7965,
      "regained": 7966,
      "clearing": 7967,
      "landlord": 7968,
      "grandpa": 7969,
      "kisser": 7970,
      "patro": 7971,
      "curren": 7972,
      "messy": 7973,
      "keyboard": 7974,
      "cript": 7975,
      "cricket": 7976,
      "calories": 7977,
      "flame": 7978,
      "hatred": 7979,
      "secondhand": 7980,
      "movement": 7981,
      "allowance": 7982,
      "pedest": 7983,
      "territory": 7984,
      "doubled": 7985,
      "vacu": 7986,
      "vacant": 7987,
      "identity": 7988,
      "umbling": 7989,
      "blackmail": 7990,
      "sydney": 7991,
      "symptom": 7992,
      "massage": 7993,
      "approx": 7994,
      "gardener": 7995,
      "portra": 7996,
      "burger": 7997,
      "resume": 7998,
      "resumed": 7999,
      "gently": 8000,
      "escaping": 8001,
      "cello": 8002,
      "holster": 8003,
      "produce": 8004,
      "produced": 8005,
      "produces": 8006,
      "hardest": 8007,
      "earliest": 8008,
      "recorder": 8009,
      "recorded": 8010,
      "photographer": 8011,
      "violated": 8012,
      "pile": 8013,
      "profession": 8014,
      "snap": 8015,
      "slices": 8016,
      "accumulated": 8017,
      "notebooks": 8018,
      "feeds": 8019,
      "naoko": 8020,
      "gaining": 8021,
      "wiser": 8022,
      "conditioning": 8023,
      "bloody": 8024,
      "poetry": 8025,
      "contradic": 8026,
      "officially": 8027,
      "accepting": 8028,
      "hydr": 8029,
      "weaker": 8030,
      "bowling": 8031,
      "crown": 8032,
      "volunteering": 8033,
      "harmless": 8034,
      "attract": 8035,
      "tuition": 8036,
      "hamlet": 8037,
      "threatening": 8038,
      "squir": 8039,
      "announcer": 8040,
      "closes": 8041,
      "objects": 8042,
      "scored": 8043,
      "consumption": 8044,
      "honored": 8045,
      "repeating": 8046,
      "affects": 8047,
      "toothbrush": 8048,
      "instructor": 8049,
      "idiots": 8050,
      "december": 8051,
      "cultural": 8052,
      "developing": 8053,
      "improvement": 8054,
      "thinner": 8055,
      "flattered": 8056,
      "toolbox": 8057,
      "suspiciously": 8058,
      "originally": 8059,
      "mysteries": 8060,
      "african": 8061,
      "vanished": 8062,
      "wheelchair": 8063,
      "diamonds": 8064,
      "poisonous": 8065,
      "sources": 8066,
      "polluted": 8067,
      "candidates": 8068,
      "llywood": 8069,
      "industrial": 8070,
      "ignorant": 8071,
      "partial": 8072,
      "champagne": 8073,
      "unexpectedly": 8074,
      "occasionally": 8075,
      "comfortably": 8076,
      "1990": 8077,
      "deposited": 8078,
      "democratic": 8079,
      "interrupting": 8080,
      "enthusiasm": 8081,
      "decorating": 8082,
      "surrendered": 8083,
      "eliza": 8084,
      "swallowed": 8085,
      "loyalty": 8086,
      "plugged": 8087,
      "lungs": 8088,
      "rewarded": 8089,
      "peanut": 8090,
      "imaginative": 8091,
      "nickname": 8092,
      "refresh": 8093,
      "unemployment": 8094,
      "squeeze": 8095,
      "analysis": 8096,
      "marika": 8097,
      "rugby": 8098,
      "frustrating": 8099,
      "mosquitoes": 8100,
      "alex": 8101,
      "vietnam": 8102,
      "gallery": 8103,
      "vitamin": 8104,
      "vitamins": 8105,
      "bundle": 8106,
      "snuggl": 8107,
      "mushrooms": 8108,
      "genuinely": 8109,
      "principles": 8110,
      "chuckled": 8111,
      "mutual": 8112,
      "arrogant": 8113,
      "stirred": 8114,
      "disguised": 8115,
      "interfered": 8116,
      "accommodate": 8117,
      "snoring": 8118,
      "administration": 8119,
      "cautiously": 8120,
      "pamph": 8121,
      "chips": 8122,
      "gratitude": 8123,
      "kidnappers": 8124,
      "flavor": 8125,
      "comparison": 8126,
      "disneyland": 8127,
      "elementary": 8128,
      "alphabet": 8129,
      "jesus": 8130,
      "nephew": 8131,
      "contributing": 8132,
      "pharmacy": 8133,
      "shampoo": 8134,
      "conflict": 8135,
      "eighth": 8136,
      "sarcastic": 8137,
      "rebels": 8138,
      "compartment": 8139,
      "paranoid": 8140,
      "drifted": 8141,
      "microwave": 8142,
      "paulo": 8143,
      "pipes": 8144,
      "swiss": 8145,
      "teresa": 8146,
      "trombone": 8147,
      "tobacco": 8148,
      "orchestra": 8149,
      "amateur": 8150,
      "confronted": 8151,
      "spontane": 8152,
      "hospitalized": 8153,
      "portrait": 8154,
      "36": 8155,
      "5th": 8156,
      "65": 8157,
      "99": 8158,
      "aer": 8159,
      "bang": 8160,
      "cant": 8161,
      "dine": 8162,
      "drench": 8163,
      "dangers": 8164,
      "elo": 8165,
      "etr": 8166,
      "eag": 8167,
      "equi": 8168,
      "fri": 8169,
      "fancy": 8170,
      "glove": 8171,
      "gence": 8172,
      "gusted": 8173,
      "hin": 8174,
      "hut": 8175,
      "hedge": 8176,
      "iked": 8177,
      "ichi": 8178,
      "kers": 8179,
      "kins": 8180,
      "lk": 8181,
      "lting": 8182,
      "lined": 8183,
      "moun": 8184,
      "nin": 8185,
      "oom": 8186,
      "rul": 8187,
      "raft": 8188,
      "sate": 8189,
      "são": 8190,
      "uffe": 8191,
      "virt": 8192,
      "xon": 8193,
      "xious": 8194,
      "yield": 8195,
      "yaki": 8196,
      "thail": 8197,
      "thames": 8198,
      "tourn": 8199,
      "inse": 8200,
      "inting": 8201,
      "inhabit": 8202,
      "thed": 8203,
      "issued": 8204,
      "reacted": 8205,
      "editor": 8206,
      "asa": 8207,
      "ases": 8208,
      "asian": 8209,
      "assem": 8210,
      "assuming": 8211,
      "vet": 8212,
      "lete": 8213,
      "stating": 8214,
      "notic": 8215,
      "noxious": 8216,
      "dock": 8217,
      "domin": 8218,
      "sealed": 8219,
      "robot": 8220,
      "wipe": 8221,
      "alan": 8222,
      "alarmed": 8223,
      "nels": 8224,
      "timer": 8225,
      "rip": 8226,
      "rivers": 8227,
      "outgoing": 8228,
      "adds": 8229,
      "lod": 8230,
      "historical": 8231,
      "hog": 8232,
      "hobb": 8233,
      "hockey": 8234,
      "hollywood": 8235,
      "donuts": 8236,
      "unit": 8237,
      "unkind": 8238,
      "unreasonable": 8239,
      "acknowledge": 8240,
      "oku": 8241,
      "imately": 8242,
      "peep": 8243,
      "sup": 8244,
      "ironed": 8245,
      "bore": 8246,
      "feather": 8247,
      "trag": 8248,
      "mole": 8249,
      "moist": 8250,
      "plague": 8251,
      "soda": 8252,
      "soaked": 8253,
      "shield": 8254,
      "shuff": 8255,
      "sax": 8256,
      "sachi": 8257,
      "urt": 8258,
      "urban": 8259,
      "dem": 8260,
      "deck": 8261,
      "defic": 8262,
      "endure": 8263,
      "exists": 8264,
      "cony": 8265,
      "proportion": 8266,
      "needn": 8267,
      "needless": 8268,
      "astro": 8269,
      "ulars": 8270,
      "ulary": 8271,
      "pope": 8272,
      "poland": 8273,
      "perfe": 8274,
      "perseverance": 8275,
      "resisted": 8276,
      "fame": 8277,
      "newly": 8278,
      "stored": 8279,
      "venir": 8280,
      "offend": 8281,
      "uchi": 8282,
      "item": 8283,
      "chopped": 8284,
      "spade": 8285,
      "sprang": 8286,
      "longed": 8287,
      "bookshelf": 8288,
      "lasts": 8289,
      "bushes": 8290,
      "busiest": 8291,
      "overly": 8292,
      "disk": 8293,
      "disorder": 8294,
      "discrimin": 8295,
      "distributed": 8296,
      "disgusted": 8297,
      "housewife": 8298,
      "printer": 8299,
      "drain": 8300,
      "undergo": 8301,
      "penetr": 8302,
      "camel": 8303,
      "appla": 8304,
      "partly": 8305,
      "finance": 8306,
      "handful": 8307,
      "hardships": 8308,
      "shoel": 8309,
      "monkeys": 8310,
      "paramed": 8311,
      "parrot": 8312,
      "tics": 8313,
      "mothers": 8314,
      "beds": 8315,
      "luis": 8316,
      "lump": 8317,
      "hio": 8318,
      "catches": 8319,
      "kettle": 8320,
      "armchair": 8321,
      "framed": 8322,
      "learner": 8323,
      "designer": 8324,
      "airmail": 8325,
      "privi": 8326,
      "restri": 8327,
      "stron": 8328,
      "strings": 8329,
      "clown": 8330,
      "fastened": 8331,
      "corrid": 8332,
      "server": 8333,
      "serves": 8334,
      "cram": 8335,
      "sunrise": 8336,
      "jet": 8337,
      "ballet": 8338,
      "vocab": 8339,
      "contents": 8340,
      "viewed": 8341,
      "truthful": 8342,
      "inval": 8343,
      "invaded": 8344,
      "steep": 8345,
      "ggles": 8346,
      "obnoxious": 8347,
      "fireman": 8348,
      "gible": 8349,
      "formula": 8350,
      "enjoyable": 8351,
      "vied": 8352,
      "vienna": 8353,
      "tested": 8354,
      "testify": 8355,
      "oped": 8356,
      "summon": 8357,
      "cleaner": 8358,
      "senator": 8359,
      "scen": 8360,
      "concerns": 8361,
      "largely": 8362,
      "pattern": 8363,
      "returns": 8364,
      "curve": 8365,
      "nik": 8366,
      "nixon": 8367,
      "cries": 8368,
      "crimes": 8369,
      "flab": 8370,
      "coats": 8371,
      "reaching": 8372,
      "mainly": 8373,
      "teams": 8374,
      "decisive": 8375,
      "gunshots": 8376,
      "sendai": 8377,
      "costume": 8378,
      "umbled": 8379,
      "floors": 8380,
      "gardening": 8381,
      "disappointing": 8382,
      "purple": 8383,
      "postcards": 8384,
      "madly": 8385,
      "husbands": 8386,
      "arguments": 8387,
      "dances": 8388,
      "tails": 8389,
      "cured": 8390,
      "distant": 8391,
      "willingly": 8392,
      "dependable": 8393,
      "cellar": 8394,
      "hanged": 8395,
      "continent": 8396,
      "attendant": 8397,
      "winds": 8398,
      "windshield": 8399,
      "controlled": 8400,
      "embraced": 8401,
      "specialist": 8402,
      "horseback": 8403,
      "sticking": 8404,
      "productive": 8405,
      "farms": 8406,
      "austria": 8407,
      "avoidable": 8408,
      "protecting": 8409,
      "stripped": 8410,
      "slim": 8411,
      "slipper": 8412,
      "moonlight": 8413,
      "seafood": 8414,
      "wisely": 8415,
      "crept": 8416,
      "bells": 8417,
      "chalk": 8418,
      "chauffe": 8419,
      "energetic": 8420,
      "investments": 8421,
      "slaves": 8422,
      "groaned": 8423,
      "anxiety": 8424,
      "officials": 8425,
      "sharply": 8426,
      "robbers": 8427,
      "hyster": 8428,
      "weakness": 8429,
      "humanity": 8430,
      "emerged": 8431,
      "turtles": 8432,
      "tulips": 8433,
      "annoy": 8434,
      "hamster": 8435,
      "drugstore": 8436,
      "nationality": 8437,
      "practically": 8438,
      "briefly": 8439,
      "scores": 8440,
      "films": 8441,
      "reporters": 8442,
      "moderate": 8443,
      "convention": 8444,
      "suspicion": 8445,
      "toothpaste": 8446,
      "balanced": 8447,
      "balcony": 8448,
      "visibly": 8449,
      "responsibilities": 8450,
      "locate": 8451,
      "cheering": 8452,
      "relieve": 8453,
      "racing": 8454,
      "racial": 8455,
      "insured": 8456,
      "flatly": 8457,
      "optimist": 8458,
      "knelt": 8459,
      "mysterious": 8460,
      "symbo": 8461,
      "souvenir": 8462,
      "measured": 8463,
      "status": 8464,
      "barked": 8465,
      "technical": 8466,
      "psychic": 8467,
      "nodding": 8468,
      "tracks": 8469,
      "concealed": 8470,
      "wheels": 8471,
      "occasions": 8472,
      "pointing": 8473,
      "blessing": 8474,
      "poisoned": 8475,
      "ruining": 8476,
      "dozens": 8477,
      "witnessed": 8478,
      "relationships": 8479,
      "characters": 8480,
      "hostage": 8481,
      "supportive": 8482,
      "relatively": 8483,
      "recovering": 8484,
      "pacing": 8485,
      "topics": 8486,
      "akiko": 8487,
      "competed": 8488,
      "sleeves": 8489,
      "deceiving": 8490,
      "hammered": 8491,
      "shelves": 8492,
      "sailors": 8493,
      "calculator": 8494,
      "palm": 8495,
      "titan": 8496,
      "notify": 8497,
      "shaves": 8498,
      "peeled": 8499,
      "spinning": 8500,
      "combination": 8501,
      "struggling": 8502,
      "scott": 8503,
      "philosop": 8504,
      "thumbs": 8505,
      "identified": 8506,
      "obstacles": 8507,
      "neatly": 8508,
      "utterly": 8509,
      "broadcast": 8510,
      "depressing": 8511,
      "prescribed": 8512,
      "possess": 8513,
      "passionate": 8514,
      "wolves": 8515,
      "bankruptcy": 8516,
      "manufactures": 8517,
      "gazed": 8518,
      "replied": 8519,
      "1939": 8520,
      "fabulous": 8521,
      "atlantic": 8522,
      "canoe": 8523,
      "exceeded": 8524,
      "situated": 8525,
      "grinned": 8526,
      "translator": 8527,
      "darwin": 8528,
      "tackle": 8529,
      "boasts": 8530,
      "disposal": 8531,
      "physician": 8532,
      "obligation": 8533,
      "dolphin": 8534,
      "therapist": 8535,
      "trailer": 8536,
      "bridges": 8537,
      "pessimistic": 8538,
      "isolated": 8539,
      "grasp": 8540,
      "evolution": 8541,
      "automatically": 8542,
      "david": 8543,
      "oysters": 8544,
      "saint": 8545,
      "yanked": 8546,
      "lyrics": 8547,
      "woozy": 8548,
      "electron": 8549,
      "regulations": 8550,
      "buddhis": 8551,
      "challenged": 8552,
      "cockroaches": 8553,
      "astonishment": 8554,
      "throne": 8555,
      "addicted": 8556,
      "carpenter": 8557,
      "currency": 8558,
      "vacuum": 8559,
      "approximately": 8560,
      "squirrel": 8561,
      "elizabeth": 8562,
      "pamphlet": 8563,
      "drenched": 8564,
      "eagle": 8565,
      "satell": 8566,
      "thailand": 8567,
      "tournament": 8568,
      "insect": 8569,
      "inhabitants": 8570,
      "hobbies": 8571,
      "tragic": 8572,
      "deficit": 8573,
      "applause": 8574,
      "corridor": 8575,
      "vocabulary": 8576,
      "slippery": 8577,
      "chauffeur": 8578,
      "29": 8579,
      "aholic": 8580,
      "bis": 8581,
      "bree": 8582,
      "blast": 8583,
      "broom": 8584,
      "barri": 8585,
      "bond": 8586,
      "biling": 8587,
      "baff": 8588,
      "bbled": 8589,
      "cain": 8590,
      "dang": 8591,
      "dair": 8592,
      "dled": 8593,
      "dum": 8594,
      "eaves": 8595,
      "fto": 8596,
      "fice": 8597,
      "fans": 8598,
      "flea": 8599,
      "fists": 8600,
      "glow": 8601,
      "hits": 8602,
      "ived": 8603,
      "iles": 8604,
      "jer": 8605,
      "jen": 8606,
      "karen": 8607,
      "lish": 8608,
      "lame": 8609,
      "mck": 8610,
      "masks": 8611,
      "nate": 8612,
      "napo": 8613,
      "oat": 8614,
      "odo": 8615,
      "ogo": 8616,
      "ography": 8617,
      "pant": 8618,
      "pies": 8619,
      "sity": 8620,
      "swing": 8621,
      "sara": 8622,
      "tay": 8623,
      "tad": 8624,
      "tab": 8625,
      "tapped": 8626,
      "umes": 8627,
      "vation": 8628,
      "vine": 8629,
      "vcr": 8630,
      "vals": 8631,
      "yo": 8632,
      "thy": 8633,
      "ining": 8634,
      "inha": 8635,
      "infer": 8636,
      "incur": 8637,
      "insepar": 8638,
      "inley": 8639,
      "incompetent": 8640,
      "anth": 8641,
      "iscated": 8642,
      "relied": 8643,
      "republic": 8644,
      "represented": 8645,
      "ono": 8646,
      "attered": 8647,
      "attempting": 8648,
      "edition": 8649,
      "ingly": 8650,
      "melo": 8651,
      "melts": 8652,
      "ari": 8653,
      "arin": 8654,
      "encoun": 8655,
      "endow": 8656,
      "encouraging": 8657,
      "enabled": 8658,
      "itis": 8659,
      "itted": 8660,
      "lege": 8661,
      "lefto": 8662,
      "stake": 8663,
      "haw": 8664,
      "nomin": 8665,
      "beck": 8666,
      "betic": 8667,
      "beaches": 8668,
      "chin": 8669,
      "chilly": 8670,
      "kel": 8671,
      "keted": 8672,
      "goat": 8673,
      "gown": 8674,
      "goggles": 8675,
      "licked": 8676,
      "ligence": 8677,
      "washer": 8678,
      "widow": 8679,
      "forks": 8680,
      "essays": 8681,
      "anda": 8682,
      "ander": 8683,
      "nest": 8684,
      "outs": 8685,
      "aders": 8686,
      "cancell": 8687,
      "loosen": 8688,
      "marched": 8689,
      "margar": 8690,
      "tequ": 8691,
      "hore": 8692,
      "donut": 8693,
      "donate": 8694,
      "user": 8695,
      "unlock": 8696,
      "unfolded": 8697,
      "unreliable": 8698,
      "unacceptable": 8699,
      "aced": 8700,
      "acade": 8701,
      "pel": 8702,
      "pecu": 8703,
      "suz": 8704,
      "coa": 8705,
      "core": 8706,
      "cocain": 8707,
      "fet": 8708,
      "fees": 8709,
      "fears": 8710,
      "ustered": 8711,
      "amm": 8712,
      "amoto": 8713,
      "utmost": 8714,
      "worms": 8715,
      "mow": 8716,
      "plun": 8717,
      "hasty": 8718,
      "pleaded": 8719,
      "plexed": 8720,
      "abouts": 8721,
      "sau": 8722,
      "saves": 8723,
      "sailed": 8724,
      "delet": 8725,
      "delete": 8726,
      "extr": 8727,
      "aker": 8728,
      "indul": 8729,
      "workaholic": 8730,
      "confront": 8731,
      "conserve": 8732,
      "condem": 8733,
      "ulate": 8734,
      "coma": 8735,
      "perspe": 8736,
      "perplexed": 8737,
      "jog": 8738,
      "joan": 8739,
      "whereabouts": 8740,
      "manages": 8741,
      "manila": 8742,
      "rence": 8743,
      "aching": 8744,
      "carp": 8745,
      "dynam": 8746,
      "ckles": 8747,
      "apor": 8748,
      "cla": 8749,
      "clay": 8750,
      "bump": 8751,
      "buff": 8752,
      "bucks": 8753,
      "buzz": 8754,
      "spon": 8755,
      "omin": 8756,
      "asser": 8757,
      "bossy": 8758,
      "overlook": 8759,
      "overhead": 8760,
      "afterwards": 8761,
      "disci": 8762,
      "disliked": 8763,
      "displayed": 8764,
      "discourage": 8765,
      "disappearance": 8766,
      "disobeyed": 8767,
      "household": 8768,
      "printed": 8769,
      "mustered": 8770,
      "drastic": 8771,
      "beforehand": 8772,
      "underwater": 8773,
      "underground": 8774,
      "gracious": 8775,
      "grump": 8776,
      "braces": 8777,
      "este": 8778,
      "estimated": 8779,
      "pengu": 8780,
      "pension": 8781,
      "sized": 8782,
      "sizes": 8783,
      "partners": 8784,
      "finals": 8785,
      "handcuff": 8786,
      "chef": 8787,
      "buyer": 8788,
      "bler": 8789,
      "vised": 8790,
      "phili": 8791,
      "greasy": 8792,
      "cerity": 8793,
      "matsu": 8794,
      "doorway": 8795,
      "rainforests": 8796,
      "council": 8797,
      "lifestyle": 8798,
      "lum": 8799,
      "hip": 8800,
      "owing": 8801,
      "laz": 8802,
      "laura": 8803,
      "breed": 8804,
      "supports": 8805,
      "lightly": 8806,
      "personnel": 8807,
      "coldest": 8808,
      "wonders": 8809,
      "prizes": 8810,
      "funda": 8811,
      "cloped": 8812,
      "izoph": 8813,
      "hunt": 8814,
      "hunch": 8815,
      "juan": 8816,
      "ignant": 8817,
      "headphones": 8818,
      "floating": 8819,
      "floats": 8820,
      "corrup": 8821,
      "johnny": 8822,
      "sunk": 8823,
      "jelly": 8824,
      "tablecloth": 8825,
      "roughly": 8826,
      "ballpoint": 8827,
      "cents": 8828,
      "session": 8829,
      "nutr": 8830,
      "nude": 8831,
      "invaders": 8832,
      "stein": 8833,
      "steve": 8834,
      "lunchtime": 8835,
      "pickup": 8836,
      "firewood": 8837,
      "kenned": 8838,
      "alize": 8839,
      "decency": 8840,
      "trusting": 8841,
      "dense": 8842,
      "denying": 8843,
      "safest": 8844,
      "countryside": 8845,
      "eleg": 8846,
      "hottest": 8847,
      "skim": 8848,
      "tremble": 8849,
      "agreeing": 8850,
      "failures": 8851,
      "senses": 8852,
      "tator": 8853,
      "appeals": 8854,
      "scra": 8855,
      "scrubbed": 8856,
      "boxer": 8857,
      "boxing": 8858,
      "quicker": 8859,
      "snowfall": 8860,
      "interpret": 8861,
      "shortcoming": 8862,
      "confiscated": 8863,
      "covering": 8864,
      "legit": 8865,
      "legend": 8866,
      "successfully": 8867,
      "calmed": 8868,
      "everest": 8869,
      "flun": 8870,
      "flustered": 8871,
      "guessing": 8872,
      "bandage": 8873,
      "traveler": 8874,
      "dictator": 8875,
      "banker": 8876,
      "hearty": 8877,
      "sends": 8878,
      "barbe": 8879,
      "strangest": 8880,
      "responded": 8881,
      "mailing": 8882,
      "mailman": 8883,
      "apologies": 8884,
      "syn": 8885,
      "couples": 8886,
      "borrows": 8887,
      "freaked": 8888,
      "oculars": 8889,
      "porter": 8890,
      "simpler": 8891,
      "scares": 8892,
      "dictionaries": 8893,
      "bury": 8894,
      "purchased": 8895,
      "rides": 8896,
      "fools": 8897,
      "eyebrow": 8898,
      "patiently": 8899,
      "umbrellas": 8900,
      "entific": 8901,
      "koal": 8902,
      "distances": 8903,
      "kings": 8904,
      "hangs": 8905,
      "packs": 8906,
      "witty": 8907,
      "witnesses": 8908,
      "delirious": 8909,
      "boards": 8910,
      "specialty": 8911,
      "volcano": 8912,
      "bassoon": 8913,
      "fatig": 8914,
      "mandarin": 8915,
      "preferred": 8916,
      "losses": 8917,
      "beats": 8918,
      "beatles": 8919,
      "storms": 8920,
      "hallway": 8921,
      "harmonica": 8922,
      "introverted": 8923,
      "attacks": 8924,
      "lingu": 8925,
      "scientific": 8926,
      "introducing": 8927,
      "pigeon": 8928,
      "pleasantly": 8929,
      "damp": 8930,
      "snapped": 8931,
      "powered": 8932,
      "graduating": 8933,
      "straightened": 8934,
      "greet": 8935,
      "creation": 8936,
      "memorized": 8937,
      "definite": 8938,
      "appearances": 8939,
      "jordan": 8940,
      "debating": 8941,
      "screams": 8942,
      "pesos": 8943,
      "majoring": 8944,
      "officers": 8945,
      "hyogo": 8946,
      "tours": 8947,
      "organic": 8948,
      "croco": 8949,
      "translations": 8950,
      "tariff": 8951,
      "antibio": 8952,
      "antiques": 8953,
      "banjo": 8954,
      "banned": 8955,
      "banquet": 8956,
      "moody": 8957,
      "jealousy": 8958,
      "firmly": 8959,
      "nonstop": 8960,
      "artificial": 8961,
      "vices": 8962,
      "jammed": 8963,
      "copyright": 8964,
      "184": 8965,
      "frogs": 8966,
      "splashed": 8967,
      "membership": 8968,
      "survival": 8969,
      "filthy": 8970,
      "drawers": 8971,
      "mugged": 8972,
      "touches": 8973,
      "desperately": 8974,
      "theories": 8975,
      "negotiated": 8976,
      "puzzles": 8977,
      "heroes": 8978,
      "hesitant": 8979,
      "raph": 8980,
      "behaves": 8981,
      "shortest": 8982,
      "financially": 8983,
      "encycloped": 8984,
      "romeo": 8985,
      "bonus": 8986,
      "samples": 8987,
      "blankets": 8988,
      "troph": 8989,
      "predictable": 8990,
      "2003": 8991,
      "valuables": 8992,
      "surroundings": 8993,
      "spirit": 8994,
      "toyota": 8995,
      "photographs": 8996,
      "schizoph": 8997,
      "accessible": 8998,
      "advertised": 8999,
      "publisher": 9000,
      "quarreling": 9001,
      "asylum": 9002,
      "exceptions": 9003,
      "paula": 9004,
      "foxes": 9005,
      "narrowly": 9006,
      "bacon": 9007,
      "pigs": 9008,
      "insecure": 9009,
      "fuss": 9010,
      "ogawa": 9011,
      "absorbs": 9012,
      "1998": 9013,
      "laps": 9014,
      "explode": 9015,
      "barefoot": 9016,
      "sailor": 9017,
      "screwed": 9018,
      "screwdriver": 9019,
      "calculated": 9020,
      "materialistic": 9021,
      "consequence": 9022,
      "dragged": 9023,
      "exceptionally": 9024,
      "infected": 9025,
      "scratched": 9026,
      "impact": 9027,
      "implying": 9028,
      "participated": 9029,
      "exaggerating": 9030,
      "prettiest": 9031,
      "liquid": 9032,
      "shifted": 9033,
      "executed": 9034,
      "smoothly": 9035,
      "underestimated": 9036,
      "processor": 9037,
      "civilization": 9038,
      "minisk": 9039,
      "hypocr": 9040,
      "hypothesis": 9041,
      "whispering": 9042,
      "dorm": 9043,
      "routine": 9044,
      "reveal": 9045,
      "beliefs": 9046,
      "pandas": 9047,
      "sincerity": 9048,
      "swedish": 9049,
      "lemons": 9050,
      "nagas": 9051,
      "tanker": 9052,
      "ukraine": 9053,
      "installed": 9054,
      "overest": 9055,
      "performing": 9056,
      "sneaky": 9057,
      "gazing": 9058,
      "melting": 9059,
      "consented": 9060,
      "bruises": 9061,
      "decreased": 9062,
      "karate": 9063,
      "mortgage": 9064,
      "mushroom": 9065,
      "submitted": 9066,
      "sighed": 9067,
      "situations": 9068,
      "stingy": 9069,
      "iraq": 9070,
      "plugs": 9071,
      "sacrific": 9072,
      "sacrifice": 9073,
      "contribute": 9074,
      "cuba": 9075,
      "rusty": 9076,
      "hakone": 9077,
      "emphasis": 9078,
      "sneeze": 9079,
      "giggled": 9080,
      "multi": 9081,
      "indeed": 9082,
      "intrude": 9083,
      "whistling": 9084,
      "composer": 9085,
      "trimmed": 9086,
      "juliet": 9087,
      "supervisor": 9088,
      "prosperity": 9089,
      "dazed": 9090,
      "eccent": 9091,
      "rhetorical": 9092,
      "twisted": 9093,
      "yacht": 9094,
      "yogurt": 9095,
      "microscope": 9096,
      "binoculars": 9097,
      "mourned": 9098,
      "unbelievable": 9099,
      "amusement": 9100,
      "destruction": 9101,
      "studio": 9102,
      "paragraph": 9103,
      "vocation": 9104,
      "numerous": 9105,
      "panicked": 9106,
      "transportation": 9107,
      "ingredients": 9108,
      "plowed": 9109,
      "agriculture": 9110,
      "indifferent": 9111,
      "commercial": 9112,
      "grudge": 9113,
      "dioxide": 9114,
      "patrol": 9115,
      "pedestri": 9116,
      "symptoms": 9117,
      "snuggled": 9118,
      "spontaneous": 9119,
      "eloqu": 9120,
      "assemble": 9121,
      "supreme": 9122,
      "sachiko": 9123,
      "shoelaces": 9124,
      "privilege": 9125,
      "strongest": 9126,
      "summoned": 9127,
      "bilingual": 9128,
      "dairy": 9129,
      "jenny": 9130,
      "mckinley": 9131,
      "napoleon": 9132,
      "oatmeal": 9133,
      "taylor": 9134,
      "inseparable": 9135,
      "encountered": 9136,
      "endowed": 9137,
      "tequila": 9138,
      "peculiar": 9139,
      "cocaine": 9140,
      "perspective": 9141,
      "buffalo": 9142,
      "grumpy": 9143,
      "kennedy": 9144,
      "antibiotics": 9145,
      "schizophren": 9146,
      "28": 9147,
      "38": 9148,
      "400": 9149,
      "64": 9150,
      "800": 9151,
      "90": 9152,
      "97": 9153,
      "ald": 9154,
      "amen": 9155,
      "bli": 9156,
      "bust": 9157,
      "bam": 9158,
      "biz": 9159,
      "bunk": 9160,
      "bene": 9161,
      "banged": 9162,
      "cti": 9163,
      "cco": 9164,
      "cate": 9165,
      "dre": 9166,
      "dion": 9167,
      "dash": 9168,
      "darts": 9169,
      "ein": 9170,
      "emotion": 9171,
      "fos": 9172,
      "fying": 9173,
      "gones": 9174,
      "hinted": 9175,
      "iro": 9176,
      "kab": 9177,
      "knot": 9178,
      "lous": 9179,
      "liness": 9180,
      "mc": 9181,
      "nity": 9182,
      "narr": 9183,
      "oke": 9184,
      "obed": 9185,
      "ophone": 9186,
      "pli": 9187,
      "pong": 9188,
      "pra": 9189,
      "raf": 9190,
      "ratt": 9191,
      "raged": 9192,
      "sab": 9193,
      "swo": 9194,
      "swell": 9195,
      "tac": 9196,
      "tres": 9197,
      "tted": 9198,
      "treason": 9199,
      "uen": 9200,
      "vig": 9201,
      "vice": 9202,
      "vary": 9203,
      "wan": 9204,
      "wre": 9205,
      "wid": 9206,
[...]
