{
  "version": "1.0",
  "truncation": null,
  "padding": null,
  "added_tokens": [
    {
      "id": 0,
      "content": "<pad>",
      "single_word": false,
      "lstrip": false,
      "rstrip": false,
      "normalized": false,
      "special": true
    },
    {
      "id": 1,
      "content": "<bos>",
      "single_word": false,
      "lstrip": false,
      "rstrip": false,
      "normalized": false,
      "special": true
    },
    {
      "id": 2,
      "content": "<eos>",
      "single_word": false,
      "lstrip": false,
      "rstrip": false,
      "normalized": false,
      "special": true
    },
    {
      "id": 3,
      "content": "<unk>",
      "single_word": false,
      "lstrip": false,
      "rstrip": false,
      "normalized": false,
      "special": true
    }
  ],
  "normalizer": null,
  "pre_tokenizer": {
    "type": "Whitespace"
  },
  "post_processor": null,
  "decoder": null,
  "model": {
    "type": "BPE",
    "dropout": null,
    "unk_token": "<unk>",
    "continuing_subword_prefix": null,
    "end_of_word_suffix": null,
    "fuse_unk": false,
    "byte_fallback": false,
    "ignore_merges": false,
    "vocab": {
      "<pad>": 0,
      "<bos>": 1,
      "<eos>": 2,
      "<unk>": 3,
      "!": 4,
      "\"": 5,
      "#": 6,
      "$": 7,
      "%": 8,
      "&": 9,
      "'": 10,
      "(": 11,
      ")": 12,
      "*": 13,
      "+": 14,
      ",": 15,
      "-": 16,
      ".": 17,
      "/": 18,
      "0": 19,
      "1": 20,
      "2": 21,
      "3": 22,
      "4": 23,
      "5": 24,
      "6": 25,
      "7": 26,
      "8": 27,
      "9": 28,
      ":": 29,
      ";": 30,
      "<": 31,
      "=": 32,
      ">": 33,
      "?": 34,
      "@": 35,
      "[": 36,
      "\\": 37,
      "]": 38,
      "^": 39,
      "_": 40,
      "`": 41,
      "a": 42,
      "b": 43,
      "c": 44,
      "d": 45,
      "e": 46,
      "f": 47,
      "g": 48,
      "h": 49,
      "i": 50,
      "j": 51,
      "k": 52,
      "l": 53,
      "m": 54,
      "n": 55,
      "o": 56,
      "p": 57,
      "q": 58,
      "r": 59,
      "s": 60,
      "t": 61,
      "u": 62,
      "v": 63,
      "w": 64,
      "x": 65,
      "y": 66,
      "z": 67,
      "{": 68,
      "}": 69,
      "~": 70,
      "": 71,
      "": 72,
      "": 73,
      "¡": 74,
      "¢": 75,
      "£": 76,
      "¤": 77,
      "¥": 78,
      "¦": 79,
      "§": 80,
      "¨": 81,
      "©": 82,
      "ª": 83,
      "«": 84,
      "¬": 85,
      "¯": 86,
      "°": 87,
      "±": 88,
      "²": 89,
      "³": 90,
      "´": 91,
      "µ": 92,
      "¶": 93,
      "·": 94,
      "¸": 95,
      "¹": 96,
      "º": 97,
      "»": 98,
      "¼": 99,
      "½": 100,
      "¾": 101,
      "¿": 102,
      "×": 103,
      "ß": 104,
      "à": 105,
      "á": 106,
      "â": 107,
      "ã": 108,
      "ä": 109,
      "å": 110,
      "æ": 111,
      "ç": 112,
      "è": 113,
      "é": 114,
      "ê": 115,
      "ë": 116,
      "ì": 117,
      "í": 118,
      "î": 119,
      "ï": 120,
      "ð": 121,
      "ñ": 122,
      "ò": 123,
      "ó": 124,
      "ô": 125,
      "õ": 126,
      "ö": 127,
      "÷": 128,
      "ø": 129,
      "ù": 130,
      "ú": 131,
      "û": 132,
      "ü": 133,
      "ý": 134,
      "þ": 135,
      "ÿ": 136,
      "ā": 137,
      "ă": 138,
      "ą": 139,
      "ć": 140,
      "č": 141,
      "đ": 142,
      "ē": 143,
      "ė": 144,
      "ę": 145,
      "ě": 146,
      "ğ": 147,
      "ģ": 148,
      "ħ": 149,
      "ĩ": 150,
      "ī": 151,
      "ĭ": 152,
      "į": 153,
      "ı": 154,
      "ļ": 155,
      "ľ": 156,
      "ł": 157,
      "ń": 158,
      "ņ": 159,
      "ō": 160,
      "ŏ": 161,
      "ő": 162,
      "œ": 163,
      "ř": 164,
      "ś": 165,
      "ş": 166,
      "š": 167,
      "ţ": 168,
      "ũ": 169,
      "ū": 170,
      "ŭ": 171,
      "ů": 172,
      "ų": 173,
      "ź": 174,
      "ż": 175,
      "ž": 176,
      "ơ": 177,
      "ư": 178,
      "ǁ": 179,
      "ǎ": 180,
      "ǐ": 181,
      "ǒ": 182,
      "ǔ": 183,
      "ǫ": 184,
      "ș": 185,
      "ț": 186,
      "ɓ": 187,
      "ə": 188,
      "ʰ": 189,
      "ʻ": 190,
      "ʼ": 191,
      "ʾ": 192,
      "ʿ": 193,
      "˙": 194,
      "˚": 195,
      "́": 196,
      "̇": 197,
      "̤": 198,
      "̥": 199,
      "ά": 200,
      "έ": 201,
      "ή": 202,
      "ί": 203,
      "α": 204,
      "β": 205,
      "γ": 206,
      "δ": 207,
      "ε": 208,
      "ζ": 209,
      "η": 210,
      "θ": 211,
      "ι": 212,
      "κ": 213,
      "λ": 214,
      "μ": 215,
      "ν": 216,
      "ξ": 217,
      "ο": 218,
      "π": 219,
      "ρ": 220,
      "ς": 221,
      "σ": 222,
      "τ": 223,
      "υ": 224,
      "φ": 225,
      "χ": 226,
      "ψ": 227,
      "ω": 228,
      "ό": 229,
      "ύ": 230,
      "ώ": 231,
      "ϕ": 232,
      "а": 233,
      "б": 234,
      "в": 235,
      "г": 236,
      "д": 237,
      "е": 238,
      "ж": 239,
      "з": 240,
      "и": 241,
      "й": 242,
      "к": 243,
      "л": 244,
      "м": 245,
      "н": 246,
      "о": 247,
      "п": 248,
      "р": 249,
      "с": 250,
      "т": 251,
      "у": 252,
      "ф": 253,
      "х": 254,
      "ц": 255,
      "ч": 256,
      "ш": 257,
      "ы": 258,
      "ь": 259,
      "э": 260,
      "ю": 261,
      "я": 262,
      "ё": 263,
      "і": 264,
      "ї": 265,
      "ј": 266,
      "њ": 267,
      "ћ": 268,
      "ў": 269,
      "ғ": 270,
      "ҧ": 271,
      "ұ": 272,
      "ӄ": 273,
      "ә": 274,
      "ӧ": 275,
      "ա": 276,
      "ի": 277,
      "խ": 278,
      "ղ": 279,
      "մ": 280,
      "յ": 281,
      "ն": 282,
      "ո": 283,
      "ջ": 284,
      "ս": 285,
      "վ": 286,
      "ְ": 287,
      "ֲ": 288,
      "ִ": 289,
      "ֵ": 290,
      "ַ": 291,
      "ָ": 292,
      "ֹ": 293,
      "ּ": 294,
      "ׁ": 295,
      "א": 296,
      "ב": 297,
      "ג": 298,
      "ד": 299,
      "ה": 300,
      "ו": 301,
      "ז": 302,
      "ח": 303,
      "ט": 304,
      "י": 305,
      "כ": 306,
      "ל": 307,
      "ם": 308,
      "מ": 309,
      "ן": 310,
      "נ": 311,
      "ע": 312,
      "פ": 313,
      "צ": 314,
      "ק": 315,
      "ר": 316,
      "ש": 317,
      "ת": 318,
      "װ": 319,
      "ء": 320,
      "آ": 321,
      "أ": 322,
      "ؤ": 323,
      "إ": 324,
      "ئ": 325,
      "ا": 326,
      "ب": 327,
      "ة": 328,
      "ت": 329,
      "ث": 330,
      "ج": 331,
      "ح": 332,
      "خ": 333,
      "د": 334,
      "ذ": 335,
      "ر": 336,
      "ز": 337,
      "س": 338,
      "ش": 339,
      "ص": 340,
      "ض": 341,
      "ط": 342,
      "ع": 343,
      "غ": 344,
      "ـ": 345,
      "ف": 346,
      "ق": 347,
      "ك": 348,
      "ل": 349,
      "م": 350,
      "ن": 351,
      "ه": 352,
      "و": 353,
      "ى": 354,
      "ي": 355,
      "َ": 356,
      "ُ": 357,
      "ِ": 358,
      "ّ": 359,
      "ْ": 360,
      "ٱ": 361,
      "پ": 362,
      "ډ": 363,
      "ښ": 364,
      "ڤ": 365,
      "ک": 366,
      "گ": 367,
      "ہ": 368,
      "ی": 369,
      "ے": 370,
      "ं": 371,
      "आ": 372,
      "क": 373,
      "ग": 374,
      "च": 375,
      "ज": 376,
      "ठ": 377,
      "त": 378,
      "द": 379,
      "ध": 380,
      "न": 381,
      "प": 382,
      "य": 383,
      "र": 384,
      "ल": 385,
      "व": 386,
      "श": 387,
      "ष": 388,
      "स": 389,
      "ह": 390,
      "ा": 391,
      "ि": 392,
      "ी": 393,
      "े": 394,
      "ै": 395,
      "्": 396,
      "ছ": 397,
      "ট": 398,
      "ঠ": 399,
      "র": 400,
      "ল": 401,
      "স": 402,
      "া": 403,
      "ি": 404,
      "ে": 405,
      "ก": 406,
      "ข": 407,
      "ค": 408,
      "ง": 409,
      "จ": 410,
      "ฉ": 411,
      "ช": 412,
      "ซ": 413,
      "ญ": 414,
      "ฎ": 415,
      "ฐ": 416,
      "ฑ": 417,
      "ฒ": 418,
      "ณ": 419,
      "ด": 420,
      "ต": 421,
      "ถ": 422,
      "ท": 423,
      "ธ": 424,
      "น": 425,
      "บ": 426,
      "ป": 427,
      "ผ": 428,
      "พ": 429,
      "ฟ": 430,
      "ภ": 431,
      "ม": 432,
      "ย": 433,
      "ร": 434,
      "ฤ": 435,
      "ล": 436,
      "ว": 437,
      "ศ": 438,
      "ษ": 439,
      "ส": 440,
      "ห": 441,
      "อ": 442,
      "ะ": 443,
      "ั": 444,
      "า": 445,
      "ำ": 446,
      "ิ": 447,
      "ี": 448,
      "ื": 449,
      "ุ": 450,
      "ู": 451,
      "เ": 452,
      "แ": 453,
      "โ": 454,
      "ไ": 455,
      "็": 456,
      "่": 457,
      "้": 458,
      "๊": 459,
      "์": 460,
      "က": 461,
      "ခ": 462,
      "င": 463,
      "စ": 464,
      "ဇ": 465,
      "ဋ": 466,
      "တ": 467,
      "ထ": 468,
      "ဒ": 469,
      "ဓ": 470,
      "န": 471,
      "ပ": 472,
      "ဘ": 473,
      "မ": 474,
      "ယ": 475,
      "ရ": 476,
      "သ": 477,
      "အ": 478,
      "ါ": 479,
      "ာ": 480,
      "ိ": 481,
      "ီ": 482,
      "ု": 483,
      "ေ": 484,
      "း": 485,
      "္": 486,
      "်": 487,
      "ျ": 488,
      "ြ": 489,
      "ွ": 490,
      "၀": 491,
      "၁": 492,
      "၅": 493,
      "၆": 494,
      "၇": 495,
      "၉": 496,
      "ა": 497,
      "ბ": 498,
      "გ": 499,
      "ე": 500,
      "ი": 501,
      "ნ": 502,
      "ო": 503,
      "რ": 504,
      "ს": 505,
      "ფ": 506,
      "შ": 507,
      "ᜆ": 508,
      "ᜇ": 509,
      "ᜈ": 510,
      "ᜓ": 511,
      "᜔": 512,
      "ក": 513,
      "ខ": 514,
      "ង": 515,
      "ច": 516,
      "ត": 517,
      "ថ": 518,
      "ទ": 519,
      "ន": 520,
      "ម": 521,
      "រ": 522,
      "ល": 523,
      "វ": 524,
      "ស": 525,
      "ា": 526,
      "ិ": 527,
      "ី": 528,
      "ូ": 529,
      "ើ": 530,
      "ែ": 531,
      "់": 532,
      "្": 533,
      "១": 534,
      "ḍ": 535,
      "ḗ": 536,
      "ḥ": 537,
      "ḫ": 538,
      "ṛ": 539,
      "ṣ": 540,
      "ṭ": 541,
      "ạ": 542,
      "ả": 543,
      "ấ": 544,
      "ầ": 545,
      "ẩ": 546,
      "ậ": 547,
      "ắ": 548,
      "ằ": 549,
      "ẵ": 550,
      "ặ": 551,
      "ẹ": 552,
      "ẻ": 553,
      "ế": 554,
      "ề": 555,
      "ể": 556,
      "ễ": 557,
      "ệ": 558,
      "ị": 559,
      "ọ": 560,
      "ố": 561,
      "ồ": 562,
      "ổ": 563,
      "ỗ": 564,
      "ộ": 565,
      "ớ": 566,
      "ờ": 567,
      "ở": 568,
      "ủ": 569,
      "ứ": 570,
      "ừ": 571,
      "ữ": 572,
      "ự": 573,
      "ỳ": 574,
      "ỷ": 575,
      "ỹ": 576,
      "ἀ": 577,
      "ἡ": 578,
      "ἥ": 579,
      "ἰ": 580,
      "ἱ": 581,
      "ὀ": 582,
      "ὄ": 583,
      "ὰ": 584,
      "ῆ": 585,
      "ῖ": 586,
      "ῦ": 587,
      "​": 588,
      "‌": 589,
      "‍": 590,
      "‎": 591,
      "‐": 592,
      "‑": 593,
      "–": 594,
      "—": 595,
      "―": 596,
      "‘": 597,
      "’": 598,
      "‚": 599,
      "“": 600,
      "”": 601,
      "†": 602,
      "•": 603,
      "…": 604,
      "‭": 605,
      "‰": 606,
      "′": 607,
      "″": 608,
      "‹": 609,
      "›": 610,
      "※": 611,
      "⁄": 612,
      "⁡": 613,
      "₣": 614,
      "₩": 615,
      "€": 616,
      "₸": 617,
      "₹": 618,
      "ℑ": 619,
      "ℓ": 620,
      "ℜ": 621,
      "℞": 622,
      "™": 623,
      "⅓": 624,
      "⅔": 625,
      "ⅱ": 626,
      "←": 627,
      "↑": 628,
      "→": 629,
      "↔": 630,
      "↦": 631,
      "↽": 632,
      "⇀": 633,
      "⇌": 634,
      "⇧": 635,
      "∀": 636,
      "∂": 637,
      "∅": 638,
      "∆": 639,
      "∇": 640,
      "∈": 641,
      "∑": 642,
      "−": 643,
      "∗": 644,
      "∘": 645,
      "√": 646,
      "∞": 647,
      "∣": 648,
      "∤": 649,
      "∥": 650,
      "∧": 651,
      "∨": 652,
      "∩": 653,
      "∫": 654,
      "≅": 655,
      "≈": 656,
      "≠": 657,
      "≡": 658,
      "≤": 659,
      "≥": 660,
      "⊆": 661,
      "⊊": 662,
      "⊙": 663,
      "⋅": 664,
      "⋯": 665,
      "─": 666,
      "■": 667,
      "△": 668,
      "●": 669,
      "☉": 670,
      "♗": 671,
      "♝": 672,
      "♠": 673,
      "♥": 674,
      "♪": 675,
      "♫": 676,
      "♬": 677,
      "♭": 678,
      "♮": 679,
      "♯": 680,
      "❤": 681,
      "⟨": 682,
      "⟩": 683,
      "⸸": 684,
      "、": 685,
      "々": 686,
      "《": 687,
      "》": 688,
      "ぁ": 689,
      "あ": 690,
      "い": 691,
      "う": 692,
      "ぇ": 693,
      "え": 694,
      "お": 695,
      "か": 696,
      "が": 697,
      "き": 698,
      "ぎ": 699,
      "く": 700,
      "け": 701,
      "げ": 702,
      "こ": 703,
      "ご": 704,
      "さ": 705,
      "し": 706,
      "じ": 707,
      "す": 708,
      "せ": 709,
      "ぜ": 710,
      "そ": 711,
      "た": 712,
      "だ": 713,
      "ち": 714,
      "っ": 715,
      "つ": 716,
      "て": 717,
      "で": 718,
      "と": 719,
      "ど": 720,
      "な": 721,
      "に": 722,
      "ぬ": 723,
      "ね": 724,
      "の": 725,
      "は": 726,
      "ば": 727,
      "ぱ": 728,
      "ひ": 729,
      "び": 730,
      "ぶ": 731,
      "へ": 732,
      "ぼ": 733,
      "ま": 734,
      "み": 735,
      "め": 736,
      "も": 737,
      "ゃ": 738,
      "ょ": 739,
      "よ": 740,
      "ら": 741,
      "り": 742,
      "る": 743,
      "れ": 744,
      "ろ": 745,
      "わ": 746,
      "を": 747,
      "ん": 748,
      "ァ": 749,
      "ア": 750,
      "ィ": 751,
      "イ": 752,
      "ウ": 753,
      "ェ": 754,
      "エ": 755,
      "ォ": 756,
      "オ": 757,
      "カ": 758,
      "ガ": 759,
      "キ": 760,
      "ギ": 761,
      "ク": 762,
      "グ": 763,
      "ケ": 764,
      "ゲ": 765,
      "コ": 766,
      "ゴ": 767,
      "サ": 768,
      "ザ": 769,
      "シ": 770,
      "ジ": 771,
      "ス": 772,
      "ズ": 773,
      "セ": 774,
      "ゼ": 775,
      "ソ": 776,
      "タ": 777,
      "ダ": 778,
      "チ": 779,
      "ッ": 780,
      "ツ": 781,
      "テ": 782,
      "デ": 783,
      "ト": 784,
      "ド": 785,
      "ニ": 786,
      "ヌ": 787,
      "ネ": 788,
      "ノ": 789,
      "ハ": 790,
      "バ": 791,
      "パ": 792,
      "ヒ": 793,
      "ビ": 794,
      "フ": 795,
      "ブ": 796,
      "プ": 797,
      "ヘ": 798,
      "ベ": 799,
      "ホ": 800,
      "ボ": 801,
      "ポ": 802,
      "マ": 803,
      "ミ": 804,
      "ム": 805,
      "メ": 806,
      "モ": 807,
      "ャ": 808,
      "ヤ": 809,
      "ュ": 810,
      "ユ": 811,
      "ョ": 812,
      "ヨ": 813,
      "ラ": 814,
      "リ": 815,
      "ル": 816,
      "レ": 817,
      "ロ": 818,
      "ン": 819,
      "ヴ": 820,
      "ヶ": 821,
      "・": 822,
      "ー": 823,
      "ㅐ": 824,
      "ㅑ": 825,
      "ㅕ": 826,
      "一": 827,
      "丁": 828,
      "七": 829,
      "丈": 830,
      "三": 831,
      "上": 832,
      "下": 833,
      "不": 834,
      "与": 835,
      "世": 836,
      "丞": 837,
      "中": 838,
      "丸": 839,
      "乃": 840,
      "久": 841,
      "之": 842,
      "乐": 843,
      "乔": 844,
      "九": 845,
      "也": 846,
      "习": 847,
      "乱": 848,
      "予": 849,
      "争": 850,
      "事": 851,
      "二": 852,
      "五": 853,
      "井": 854,
      "亜": 855,
      "亡": 856,
      "京": 857,
      "亮": 858,
      "人": 859,
      "仁": 860,
      "今": 861,
      "介": 862,
      "他": 863,
      "付": 864,
      "仙": 865,
      "代": 866,
      "令": 867,
      "仮": 868,
      "件": 869,
      "份": 870,
      "伊": 871,
      "伐": 872,
      "会": 873,
      "伝": 874,
      "伸": 875,
      "佐": 876,
      "体": 877,
      "何": 878,
      "你": 879,
      "佩": 880,
      "佳": 881,
      "使": 882,
      "侍": 883,
      "侯": 884,
      "俊": 885,
      "保": 886,
      "俞": 887,
      "信": 888,
      "倉": 889,
      "倭": 890,
      "健": 891,
      "備": 892,
      "傷": 893,
      "像": 894,
      "僕": 895,
      "元": 896,
      "兄": 897,
      "先": 898,
      "光": 899,
      "克": 900,
      "兔": 901,
      "党": 902,
      "八": 903,
      "公": 904,
      "六": 905,
      "共": 906,
      "兴": 907,
      "兵": 908,
      "其": 909,
      "典": 910,
      "内": 911,
      "再": 912,
      "写": 913,
      "军": 914,
      "冠": 915,
      "冷": 916,
      "准": 917,
      "凰": 918,
      "出": 919,
      "刀": 920,
      "分": 921,
      "刊": 922,
      "刑": 923,
      "別": 924,
      "利": 925,
      "制": 926,
      "前": 927,
      "剣": 928,
      "副": 929,
      "劉": 930,
      "力": 931,
      "加": 932,
      "助": 933,
      "勁": 934,
      "勇": 935,
      "勋": 936,
      "動": 937,
      "勘": 938,
      "務": 939,
      "勝": 940,
      "勢": 941,
      "勤": 942,
      "化": 943,
      "北": 944,
      "区": 945,
      "區": 946,
      "十": 947,
      "千": 948,
      "半": 949,
      "华": 950,
      "南": 951,
      "博": 952,
      "占": 953,
      "卿": 954,
      "原": 955,
      "參": 956,
      "及": 957,
      "友": 958,
      "反": 959,
      "取": 960,
      "受": 961,
      "变": 962,
      "口": 963,
      "句": 964,
      "可": 965,
      "台": 966,
      "史": 967,
      "右": 968,
      "号": 969,
      "司": 970,
      "吃": 971,
      "合": 972,
      "吉": 973,
      "君": 974,
      "吳": 975,
      "吹": 976,
      "呉": 977,
      "周": 978,
      "味": 979,
      "呼": 980,
      "命": 981,
      "咁": 982,
      "和": 983,
      "咎": 984,
      "咲": 985,
      "哀": 986,
      "哉": 987,
      "哲": 988,
      "唄": 989,
      "唐": 990,
      "唔": 991,
      "唱": 992,
      "啦": 993,
      "善": 994,
      "喜": 995,
      "嘉": 996,
      "噉": 997,
      "噌": 998,
      "器": 999,
      "四": 1000,
      "因": 1001,
      "団": 1002,
      "図": 1003,
      "国": 1004,
      "國": 1005,
      "園": 1006,
      "圖": 1007,
      "團": 1008,
      "土": 1009,
      "在": 1010,
      "地": 1011,
      "场": 1012,
      "均": 1013,
      "坊": 1014,
      "坝": 1015,
      "坡": 1016,
      "垂": 1017,
      "城": 1018,
      "埜": 1019,
      "基": 1020,
      "堂": 1021,
      "報": 1022,
      "場": 1023,
      "塾": 1024,
      "増": 1025,
      "壩": 1026,
      "士": 1027,
      "壹": 1028,
      "夕": 1029,
      "外": 1030,
      "夙": 1031,
      "多": 1032,
      "夜": 1033,
      "夢": 1034,
      "大": 1035,
      "天": 1036,
      "太": 1037,
      "夫": 1038,
      "头": 1039,
      "奄": 1040,
      "奇": 1041,
      "奈": 1042,
      "奉": 1043,
      "奥": 1044,
      "女": 1045,
      "妃": 1046,
      "妖": 1047,
      "妙": 1048,
      "姑": 1049,
      "姫": 1050,
      "娘": 1051,
      "媛": 1052,
      "媞": 1053,
      "子": 1054,
      "字": 1055,
      "孚": 1056,
      "孝": 1057,
      "季": 1058,
      "学": 1059,
      "學": 1060,
      "宇": 1061,
      "守": 1062,
      "安": 1063,
      "宋": 1064,
      "宏": 1065,
      "宗": 1066,
      "宙": 1067,
      "宜": 1068,
      "宝": 1069,
      "実": 1070,
      "客": 1071,
      "宣": 1072,
      "宮": 1073,
      "家": 1074,
      "宿": 1075,
      "密": 1076,
      "寛": 1077,
      "察": 1078,
      "寧": 1079,
      "寫": 1080,
      "寺": 1081,
      "対": 1082,
      "寿": 1083,
      "将": 1084,
      "將": 1085,
      "導": 1086,
      "小": 1087,
      "少": 1088,
      "尔": 1089,
      "尘": 1090,
      "尚": 1091,
      "尾": 1092,
      "居": 1093,
      "屋": 1094,
      "属": 1095,
      "山": 1096,
      "岑": 1097,
      "岛": 1098,
      "岡": 1099,
      "岩": 1100,
      "岬": 1101,
      "岭": 1102,
      "岳": 1103,
      "岸": 1104,
      "峰": 1105,
      "島": 1106,
      "峻": 1107,
      "崎": 1108,
      "崔": 1109,
      "嶋": 1110,
      "巒": 1111,
      "川": 1112,
      "州": 1113,
      "工": 1114,
      "左": 1115,
      "巫": 1116,
      "巴": 1117,
      "巻": 1118,
      "巾": 1119,
      "市": 1120,
      "布": 1121,
      "师": 1122,
      "希": 1123,
      "帝": 1124,
      "師": 1125,
      "帯": 1126,
      "帰": 1127,
      "常": 1128,
      "帽": 1129,
      "幕": 1130,
      "平": 1131,
      "年": 1132,
      "幽": 1133,
      "庁": 1134,
      "広": 1135,
      "庇": 1136,
      "府": 1137,
      "度": 1138,
      "庭": 1139,
      "康": 1140,
      "廃": 1141,
      "建": 1142,
      "开": 1143,
      "弁": 1144,
      "式": 1145,
      "弟": 1146,
      "张": 1147,
      "弥": 1148,
      "彦": 1149,
      "彩": 1150,
      "影": 1151,
      "役": 1152,
      "律": 1153,
      "後": 1154,
      "徐": 1155,
      "徒": 1156,
      "得": 1157,
      "御": 1158,
      "徳": 1159,
      "德": 1160,
      "徹": 1161,
      "徽": 1162,
      "心": 1163,
      "志": 1164,
      "忘": 1165,
      "応": 1166,
      "忠": 1167,
      "忧": 1168,
      "念": 1169,
      "性": 1170,
      "总": 1171,
      "恆": 1172,
      "恋": 1173,
      "恐": 1174,
      "恩": 1175,
      "恺": 1176,
      "情": 1177,
      "惑": 1178,
      "惠": 1179,
      "惧": 1180,
      "惯": 1181,
      "想": 1182,
      "愛": 1183,
      "慶": 1184,
      "慹": 1185,
      "憲": 1186,
      "應": 1187,
      "成": 1188,
      "我": 1189,
      "战": 1190,
      "戦": 1191,
      "戸": 1192,
      "房": 1193,
      "手": 1194,
      "托": 1195,
      "技": 1196,
      "护": 1197,
      "报": 1198,
      "拒": 1199,
      "拓": 1200,
      "拜": 1201,
      "挑": 1202,
      "振": 1203,
      "排": 1204,
      "接": 1205,
      "摩": 1206,
      "撃": 1207,
      "撫": 1208,
      "擂": 1209,
      "支": 1210,
      "政": 1211,
      "教": 1212,
      "敦": 1213,
      "敵": 1214,
      "文": 1215,
      "斎": 1216,
      "斗": 1217,
      "斬": 1218,
      "新": 1219,
      "施": 1220,
      "旅": 1221,
      "旗": 1222,
      "日": 1223,
      "旭": 1224,
      "时": 1225,
      "昇": 1226,
      "明": 1227,
      "星": 1228,
      "映": 1229,
      "春": 1230,
      "時": 1231,
      "晚": 1232,
      "智": 1233,
      "暦": 1234,
      "暨": 1235,
      "暮": 1236,
      "更": 1237,
      "書": 1238,
      "曹": 1239,
      "替": 1240,
      "最": 1241,
      "會": 1242,
      "月": 1243,
      "有": 1244,
      "朋": 1245,
      "望": 1246,
      "期": 1247,
      "木": 1248,
      "本": 1249,
      "札": 1250,
      "机": 1251,
      "杉": 1252,
      "李": 1253,
      "村": 1254,
      "束": 1255,
      "条": 1256,
      "東": 1257,
      "松": 1258,
      "极": 1259,
      "林": 1260,
      "枚": 1261,
      "枝": 1262,
      "校": 1263,
      "株": 1264,
      "栾": 1265,
      "桂": 1266,
      "桐": 1267,
      "桑": 1268,
      "桓": 1269,
      "档": 1270,
      "梓": 1271,
      "棋": 1272,
      "棒": 1273,
      "棣": 1274,
      "森": 1275,
      "棺": 1276,
      "業": 1277,
      "極": 1278,
      "楽": 1279,
      "様": 1280,
      "標": 1281,
      "権": 1282,
      "横": 1283,
      "樹": 1284,
      "橋": 1285,
      "橘": 1286,
      "機": 1287,
      "權": 1288,
      "次": 1289,
      "欢": 1290,
      "正": 1291,
      "武": 1292,
      "死": 1293,
      "歼": 1294,
      "段": 1295,
      "殺": 1296,
      "殿": 1297,
      "毛": 1298,
      "氏": 1299,
      "民": 1300,
      "氢": 1301,
      "水": 1302,
      "永": 1303,
      "汗": 1304,
      "江": 1305,
      "池": 1306,
      "沈": 1307,
      "沖": 1308,
      "沙": 1309,
      "沢": 1310,
      "河": 1311,
      "治": 1312,
      "泉": 1313,
      "法": 1314,
      "波": 1315,
      "泰": 1316,
      "洋": 1317,
      "洗": 1318,
      "洞": 1319,
      "津": 1320,
      "活": 1321,
      "派": 1322,
      "流": 1323,
      "浅": 1324,
      "浜": 1325,
      "浩": 1326,
      "海": 1327,
      "浸": 1328,
      "涙": 1329,
      "涯": 1330,
      "涼": 1331,
      "淑": 1332,
      "深": 1333,
      "混": 1334,
      "清": 1335,
      "渡": 1336,
      "港": 1337,
      "湊": 1338,
      "湖": 1339,
      "湯": 1340,
      "源": 1341,
      "溪": 1342,
      "满": 1343,
      "滩": 1344,
      "演": 1345,
      "漫": 1346,
      "澄": 1347,
      "澤": 1348,
      "濟": 1349,
      "瀬": 1350,
      "灘": 1351,
      "灣": 1352,
      "火": 1353,
      "炭": 1354,
      "热": 1355,
      "無": 1356,
      "焼": 1357,
      "煎": 1358,
      "照": 1359,
      "煮": 1360,
      "熊": 1361,
      "燁": 1362,
      "營": 1363,
      "爆": 1364,
      "爱": 1365,
      "爵": 1366,
      "父": 1367,
      "爾": 1368,
      "版": 1369,
      "牛": 1370,
      "牢": 1371,
      "物": 1372,
      "特": 1373,
      "犭": 1374,
      "狂": 1375,
      "狩": 1376,
      "猫": 1377,
      "猿": 1378,
      "獞": 1379,
      "獨": 1380,
      "玄": 1381,
      "玉": 1382,
      "王": 1383,
      "珈": 1384,
      "珎": 1385,
      "班": 1386,
      "球": 1387,
      "理": 1388,
      "琲": 1389,
      "瑟": 1390,
      "璠": 1391,
      "環": 1392,
      "璽": 1393,
      "瓦": 1394,
      "甘": 1395,
      "甜": 1396,
      "生": 1397,
      "産": 1398,
      "田": 1399,
      "申": 1400,
      "男": 1401,
      "町": 1402,
      "画": 1403,
      "留": 1404,
      "畠": 1405,
      "略": 1406,
      "畫": 1407,
      "畿": 1408,
      "痕": 1409,
      "発": 1410,
      "白": 1411,
      "的": 1412,
      "皇": 1413,
      "皮": 1414,
      "盆": 1415,
      "益": 1416,
      "盖": 1417,
      "盛": 1418,
      "目": 1419,
      "相": 1420,
      "省": 1421,
      "県": 1422,
      "真": 1423,
      "着": 1424,
      "督": 1425,
      "瞬": 1426,
      "矢": 1427,
      "知": 1428,
      "短": 1429,
      "石": 1430,
      "磁": 1431,
      "磨": 1432,
      "社": 1433,
      "祁": 1434,
      "祐": 1435,
      "祝": 1436,
      "神": 1437,
      "祥": 1438,
      "票": 1439,
      "祿": 1440,
      "福": 1441,
      "禛": 1442,
      "秀": 1443,
      "秋": 1444,
      "科": 1445,
      "秘": 1446,
      "税": 1447,
      "種": 1448,
      "稲": 1449,
      "積": 1450,
      "空": 1451,
      "突": 1452,
      "立": 1453,
      "章": 1454,
      "童": 1455,
      "竹": 1456,
      "第": 1457,
      "筑": 1458,
      "策": 1459,
      "箕": 1460,
      "節": 1461,
      "篮": 1462,
      "籍": 1463,
      "粥": 1464,
      "系": 1465,
      "紀": 1466,
      "約": 1467,
      "納": 1468,
      "級": 1469,
      "紛": 1470,
      "素": 1471,
      "索": 1472,
      "紫": 1473,
      "細": 1474,
      "絢": 1475,
      "給": 1476,
      "統": 1477,
      "絵": 1478,
      "經": 1479,
      "継": 1480,
      "綱": 1481,
      "総": 1482,
      "編": 1483,
      "練": 1484,
      "縄": 1485,
      "縦": 1486,
      "繁": 1487,
      "繇": 1488,
      "繍": 1489,
      "織": 1490,
      "繫": 1491,
      "红": 1492,
      "纪": 1493,
      "纯": 1494,
      "绝": 1495,
      "罩": 1496,
      "美": 1497,
      "群": 1498,
      "義": 1499,
      "羽": 1500,
      "習": 1501,
      "翔": 1502,
      "老": 1503,
      "者": 1504,
      "耕": 1505,
      "聖": 1506,
      "聞": 1507,
      "聡": 1508,
      "聯": 1509,
      "職": 1510,
      "肉": 1511,
      "肖": 1512,
      "股": 1513,
      "育": 1514,
      "背": 1515,
      "胡": 1516,
      "能": 1517,
      "膝": 1518,
      "膺": 1519,
      "臣": 1520,
      "臨": 1521,
      "興": 1522,
      "舊": 1523,
      "舞": 1524,
      "航": 1525,
      "船": 1526,
      "艦": 1527,
      "良": 1528,
      "艾": 1529,
      "花": 1530,
      "芳": 1531,
      "芸": 1532,
      "苏": 1533,
      "若": 1534,
      "英": 1535,
      "草": 1536,
      "荒": 1537,
      "莫": 1538,
      "莽": 1539,
      "菅": 1540,
      "菓": 1541,
      "華": 1542,
      "落": 1543,
      "葉": 1544,
      "蒙": 1545,
      "蒟": 1546,
      "蒲": 1547,
      "蒻": 1548,
      "蓋": 1549,
      "蔽": 1550,
      "薬": 1551,
      "薯": 1552,
      "藤": 1553,
      "虎": 1554,
      "處": 1555,
      "號": 1556,
      "虾": 1557,
      "血": 1558,
      "行": 1559,
      "術": 1560,
      "街": 1561,
      "衛": 1562,
      "衝": 1563,
      "衫": 1564,
      "袁": 1565,
      "裁": 1566,
      "装": 1567,
      "裕": 1568,
      "補": 1569,
      "裳": 1570,
      "製": 1571,
      "西": 1572,
      "要": 1573,
      "見": 1574,
      "親": 1575,
      "角": 1576,
      "言": 1577,
      "託": 1578,
      "記": 1579,
      "訪": 1580,
      "詩": 1581,
      "話": 1582,
      "誉": 1583,
      "誘": 1584,
      "語": 1585,
      "説": 1586,
      "読": 1587,
      "諏": 1588,
      "諡": 1589,
      "護": 1590,
      "语": 1591,
      "谷": 1592,
      "豆": 1593,
      "豐": 1594,
      "貌": 1595,
      "貓": 1596,
      "貝": 1597,
      "貫": 1598,
      "貴": 1599,
      "賀": 1600,
      "賢": 1601,
      "賴": 1602,
      "贴": 1603,
      "赤": 1604,
      "赵": 1605,
      "超": 1606,
      "越": 1607,
      "足": 1608,
      "跡": 1609,
      "路": 1610,
      "踊": 1611,
      "踩": 1612,
      "身": 1613,
      "軍": 1614,
      "軒": 1615,
      "載": 1616,
      "輔": 1617,
      "輝": 1618,
      "輩": 1619,
      "轅": 1620,
      "软": 1621,
      "载": 1622,
      "辦": 1623,
      "边": 1624,
      "辻": 1625,
      "込": 1626,
      "辿": 1627,
      "近": 1628,
      "迷": 1629,
      "追": 1630,
      "造": 1631,
      "連": 1632,
      "週": 1633,
      "進": 1634,
      "遊": 1635,
      "運": 1636,
      "道": 1637,
      "遠": 1638,
      "選": 1639,
      "遺": 1640,
      "避": 1641,
      "還": 1642,
      "邊": 1643,
      "邑": 1644,
      "那": 1645,
      "邪": 1646,
      "郁": 1647,
      "郎": 1648,
      "郗": 1649,
      "部": 1650,
      "郭": 1651,
      "都": 1652,
      "配": 1653,
      "里": 1654,
      "重": 1655,
      "野": 1656,
      "金": 1657,
      "釣": 1658,
      "鈞": 1659,
      "鈴": 1660,
      "鉄": 1661,
      "鉢": 1662,
      "銀": 1663,
      "銃": 1664,
      "鋼": 1665,
      "錬": 1666,
      "鍛": 1667,
      "鍾": 1668,
      "鎮": 1669,
      "钦": 1670,
      "钰": 1671,
      "锋": 1672,
      "長": 1673,
      "門": 1674,
      "開": 1675,
      "関": 1676,
      "閩": 1677,
      "门": 1678,
      "阪": 1679,
      "阿": 1680,
      "陁": 1681,
      "限": 1682,
      "院": 1683,
      "陰": 1684,
      "陵": 1685,
      "陸": 1686,
      "陽": 1687,
      "隊": 1688,
      "際": 1689,
      "雄": 1690,
      "雅": 1691,
      "集": 1692,
      "雪": 1693,
      "雲": 1694,
      "電": 1695,
      "霊": 1696,
      "霖": 1697,
      "青": 1698,
      "靖": 1699,
      "面": 1700,
      "革": 1701,
      "鞑": 1702,
      "韓": 1703,
      "音": 1704,
      "韶": 1705,
      "頂": 1706,
      "順": 1707,
      "領": 1708,
      "頭": 1709,
      "風": 1710,
      "飛": 1711,
      "飞": 1712,
      "食": 1713,
      "飴": 1714,
      "餅": 1715,
      "館": 1716,
      "馆": 1717,
      "香": 1718,
      "馬": 1719,
      "馮": 1720,
      "駅": 1721,
      "駐": 1722,
      "騎": 1723,
      "马": 1724,
      "體": 1725,
      "高": 1726,
      "髪": 1727,
      "魔": 1728,
      "鱼": 1729,
      "鳥": 1730,
      "鳳": 1731,
      "鴎": 1732,
      "鴨": 1733,
      "鴻": 1734,
      "鶴": 1735,
      "鹤": 1736,
      "鹰": 1737,
      "麻": 1738,
      "黄": 1739,
      "黑": 1740,
      "黒": 1741,
      "齋": 1742,
      "龍": 1743,
      "龙": 1744,
      "ꜣ": 1745,
      "ꜥ": 1746,
      "ꠍ": 1747,
      "ꠐ": 1748,
      "ꠟ": 1749,
      "ꠤ": 1750,
      "가": 1751,
      "강": 1752,
      "개": 1753,
      "거": 1754,
      "건": 1755,
      "검": 1756,
      "것": 1757,
      "게": 1758,
      "경": 1759,
      "고": 1760,
      "곱": 1761,
      "공": 1762,
      "곶": 1763,
      "과": 1764,
      "관": 1765,
      "교": 1766,
      "구": 1767,
      "국": 1768,
      "군": 1769,
      "궁": 1770,
      "권": 1771,
      "규": 1772,
      "그": 1773,
      "금": 1774,
      "기": 1775,
      "김": 1776,
      "꽃": 1777,
      "나": 1778,
      "날": 1779,
      "남": 1780,
      "내": 1781,
      "냐": 1782,
      "너": 1783,
      "넌": 1784,
      "네": 1785,
      "년": 1786,
      "노": 1787,
      "녹": 1788,
      "눈": 1789,
      "는": 1790,
      "늘": 1791,
      "다": 1792,
      "달": 1793,
      "당": 1794,
      "대": 1795,
      "덕": 1796,
      "데": 1797,
      "도": 1798,
      "동": 1799,
      "두": 1800,
      "듀": 1801,
      "드": 1802,
      "듭": 1803,
      "등": 1804,
      "딘": 1805,
      "땀": 1806,
      "땡": 1807,
      "뛰": 1808,
      "라": 1809,
      "락": 1810,
      "람": 1811,
      "랑": 1812,
      "략": 1813,
      "량": 1814,
      "레": 1815,
      "령": 1816,
      "로": 1817,
      "료": 1818,
      "르": 1819,
      "륵": 1820,
      "를": 1821,
      "릉": 1822,
      "리": 1823,
      "린": 1824,
      "림": 1825,
      "립": 1826,
      "마": 1827,
      "말": 1828,
      "맛": 1829,
      "매": 1830,
      "맨": 1831,
      "먼": 1832,
      "며": 1833,
      "몽": 1834,
      "무": 1835,
      "문": 1836,
      "물": 1837,
      "미": 1838,
      "민": 1839,
      "밀": 1840,
      "바": 1841,
      "박": 1842,
      "밖": 1843,
      "반": 1844,
      "발": 1845,
      "방": 1846,
      "배": 1847,
      "백": 1848,
      "버": 1849,
      "번": 1850,
      "베": 1851,
      "벽": 1852,
      "별": 1853,
      "복": 1854,
      "본": 1855,
      "봉": 1856,
      "부": 1857,
      "불": 1858,
      "뷰": 1859,
      "블": 1860,
      "비": 1861,
      "빼": 1862,
      "사": 1863,
      "산": 1864,
      "삼": 1865,
      "상": 1866,
      "색": 1867,
      "서": 1868,
      "석": 1869,
      "선": 1870,
      "설": 1871,
      "성": 1872,
      "세": 1873,
      "센": 1874,
      "소": 1875,
      "송": 1876,
      "쇼": 1877,
      "수": 1878,
      "숙": 1879,
      "순": 1880,
      "술": 1881,
      "스": 1882,
      "승": 1883,
      "시": 1884,
      "식": 1885,
      "신": 1886,
      "심": 1887,
      "씨": 1888,
      "아": 1889,
      "악": 1890,
      "안": 1891,
      "않": 1892,
      "애": 1893,
      "야": 1894,
      "약": 1895,
      "양": 1896,
      "어": 1897,
      "없": 1898,
      "엌": 1899,
      "에": 1900,
      "엔": 1901,
      "여": 1902,
      "역": 1903,
      "연": 1904,
      "영": 1905,
      "오": 1906,
      "옥": 1907,
      "온": 1908,
      "올": 1909,
      "와": 1910,
      "완": 1911,
      "왕": 1912,
      "요": 1913,
      "용": 1914,
      "우": 1915,
      "운": 1916,
      "울": 1917,
      "웃": 1918,
      "워": 1919,
      "원": 1920,
      "위": 1921,
      "유": 1922,
      "육": 1923,
      "융": 1924,
      "으": 1925,
      "은": 1926,
      "을": 1927,
      "음": 1928,
      "읍": 1929,
      "의": 1930,
      "이": 1931,
      "인": 1932,
      "일": 1933,
      "있": 1934,
      "자": 1935,
      "장": 1936,
      "재": 1937,
      "저": 1938,
      "전": 1939,
      "정": 1940,
      "제": 1941,
      "조": 1942,
      "종": 1943,
      "주": 1944,
      "죽": 1945,
      "지": 1946,
      "직": 1947,
      "진": 1948,
      "집": 1949,
      "차": 1950,
      "창": 1951,
      "처": 1952,
      "천": 1953,
      "첨": 1954,
      "쳐": 1955,
      "초": 1956,
      "촌": 1957,
      "최": 1958,
      "추": 1959,
      "축": 1960,
      "출": 1961,
      "춤": 1962,
      "치": 1963,
      "친": 1964,
      "침": 1965,
      "큰": 1966,
      "타": 1967,
      "태": 1968,
      "터": 1969,
      "테": 1970,
      "템": 1971,
      "토": 1972,
      "트": 1973,
      "티": 1974,
      "파": 1975,
      "팥": 1976,
      "페": 1977,
      "평": 1978,
      "표": 1979,
      "풀": 1980,
      "프": 1981,
      "피": 1982,
      "픽": 1983,
      "하": 1984,
      "학": 1985,
      "한": 1986,
      "행": 1987,
      "향": 1988,
      "허": 1989,
      "현": 1990,
      "혈": 1991,
      "혜": 1992,
      "호": 1993,
      "홍": 1994,
      "화": 1995,
      "환": 1996,
      "활": 1997,
      "회": 1998,
      "후": 1999,
      "훈": 2000,
      "훔": 2001,
      "휴": 2002,
      "희": 2003,
      "ﬁ": 2004,
      "ﬂ": 2005,
      "️": 2006,
      "！": 2007,
      "％": 2008,
      "＆": 2009,
      "（": 2010,
      "）": 2011,
      "，": 2012,
      "／": 2013,
      "１": 2014,
      "６": 2015,
      "＝": 2016,
      "ｘ": 2017,
      "～": 2018,
      "･": 2019,
      "￡": 2020,
      "￥": 2021,
      "�": 2022,
      "𒄑": 2023,
      "𒆠": 2024,
      "𒆵": 2025,
      "th": 2026,
      "in": 2027,
      "os": 2028,
      "the": 2029,
      "an": 2030,
      "eos": 2031,
      "er": 2032,
      "on": 2033,
      "re": 2034,
      "ou": 2035,
      "at": 2036,
      "en": 2037,
      "is": 2038,
      "or": 2039,
      "al": 2040,
      "ed": 2041,
      "to": 2042,
      "es": 2043,
      "ar": 2044,
      "it": 2045,
      "and": 2046,
      "of": 2047,
      "as": 2048,
      "ing": 2049,
      "le": 2050,
      "you": 2051,
      "st": 2052,
      "om": 2053,
      "ic": 2054,
      "ion": 2055,
      "be": 2056,
      "se": 2057,
      "ve": 2058,
      "il": 2059,
      "ch": 2060,
      "ow": 2061,
      "wh": 2062,
      "ent": 2063,
      "me": 2064,
      "he": 2065,
      "ly": 2066,
      "de": 2067,
      "for": 2068,
      "that": 2069,
      "ro": 2070,
      "ct": 2071,
      "we": 2072,
      "ha": 2073,
      "ay": 2074,
      "ver": 2075,
      "ol": 2076,
      "ig": 2077,
      "un": 2078,
      "ce": 2079,
      "ot": 2080,
      "was": 2081,
      "am": 2082,
      "ter": 2083,
      "ir": 2084,
      "id": 2085,
      "us": 2086,
      "im": 2087,
      "ut": 2088,
      "ad": 2089,
      "wi": 2090,
      "ur": 2091,
      "are": 2092,
      "ge": 2093,
      "ab": 2094,
      "li": 2095,
      "with": 2096,
      "ation": 2097,
      "ne": 2098,
      "con": 2099,
      "pe": 2100,
      "tr": 2101,
      "fr": 2102,
      "all": 2103,
      "ke": 2104,
      "ere": 2105,
      "com": 2106,
      "ld": 2107,
      "ll": 2108,
      "this": 2109,
      "so": 2110,
      "su": 2111,
      "te": 2112,
      "op": 2113,
      "ap": 2114,
      "out": 2115,
      "one": 2116,
      "ther": 2117,
      "igh": 2118,
      "now": 2119,
      "go": 2120,
      "ma": 2121,
      "if": 2122,
      "pl": 2123,
      "ill": 2124,
      "pro": 2125,
      "by": 2126,
      "ant": 2127,
      "do": 2128,
      "est": 2129,
      "mo": 2130,
      "ul": 2131,
      "res": 2132,
      "have": 2133,
      "fe": 2134,
      "sh": 2135,
      "oun": 2136,
      "19": 2137,
      "from": 2138,
      "not": 2139,
      "but": 2140,
      "art": 2141,
      "20": 2142,
      "lo": 2143,
      "man": 2144,
      "ate": 2145,
      "ta": 2146,
      "can": 2147,
      "ight": 2148,
      "ust": 2149,
      "ex": 2150,
      "ome": 2151,
      "my": 2152,
      "ag": 2153,
      "per": 2154,
      "our": 2155,
      "wor": 2156,
      "ould": 2157,
      "ri": 2158,
      "they": 2159,
      "gh": 2160,
      "od": 2161,
      "ac": 2162,
      "ist": 2163,
      "ies": 2164,
      "ally": 2165,
      "ment": 2166,
      "act": 2167,
      "au": 2168,
      "ber": 2169,
      "ess": 2170,
      "what": 2171,
      "ity": 2172,
      "qu": 2173,
      "no": 2174,
      "know": 2175,
      "um": 2176,
      "ive": 2177,
      "gr": 2178,
      "di": 2179,
      "she": 2180,
      "thing": 2181,
      "cl": 2182,
      "ok": 2183,
      "your": 2184,
      "her": 2185,
      "der": 2186,
      "some": 2187,
      "there": 2188,
      "ain": 2189,
      "his": 2190,
      "ye": 2191,
      "ie": 2192,
      "end": 2193,
      "ong": 2194,
      "up": 2195,
      "sa": 2196,
      "ough": 2197,
      "pr": 2198,
      "br": 2199,
      "ort": 2200,
      "ast": 2201,
      "were": 2202,
      "ine": 2203,
      "co": 2204,
      "ard": 2205,
      "af": 2206,
      "ti": 2207,
      "em": 2208,
      "ia": 2209,
      "ind": 2210,
      "na": 2211,
      "ich": 2212,
      "ish": 2213,
      "ers": 2214,
      "ound": 2215,
      "ated": 2216,
      "about": 2217,
      "si": 2218,
      "just": 2219,
      "don": 2220,
      "00": 2221,
      "ost": 2222,
      "has": 2223,
      "bo": 2224,
      "way": 2225,
      "like": 2226,
      "ure": 2227,
      "other": 2228,
      "get": 2229,
      "king": 2230,
      "ci": 2231,
      "very": 2232,
      "fo": 2233,
      "had": 2234,
      "who": 2235,
      "sp": 2236,
      "any": 2237,
      "mar": 2238,
      "ous": 2239,
      "gu": 2240,
      "which": 2241,
      "pp": 2242,
      "when": 2243,
      "age": 2244,
      "fir": 2245,
      "how": 2246,
      "part": 2247,
      "ph": 2248,
      "ven": 2249,
      "du": 2250,
      "el": 2251,
      "ian": 2252,
      "ary": 2253,
      "cr": 2254,
      "dis": 2255,
      "ca": 2256,
      "him": 2257,
      "ice": 2258,
      "time": 2259,
      "year": 2260,
      "ink": 2261,
      "ree": 2262,
      "its": 2263,
      "own": 2264,
      "ved": 2265,
      "ose": 2266,
      "new": 2267,
      "first": 2268,
      "here": 2269,
      "day": 2270,
      "tw": 2271,
      "been": 2272,
      "ud": 2273,
      "ace": 2274,
      "ple": 2275,
      "201": 2276,
      "more": 2277,
      "will": 2278,
      "pre": 2279,
      "would": 2280,
      "ions": 2281,
      "cre": 2282,
      "their": 2283,
      "want": 2284,
      "form": 2285,
      "ach": 2286,
      "ty": 2287,
      "them": 2288,
      "fer": 2289,
      "also": 2290,
      "ip": 2291,
      "pres": 2292,
      "ser": 2293,
      "mon": 2294,
      "inter": 2295,
      "well": 2296,
      "la": 2297,
      "ical": 2298,
      "cent": 2299,
      "ans": 2300,
      "ts": 2301,
      "did": 2302,
      "200": 2303,
      "after": 2304,
      "iz": 2305,
      "str": 2306,
      "bl": 2307,
      "right": 2308,
      "over": 2309,
      "peop": 2310,
      "ign": 2311,
      "mber": 2312,
      "ence": 2313,
      "people": 2314,
      "ang": 2315,
      "than": 2316,
      "off": 2317,
      "spe": 2318,
      "able": 2319,
      "ater": 2320,
      "land": 2321,
      "where": 2322,
      "may": 2323,
      "think": 2324,
      "red": 2325,
      "ause": 2326,
      "old": 2327,
      "ren": 2328,
      "two": 2329,
      "cor": 2330,
      "work": 2331,
      "then": 2332,
      "port": 2333,
      "vi": 2334,
      "ak": 2335,
      "ite": 2336,
      "gen": 2337,
      "see": 2338,
      "min": 2339,
      "ble": 2340,
      "low": 2341,
      "ase": 2342,
      "got": 2343,
      "fa": 2344,
      "po": 2345,
      "pos": 2346,
      "most": 2347,
      "ance": 2348,
      "cause": 2349,
      "only": 2350,
      "sy": 2351,
      "coun": 2352,
      "these": 2353,
      "ory": 2354,
      "fore": 2355,
      "bet": 2356,
      "ial": 2357,
      "could": 2358,
      "come": 2359,
      "into": 2360,
      "ction": 2361,
      "ving": 2362,
      "nor": 2363,
      "world": 2364,
      "vel": 2365,
      "int": 2366,
      "ations": 2367,
      "ves": 2368,
      "look": 2369,
      "son": 2370,
      "dr": 2371,
      "col": 2372,
      "itt": 2373,
      "ition": 2374,
      "every": 2375,
      "car": 2376,
      "des": 2377,
      "under": 2378,
      "jo": 2379,
      "sel": 2380,
      "pu": 2381,
      "play": 2382,
      "tur": 2383,
      "pt": 2384,
      "pol": 2385,
      "let": 2386,
      "try": 2387,
      "ep": 2388,
      "comm": 2389,
      "call": 2390,
      "et": 2391,
      "tal": 2392,
      "ile": 2393,
      "because": 2394,
      "thr": 2395,
      "par": 2396,
      "ga": 2397,
      "war": 2398,
      "need": 2399,
      "used": 2400,
      "ry": 2401,
      "bu": 2402,
      "ild": 2403,
      "air": 2404,
      "tain": 2405,
      "fin": 2406,
      "say": 2407,
      "ens": 2408,
      "ict": 2409,
      "ates": 2410,
      "med": 2411,
      "gre": 2412,
      "going": 2413,
      "vis": 2414,
      "though": 2415,
      "ue": 2416,
      "years": 2417,
      "vers": 2418,
      "cess": 2419,
      "cont": 2420,
      "many": 2421,
      "18": 2422,
      "tell": 2423,
      "je": 2424,
      "ra": 2425,
      "fl": 2426,
      "val": 2427,
      "ational": 2428,
      "mu": 2429,
      "ces": 2430,
      "ced": 2431,
      "ited": 2432,
      "ger": 2433,
      "oc": 2434,
      "og": 2435,
      "cur": 2436,
      "ear": 2437,
      "bor": 2438,
      "sou": 2439,
      "aw": 2440,
      "ning": 2441,
      "take": 2442,
      "ever": 2443,
      "incl": 2444,
      "eng": 2445,
      "make": 2446,
      "ire": 2447,
      "ah": 2448,
      "ors": 2449,
      "again": 2450,
      "good": 2451,
      "hu": 2452,
      "uring": 2453,
      "cho": 2454,
      "iss": 2455,
      "lar": 2456,
      "even": 2457,
      "ased": 2458,
      "--": 2459,
      "ince": 2460,
      "long": 2461,
      "reg": 2462,
      "why": 2463,
      "dif": 2464,
      "came": 2465,
      "ually": 2466,
      "ting": 2467,
      "cond": 2468,
      "cal": 2469,
      "ily": 2470,
      "through": 2471,
      "comp": 2472,
      "ys": 2473,
      "self": 2474,
      "vie": 2475,
      "down": 2476,
      "produ": 2477,
      "high": 2478,
      ".\"": 2479,
      "something": 2480,
      "ship": 2481,
      "gan": 2482,
      "national": 2483,
      "sur": 2484,
      "said": 2485,
      "ident": 2486,
      "found": 2487,
      "ide": 2488,
      "ev": 2489,
      "life": 2490,
      "bod": 2491,
      "use": 2492,
      "av": 2493,
      "les": 2494,
      "such": 2495,
      "really": 2496,
      "ob": 2497,
      "read": 2498,
      "before": 2499,
      "cted": 2500,
      "wr": 2501,
      "amer": 2502,
      "nam": 2503,
      "num": 2504,
      "ele": 2505,
      "hel": 2506,
      "199": 2507,
      "ange": 2508,
      "during": 2509,
      "ef": 2510,
      "main": 2511,
      "publ": 2512,
      "gon": 2513,
      "cap": 2514,
      "should": 2515,
      "ating": 2516,
      "inv": 2517,
      "cle": 2518,
      "tim": 2519,
      "ween": 2520,
      "happ": 2521,
      "rel": 2522,
      "between": 2523,
      "ese": 2524,
      "att": 2525,
      "ath": 2526,
      "sub": 2527,
      "ful": 2528,
      "ms": 2529,
      "cy": 2530,
      "stand": 2531,
      "supp": 2532,
      "never": 2533,
      "three": 2534,
      "does": 2535,
      "kill": 2536,
      "made": 2537,
      "much": 2538,
      "arch": 2539,
      "side": 2540,
      "start": 2541,
      "put": 2542,
      "turn": 2543,
      "cer": 2544,
      "city": 2545,
      "fam": 2546,
      "bro": 2547,
      "litt": 2548,
      "gonna": 2549,
      "stem": 2550,
      "char": 2551,
      "sing": 2552,
      "little": 2553,
      "ital": 2554,
      "ics": 2555,
      "ks": 2556,
      "sol": 2557,
      "those": 2558,
      "10": 2559,
      "sto": 2560,
      "being": 2561,
      "ities": 2562,
      "cial": 2563,
      "olog": 2564,
      "wa": 2565,
      "fol": 2566,
      "number": 2567,
      "ho": 2568,
      "won": 2569,
      "uni": 2570,
      "body": 2571,
      "cord": 2572,
      "ual": 2573,
      "ten": 2574,
      "ific": 2575,
      "gi": 2576,
      "ents": 2577,
      "second": 2578,
      "same": 2579,
      "while": 2580,
      "mal": 2581,
      "find": 2582,
      "includ": 2583,
      "pop": 2584,
      "gener": 2585,
      "tre": 2586,
      "bre": 2587,
      "ative": 2588,
      "ise": 2589,
      "ular": 2590,
      "ted": 2591,
      "tern": 2592,
      "known": 2593,
      "gover": 2594,
      "fil": 2595,
      "oss": 2596,
      "member": 2597,
      "around": 2598,
      "000": 2599,
      "sc": 2600,
      "sm": 2601,
      "still": 2602,
      "name": 2603,
      "differ": 2604,
      "unt": 2605,
      "americ": 2606,
      "last": 2607,
      "mor": 2608,
      "system": 2609,
      "ps": 2610,
      "pow": 2611,
      "lie": 2612,
      "place": 2613,
      "tri": 2614,
      "show": 2615,
      "tow": 2616,
      "mer": 2617,
      "mus": 2618,
      "ste": 2619,
      "too": 2620,
      "ters": 2621,
      "ton": 2622,
      "pri": 2623,
      "head": 2624,
      "tra": 2625,
      "cons": 2626,
      "sim": 2627,
      "ason": 2628,
      "called": 2629,
      "add": 2630,
      "fri": 2631,
      "velop": 2632,
      "wom": 2633,
      "didn": 2634,
      "ft": 2635,
      "set": 2636,
      "develop": 2637,
      "real": 2638,
      "men": 2639,
      "plan": 2640,
      "mi": 2641,
      "ub": 2642,
      "az": 2643,
      "help": 2644,
      "later": 2645,
      "augh": 2646,
      "cour": 2647,
      "ished": 2648,
      "iv": 2649,
      "ious": 2650,
      "15": 2651,
      "mean": 2652,
      "hand": 2653,
      "amp": 2654,
      "south": 2655,
      "fun": 2656,
      "rele": 2657,
      "less": 2658,
      "follow": 2659,
      "since": 2660,
      "fect": 2661,
      "things": 2662,
      "grou": 2663,
      "ments": 2664,
      "ner": 2665,
      "stru": 2666,
      "illion": 2667,
      "times": 2668,
      "great": 2669,
      "hy": 2670,
      "ways": 2671,
      "ask": 2672,
      "give": 2673,
      "both": 2674,
      "spec": 2675,
      "chin": 2676,
      "miss": 2677,
      "ject": 2678,
      "united": 2679,
      "friend": 2680,
      "child": 2681,
      "led": 2682,
      "mil": 2683,
      "xt": 2684,
      "oper": 2685,
      "scho": 2686,
      "govern": 2687,
      "ress": 2688,
      "care": 2689,
      "school": 2690,
      "vid": 2691,
      "sign": 2692,
      "uary": 2693,
      "four": 2694,
      "als": 2695,
      "bur": 2696,
      "dire": 2697,
      "trans": 2698,
      "ore": 2699,
      "north": 2700,
      "sk": 2701,
      "jap": 2702,
      "mat": 2703,
      "leg": 2704,
      "tem": 2705,
      "fact": 2706,
      "ju": 2707,
      "sha": 2708,
      "17": 2709,
      "bus": 2710,
      "public": 2711,
      "power": 2712,
      "japan": 2713,
      "oh": 2714,
      "198": 2715,
      "home": 2716,
      "person": 2717,
      "ank": 2718,
      "eu": 2719,
      "hou": 2720,
      "sul": 2721,
      "lead": 2722,
      "until": 2723,
      "ult": 2724,
      "stud": 2725,
      "another": 2726,
      "point": 2727,
      "night": 2728,
      "serv": 2729,
      "different": 2730,
      "ds": 2731,
      "state": 2732,
      "ution": 2733,
      "ze": 2734,
      "gy": 2735,
      "ii": 2736,
      "ash": 2737,
      "states": 2738,
      "bar": 2739,
      "bit": 2740,
      "ann": 2741,
      "194": 2742,
      "peri": 2743,
      "human": 2744,
      "kes": 2745,
      "father": 2746,
      "ures": 2747,
      "del": 2748,
      "har": 2749,
      "ral": 2750,
      "love": 2751,
      "list": 2752,
      "appe": 2753,
      "lea": 2754,
      "thought": 2755,
      "cept": 2756,
      "line": 2757,
      "bi": 2758,
      "dom": 2759,
      "present": 2760,
      "var": 2761,
      "born": 2762,
      "hist": 2763,
      "yes": 2764,
      "government": 2765,
      "each": 2766,
      "water": 2767,
      "bab": 2768,
      "family": 2769,
      "sure": 2770,
      "ins": 2771,
      "open": 2772,
      "gir": 2773,
      "became": 2774,
      "pon": 2775,
      "ings": 2776,
      "must": 2777,
      "light": 2778,
      "run": 2779,
      "order": 2780,
      "cover": 2781,
      "ized": 2782,
      "12": 2783,
      "ists": 2784,
      "gest": 2785,
      "ility": 2786,
      "best": 2787,
      "yeah": 2788,
      "house": 2789,
      "cus": 2790,
      "lot": 2791,
      "minis": 2792,
      "happen": 2793,
      "30": 2794,
      "lan": 2795,
      "comple": 2796,
      "team": 2797,
      "fu": 2798,
      "une": 2799,
      "ards": 2800,
      "offic": 2801,
      "import": 2802,
      "ically": 2803,
      "law": 2804,
      "belie": 2805,
      "kind": 2806,
      "pat": 2807,
      "sever": 2808,
      "ied": 2809,
      "girl": 2810,
      "hi": 2811,
      "indi": 2812,
      "left": 2813,
      "aughter": 2814,
      "ared": 2815,
      "lin": 2816,
      "actually": 2817,
      "ature": 2818,
      "univers": 2819,
      "far": 2820,
      "group": 2821,
      "small": 2822,
      "197": 2823,
      "16": 2824,
      "including": 2825,
      "island": 2826,
      "talk": 2827,
      "however": 2828,
      "commun": 2829,
      "contin": 2830,
      "eas": 2831,
      "big": 2832,
      "euro": 2833,
      "aren": 2834,
      "million": 2835,
      "que": 2836,
      "ctor": 2837,
      "ai": 2838,
      "contro": 2839,
      "against": 2840,
      "roy": 2841,
      "vir": 2842,
      "ken": 2843,
      "por": 2844,
      "hal": 2845,
      "ica": 2846,
      "tech": 2847,
      "dec": 2848,
      "organ": 2849,
      "cri": 2850,
      "feel": 2851,
      "196": 2852,
      "always": 2853,
      "keep": 2854,
      "prom": 2855,
      "vision": 2856,
      "dep": 2857,
      "build": 2858,
      "14": 2859,
      "ury": 2860,
      "afr": 2861,
      "ball": 2862,
      "design": 2863,
      "country": 2864,
      "took": 2865,
      "io": 2866,
      "film": 2867,
      "net": 2868,
      "suc": 2869,
      "away": 2870,
      "sen": 2871,
      "book": 2872,
      "wee": 2873,
      "oney": 2874,
      "orig": 2875,
      "jor": 2876,
      "ered": 2877,
      "ants": 2878,
      "quest": 2879,
      "vol": 2880,
      "loc": 2881,
      "face": 2882,
      "rus": 2883,
      "press": 2884,
      "50": 2885,
      "move": 2886,
      "rest": 2887,
      "west": 2888,
      "jan": 2889,
      "doing": 2890,
      "better": 2891,
      "game": 2892,
      "polit": 2893,
      "record": 2894,
      "music": 2895,
      "partic": 2896,
      "today": 2897,
      "anything": 2898,
      "town": 2899,
      "okay": 2900,
      "met": 2901,
      "ready": 2902,
      "mother": 2903,
      "viet": 2904,
      "near": 2905,
      "president": 2906,
      "europe": 2907,
      "might": 2908,
      "sci": 2909,
      "next": 2910,
      "ulation": 2911,
      "bed": 2912,
      "song": 2913,
      "star": 2914,
      "ude": 2915,
      "ism": 2916,
      "ages": 2917,
      "early": 2918,
      "origin": 2919,
      "change": 2920,
      "cas": 2921,
      "incre": 2922,
      "bal": 2923,
      "few": 2924,
      "told": 2925,
      "techn": 2926,
      "ug": 2927,
      "mid": 2928,
      "iness": 2929,
      "prote": 2930,
      "gram": 2931,
      "month": 2932,
      "area": 2933,
      "mr": 2934,
      "appro": 2935,
      "prof": 2936,
      "maybe": 2937,
      "wal": 2938,
      "proble": 2939,
      "ung": 2940,
      "gether": 2941,
      "gn": 2942,
      "american": 2943,
      "ned": 2944,
      "together": 2945,
      "colle": 2946,
      "important": 2947,
      "cut": 2948,
      "ons": 2949,
      "ird": 2950,
      "ng": 2951,
      "exam": 2952,
      "pect": 2953,
      "ames": 2954,
      "death": 2955,
      "days": 2956,
      "ris": 2957,
      "ended": 2958,
      "chang": 2959,
      "top": 2960,
      "without": 2961,
      "equ": 2962,
      "mic": 2963,
      "ield": 2964,
      "aug": 2965,
      "large": 2966,
      "sal": 2967,
      "several": 2968,
      "common": 2969,
      "11": 2970,
      "along": 2971,
      "thern": 2972,
      "vide": 2973,
      "support": 2974,
      "allow": 2975,
      "major": 2976,
      "ade": 2977,
      "vent": 2978,
      "coming": 2979,
      "everything": 2980,
      "tit": 2981,
      "god": 2982,
      "pa": 2983,
      "search": 2984,
      "university": 2985,
      "stu": 2986,
      "return": 2987,
      "ology": 2988,
      "five": 2989,
      "ought": 2990,
      "view": 2991,
      "app": 2992,
      "remain": 2993,
      "nothing": 2994,
      "cell": 2995,
      "ately": 2996,
      "company": 2997,
      "den": 2998,
      "rad": 2999,
      "uc": 3000,
      "respon": 3001,
      "inst": 3002,
      "kid": 3003,
      "grap": 3004,
      "mas": 3005,
      "ones": 3006,
      "resul": 3007,
      "iting": 3008,
      "based": 3009,
      "went": 3010,
      "century": 3011,
      "ban": 3012,
      "ute": 3013,
      "mom": 3014,
      "rom": 3015,
      "released": 3016,
      "international": 3017,
      "success": 3018,
      "sw": 3019,
      "ium": 3020,
      "bas": 3021,
      "live": 3022,
      "iter": 3023,
      "lim": 3024,
      "ised": 3025,
      "ff": 3026,
      "cu": 3027,
      "ional": 3028,
      "money": 3029,
      "expl": 3030,
      "win": 3031,
      "brit": 3032,
      "east": 3033,
      "consid": 3034,
      "species": 3035,
      "ric": 3036,
      "sor": 3037,
      "13": 3038,
      "women": 3039,
      "ness": 3040,
      "began": 3041,
      "using": 3042,
      "beg": 3043,
      "vo": 3044,
      "business": 3045,
      "pal": 3046,
      "requ": 3047,
      "sible": 3048,
      "march": 3049,
      "done": 3050,
      "saw": 3051,
      "doesn": 3052,
      "depend": 3053,
      "once": 3054,
      "within": 3055,
      "ae": 3056,
      "wanted": 3057,
      "general": 3058,
      "dy": 3059,
      "test": 3060,
      "che": 3061,
      "econ": 3062,
      "band": 3063,
      "lish": 3064,
      "plac": 3065,
      "party": 3066,
      "tro": 3067,
      "econom": 3068,
      "six": 3069,
      "octo": 3070,
      "room": 3071,
      "guy": 3072,
      "hour": 3073,
      "october": 3074,
      "often": 3075,
      "rench": 3076,
      "langu": 3077,
      "aim": 3078,
      "hard": 3079,
      "ices": 3080,
      "rece": 3081,
      "sep": 3082,
      "august": 3083,
      "lood": 3084,
      "batt": 3085,
      "june": 3086,
      "please": 3087,
      "following": 3088,
      "brother": 3089,
      "children": 3090,
      "sit": 3091,
      "army": 3092,
      "foot": 3093,
      "free": 3094,
      "ail": 3095,
      "tember": 3096,
      "clear": 3097,
      "interest": 3098,
      "ined": 3099,
      "hold": 3100,
      "stay": 3101,
      "pur": 3102,
      "dest": 3103,
      "september": 3104,
      "july": 3105,
      "uk": 3106,
      "alth": 3107,
      "ben": 3108,
      "bum": 3109,
      "understand": 3110,
      "believe": 3111,
      "row": 3112,
      "ata": 3113,
      "train": 3114,
      "formation": 3115,
      "marri": 3116,
      "ived": 3117,
      "dist": 3118,
      "sum": 3119,
      "died": 3120,
      "control": 3121,
      "hor": 3122,
      "report": 3123,
      "become": 3124,
      "dece": 3125,
      "appear": 3126,
      "elect": 3127,
      "bad": 3128,
      "level": 3129,
      "french": 3130,
      "season": 3131,
      "ril": 3132,
      "story": 3133,
      "bel": 3134,
      "dro": 3135,
      "effect": 3136,
      "meet": 3137,
      "started": 3138,
      "process": 3139,
      "leave": 3140,
      "river": 3141,
      "curren": 3142,
      "tribut": 3143,
      "program": 3144,
      "club": 3145,
      "ural": 3146,
      "milit": 3147,
      "late": 3148,
      "enough": 3149,
      "case": 3150,
      "mind": 3151,
      "vil": 3152,
      "fi": 3153,
      "fight": 3154,
      "action": 3155,
      "nat": 3156,
      "seen": 3157,
      "trying": 3158,
      "april": 3159,
      "fur": 3160,
      "population": 3161,
      "half": 3162,
      "195": 3163,
      "grow": 3164,
      "field": 3165,
      "tom": 3166,
      "ago": 3167,
      "fle": 3168,
      "gl": 3169,
      "ron": 3170,
      "stop": 3171,
      "fic": 3172,
      "cup": 3173,
      "hon": 3174,
      "25": 3175,
      "aut": 3176,
      "anim": 3177,
      "series": 3178,
      "earth": 3179,
      "single": 3180,
      "fort": 3181,
      "ward": 3182,
      "having": 3183,
      "cast": 3184,
      "ison": 3185,
      "estab": 3186,
      "making": 3187,
      "uh": 3188,
      "treat": 3189,
      "japanese": 3190,
      "cul": 3191,
      "december": 3192,
      "da": 3193,
      "thor": 3194,
      "january": 3195,
      "hear": 3196,
      "ator": 3197,
      "force": 3198,
      "sun": 3199,
      "pen": 3200,
      "german": 3201,
      "wind": 3202,
      "ord": 3203,
      "tries": 3204,
      "flu": 3205,
      "lear": 3206,
      "trad": 3207,
      "hol": 3208,
      "album": 3209,
      "someone": 3210,
      "bs": 3211,
      "sent": 3212,
      "reason": 3213,
      "ley": 3214,
      "local": 3215,
      "woman": 3216,
      "continu": 3217,
      "hun": 3218,
      "course": 3219,
      "hey": 3220,
      "ext": 3221,
      "ane": 3222,
      "ague": 3223,
      "aust": 3224,
      "reach": 3225,
      "joh": 3226,
      "sex": 3227,
      "kore": 3228,
      "non": 3229,
      "working": 3230,
      "although": 3231,
      "period": 3232,
      "camp": 3233,
      "young": 3234,
      "ik": 3235,
      "looking": 3236,
      "wes": 3237,
      "ines": 3238,
      "cop": 3239,
      "van": 3240,
      "terr": 3241,
      "bon": 3242,
      "comes": 3243,
      "china": 3244,
      "vill": 3245,
      "nove": 3246,
      "aft": 3247,
      "position": 3248,
      "sis": 3249,
      "tour": 3250,
      "ilt": 3251,
      "accord": 3252,
      "history": 3253,
      "third": 3254,
      "close": 3255,
      "fac": 3256,
      "short": 3257,
      "military": 3258,
      "moun": 3259,
      "phil": 3260,
      "sch": 3261,
      "ont": 3262,
      "formed": 3263,
      "else": 3264,
      "distr": 3265,
      "blood": 3266,
      "boy": 3267,
      "dan": 3268,
      "ither": 3269,
      "dead": 3270,
      "tru": 3271,
      "lost": 3272,
      "gar": 3273,
      "exp": 3274,
      "idea": 3275,
      "fall": 3276,
      "product": 3277,
      "ient": 3278,
      "mis": 3279,
      "ization": 3280,
      "fire": 3281,
      "november": 3282,
      "def": 3283,
      "pret": 3284,
      "example": 3285,
      "issu": 3286,
      "const": 3287,
      "ured": 3288,
      "vious": 3289,
      "pay": 3290,
      "vict": 3291,
      "ize": 3292,
      "ides": 3293,
      "struct": 3294,
      "current": 3295,
      "dar": 3296,
      "ina": 3297,
      "marke": 3298,
      "named": 3299,
      "remember": 3300,
      "wo": 3301,
      "due": 3302,
      "isn": 3303,
      "word": 3304,
      "lab": 3305,
      "pain": 3306,
      "means": 3307,
      "san": 3308,
      "charact": 3309,
      "direct": 3310,
      "key": 3311,
      "ru": 3312,
      "aged": 3313,
      "ene": 3314,
      "break": 3315,
      "laughter": 3316,
      "gun": 3317,
      "already": 3318,
      "gree": 3319,
      "chan": 3320,
      "descri": 3321,
      "0s": 3322,
      "193": 3323,
      "british": 3324,
      "killed": 3325,
      "21": 3326,
      "special": 3327,
      "24": 3328,
      "seem": 3329,
      "social": 3330,
      "whole": 3331,
      "week": 3332,
      "unch": 3333,
      "ality": 3334,
      "space": 3335,
      "john": 3336,
      "lu": 3337,
      "countries": 3338,
      "given": 3339,
      "wife": 3340,
      "cou": 3341,
      "emp": 3342,
      "western": 3343,
      "dam": 3344,
      "squ": 3345,
      "febr": 3346,
      "battle": 3347,
      "february": 3348,
      "bir": 3349,
      "stor": 3350,
      "ially": 3351,
      "heart": 3352,
      "moved": 3353,
      "among": 3354,
      "compe": 3355,
      "event": 3356,
      "sea": 3357,
      "sorry": 3358,
      "model": 3359,
      "built": 3360,
      "according": 3361,
      "least": 3362,
      "typ": 3363,
      "ream": 3364,
      "ians": 3365,
      "central": 3366,
      "mot": 3367,
      "sport": 3368,
      "fig": 3369,
      "league": 3370,
      "include": 3371,
      "road": 3372,
      "food": 3373,
      "tar": 3374,
      "profess": 3375,
      "lat": 3376,
      "ences": 3377,
      "conne": 3378,
      "research": 3379,
      "contain": 3380,
      "sequ": 3381,
      "games": 3382,
      "grand": 3383,
      "works": 3384,
      "yet": 3385,
      "100": 3386,
      "super": 3387,
      "activ": 3388,
      "strong": 3389,
      "dri": 3390,
      "sho": 3391,
      "months": 3392,
      "park": 3393,
      "ats": 3394,
      "round": 3395,
      "guys": 3396,
      "ener": 3397,
      "ability": 3398,
      "plic": 3399,
      "problem": 3400,
      "soon": 3401,
      "tele": 3402,
      "acr": 3403,
      "22": 3404,
      "secre": 3405,
      "educ": 3406,
      "information": 3407,
      "sir": 3408,
      "atic": 3409,
      "health": 3410,
      "video": 3411,
      "deal": 3412,
      "tract": 3413,
      "bot": 3414,
      "sam": 3415,
      "project": 3416,
      "invest": 3417,
      "sound": 3418,
      "ilar": 3419,
      "probab": 3420,
      "craft": 3421,
      "located": 3422,
      "han": 3423,
      "hot": 3424,
      "covered": 3425,
      "language": 3426,
      "ky": 3427,
      "mark": 3428,
      "teach": 3429,
      "happened": 3430,
      "hos": 3431,
      "wide": 3432,
      "die": 3433,
      "claim": 3434,
      "prin": 3435,
      "building": 3436,
      "osed": 3437,
      "wer": 3438,
      "mp": 3439,
      "prov": 3440,
      "moder": 3441,
      "official": 3442,
      "sil": 3443,
      "getting": 3444,
      "former": 3445,
      "term": 3446,
      "command": 3447,
      "fut": 3448,
      "english": 3449,
      "bring": 3450,
      "ships": 3451,
      "gal": 3452,
      "ib": 3453,
      "plo": 3454,
      "indust": 3455,
      "sian": 3456,
      "pped": 3457,
      "chinese": 3458,
      "iety": 3459,
      "wan": 3460,
      "sty": 3461,
      "development": 3462,
      "destroy": 3463,
      "lt": 3464,
      "lon": 3465,
      "2013": 3466,
      "full": 3467,
      "2010": 3468,
      "represent": 3469,
      "ling": 3470,
      "cogn": 3471,
      "type": 3472,
      "either": 3473,
      "sometimes": 3474,
      "posed": 3475,
      "addition": 3476,
      "cing": 3477,
      "production": 3478,
      "similar": 3479,
      "graph": 3480,
      "author": 3481,
      "2011": 3482,
      "region": 3483,
      "utes": 3484,
      "possible": 3485,
      "political": 3486,
      "data": 3487,
      "ying": 3488,
      "final": 3489,
      "ives": 3490,
      "others": 3491,
      "2008": 3492,
      "invol": 3493,
      "held": 3494,
      "job": 3495,
      "2014": 3496,
      "lies": 3497,
      "developed": 3498,
      "inking": 3499,
      "itions": 3500,
      "grad": 3501,
      "wrong": 3502,
      "ox": 3503,
      "ama": 3504,
      "begin": 3505,
      "football": 3506,
      "white": 3507,
      "office": 3508,
      "service": 3509,
      "ler": 3510,
      "gave": 3511,
      "pot": 3512,
      "lad": 3513,
      "2015": 3514,
      "certain": 3515,
      "23": 3516,
      "served": 3517,
      "front": 3518,
      "comb": 3519,
      "ith": 3520,
      "enter": 3521,
      "2007": 3522,
      "wait": 3523,
      "fed": 3524,
      "ier": 3525,
      "ged": 3526,
      "ny": 3527,
      "rich": 3528,
      "refer": 3529,
      "ending": 3530,
      "2006": 3531,
      "stead": 3532,
      "friends": 3533,
      "sour": 3534,
      "phys": 3535,
      "rain": 3536,
      "occur": 3537,
      "minister": 3538,
      "ka": 3539,
      "phone": 3540,
      "ba": 3541,
      "ko": 3542,
      "chr": 3543,
      "ham": 3544,
      "usually": 3545,
      "ney": 3546,
      "taken": 3547,
      "listen": 3548,
      "hit": 3549,
      "yor": 3550,
      "ided": 3551,
      "played": 3552,
      "ency": 3553,
      "2009": 3554,
      "thank": 3555,
      "hope": 3556,
      "bes": 3557,
      "wasn": 3558,
      "popular": 3559,
      "question": 3560,
      "total": 3561,
      "nel": 3562,
      "2012": 3563,
      "knew": 3564,
      "district": 3565,
      "draw": 3566,
      "xim": 3567,
      "ana": 3568,
      "ified": 3569,
      "members": 3570,
      "ped": 3571,
      "heard": 3572,
      "america": 3573,
      "exist": 3574,
      "hours": 3575,
      "probably": 3576,
      "cir": 3577,
      "liam": 3578,
      "pho": 3579,
      "complete": 3580,
      "gold": 3581,
      "arri": 3582,
      "mag": 3583,
      "40": 3584,
      "rul": 3585,
      "prim": 3586,
      "version": 3587,
      "future": 3588,
      "2016": 3589,
      "particular": 3590,
      "26": 3591,
      "cost": 3592,
      "seven": 3593,
      "iled": 3594,
      "vietnam": 3595,
      "wil": 3596,
      "living": 3597,
      "dou": 3598,
      "vor": 3599,
      "arab": 3600,
      "modern": 3601,
      "stree": 3602,
      "further": 3603,
      "28": 3604,
      "gress": 3605,
      "init": 3606,
      "daughter": 3607,
      "gent": 3608,
      "count": 3609,
      "africa": 3610,
      "sia": 3611,
      "dev": 3612,
      "defin": 3613,
      "forces": 3614,
      "energy": 3615,
      "almost": 3616,
      "france": 3617,
      "mur": 3618,
      "ran": 3619,
      "republic": 3620,
      "shot": 3621,
      "omb": 3622,
      "provid": 3623,
      "secret": 3624,
      "hind": 3625,
      "ination": 3626,
      "yourself": 3627,
      "selves": 3628,
      "ground": 3629,
      "capital": 3630,
      "received": 3631,
      "ired": 3632,
      "ale": 3633,
      "safe": 3634,
      "talking": 3635,
      "engine": 3636,
      "mad": 3637,
      "recogn": 3638,
      "award": 3639,
      "dle": 3640,
      "depart": 3641,
      "true": 3642,
      "percent": 3643,
      "speak": 3644,
      "christ": 3645,
      "york": 3646,
      "mand": 3647,
      "29": 3648,
      "mess": 3649,
      "created": 3650,
      "fair": 3651,
      "paren": 3652,
      "range": 3653,
      "wish": 3654,
      "union": 3655,
      "pap": 3656,
      "fre": 3657,
      "mir": 3658,
      "cially": 3659,
      "pan": 3660,
      "independ": 3661,
      "acy": 3662,
      "kingdom": 3663,
      "gas": 3664,
      "experi": 3665,
      "everyone": 3666,
      "post": 3667,
      "acc": 3668,
      "meth": 3669,
      "soviet": 3670,
      "male": 3671,
      "announ": 3672,
      "ming": 3673,
      "largest": 3674,
      "compu": 3675,
      "makes": 3676,
      "exact": 3677,
      "27": 3678,
      "?\"": 3679,
      "concer": 3680,
      "ively": 3681,
      "matter": 3682,
      "considered": 3683,
      "beaut": 3684,
      "adv": 3685,
      "feat": 3686,
      "board": 3687,
      "minutes": 3688,
      "flow": 3689,
      "role": 3690,
      "uses": 3691,
      "histor": 3692,
      "lished": 3693,
      "nal": 3694,
      "station": 3695,
      "whe": 3696,
      "established": 3697,
      "sell": 3698,
      "verse": 3699,
      "center": 3700,
      "morning": 3701,
      "ax": 3702,
      "fran": 3703,
      "asked": 3704,
      "taking": 3705,
      "pract": 3706,
      "glo": 3707,
      "champ": 3708,
      "lled": 3709,
      "proper": 3710,
      "original": 3711,
      "mun": 3712,
      "pie": 3713,
      "chur": 3714,
      "soc": 3715,
      "austral": 3716,
      "pretty": 3717,
      "fish": 3718,
      "mos": 3719,
      "northern": 3720,
      "itten": 3721,
      "published": 3722,
      "wood": 3723,
      "ring": 3724,
      "sib": 3725,
      "intro": 3726,
      "character": 3727,
      "tu": 3728,
      "saying": 3729,
      "ker": 3730,
      "envir": 3731,
      "chem": 3732,
      "says": 3733,
      "various": 3734,
      "placed": 3735,
      "idence": 3736,
      "scre": 3737,
      "hur": 3738,
      "ros": 3739,
      "rid": 3740,
      "ently": 3741,
      "police": 3742,
      "natural": 3743,
      "married": 3744,
      "wel": 3745,
      "areas": 3746,
      "civil": 3747,
      "european": 3748,
      "environ": 3749,
      "ino": 3750,
      "across": 3751,
      "mul": 3752,
      "nu": 3753,
      "instead": 3754,
      "ars": 3755,
      "anyone": 3756,
      "object": 3757,
      "decl": 3758,
      "ches": 3759,
      "coast": 3760,
      "crit": 3761,
      "bul": 3762,
      "outside": 3763,
      "southern": 3764,
      "stat": 3765,
      "middle": 3766,
      "mountain": 3767,
      "aid": 3768,
      "entire": 3769,
      "abo": 3770,
      "cru": 3771,
      "los": 3772,
      "ows": 3773,
      "introdu": 3774,
      "bol": 3775,
      "previous": 3776,
      "mater": 3777,
      "brain": 3778,
      "scient": 3779,
      "news": 3780,
      "worked": 3781,
      "exper": 3782,
      "2017": 3783,
      "offer": 3784,
      "km": 3785,
      "wall": 3786,
      "influ": 3787,
      "itor": 3788,
      "ster": 3789,
      "aircraft": 3790,
      "inside": 3791,
      ",\"": 3792,
      "written": 3793,
      "baby": 3794,
      "ican": 3795,
      "roman": 3796,
      "tor": 3797,
      "imp": 3798,
      "wouldn": 3799,
      "anger": 3800,
      "brid": 3801,
      "revol": 3802,
      "relation": 3803,
      "protect": 3804,
      "past": 3805,
      "tradition": 3806,
      "cat": 3807,
      "gor": 3808,
      "mission": 3809,
      "cil": 3810,
      "lied": 3811,
      "spir": 3812,
      "himself": 3813,
      "technology": 3814,
      "style": 3815,
      "60": 3816,
      "redu": 3817,
      "sle": 3818,
      "ush": 3819,
      "ieved": 3820,
      "forms": 3821,
      "russian": 3822,
      "eastern": 3823,
      "pict": 3824,
      "behind": 3825,
      "ples": 3826,
      "brought": 3827,
      "study": 3828,
      "india": 3829,
      "wear": 3830,
      "lives": 3831,
      "prison": 3832,
      "separ": 3833,
      "geor": 3834,
      "result": 3835,
      "tail": 3836,
      "division": 3837,
      "court": 3838,
      "promot": 3839,
      "arm": 3840,
      "ential": 3841,
      "cult": 3842,
      "myself": 3843,
      "span": 3844,
      "tran": 3845,
      "drug": 3846,
      "islands": 3847,
      "science": 3848,
      "ref": 3849,
      "rather": 3850,
      "economic": 3851,
      "feder": 3852,
      "itive": 3853,
      "dol": 3854,
      "sug": 3855,
      "lying": 3856,
      "tact": 3857,
      "quar": 3858,
      "fully": 3859,
      "ding": 3860,
      "returned": 3861,
      "instit": 3862,
      "village": 3863,
      "hus": 3864,
      "rap": 3865,
      "sof": 3866,
      "alone": 3867,
      "royal": 3868,
      "sus": 3869,
      "ops": 3870,
      "specific": 3871,
      "dig": 3872,
      "happy": 3873,
      "signific": 3874,
      "fast": 3875,
      "impro": 3876,
      "imag": 3877,
      "words": 3878,
      "anti": 3879,
      "guess": 3880,
      "carri": 3881,
      "produced": 3882,
      "cis": 3883,
      "fif": 3884,
      "ki": 3885,
      "wonder": 3886,
      "environment": 3887,
      "2005": 3888,
      "education": 3889,
      "hosp": 3890,
      "ni": 3891,
      "sister": 3892,
      "suggest": 3893,
      "zer": 3894,
      "thre": 3895,
      "meas": 3896,
      "medi": 3897,
      "avail": 3898,
      "church": 3899,
      "bud": 3900,
      "rate": 3901,
      "anal": 3902,
      "systems": 3903,
      "moment": 3904,
      "nice": 3905,
      "thinking": 3906,
      "career": 3907,
      "market": 3908,
      "ked": 3909,
      "constru": 3910,
      "eth": 3911,
      "bill": 3912,
      "compan": 3913,
      "bri": 3914,
      "changed": 3915,
      "situ": 3916,
      "gg": 3917,
      "ends": 3918,
      "player": 3919,
      "conf": 3920,
      "appoint": 3921,
      "wants": 3922,
      "ological": 3923,
      "function": 3924,
      "material": 3925,
      "nav": 3926,
      "couldn": 3927,
      "parents": 3928,
      "hands": 3929,
      "dict": 3930,
      "ible": 3931,
      "sort": 3932,
      "vin": 3933,
      "trust": 3934,
      "eight": 3935,
      "ges": 3936,
      "mach": 3937,
      "master": 3938,
      "tan": 3939,
      "chance": 3940,
      "box": 3941,
      "germany": 3942,
      "priv": 3943,
      "labor": 3944,
      "hospital": 3945,
      "bank": 3946,
      "ya": 3947,
      "asing": 3948,
      "emplo": 3949,
      "jour": 3950,
      "respect": 3951,
      "joined": 3952,
      "ensive": 3953,
      "cam": 3954,
      "accept": 3955,
      "included": 3956,
      "travel": 3957,
      "decis": 3958,
      "particip": 3959,
      "tou": 3960,
      "ties": 3961,
      "plant": 3962,
      "release": 3963,
      "multi": 3964,
      "recent": 3965,
      "attem": 3966,
      "ada": 3967,
      "espe": 3968,
      "individ": 3969,
      "birth": 3970,
      "din": 3971,
      "ues": 3972,
      "secur": 3973,
      "parts": 3974,
      "liter": 3975,
      "va": 3976,
      "quite": 3977,
      "lands": 3978,
      "except": 3979,
      "trade": 3980,
      "dark": 3981,
      "especially": 3982,
      "sett": 3983,
      "dream": 3984,
      "eat": 3985,
      "inc": 3986,
      "upon": 3987,
      "broad": 3988,
      "tic": 3989,
      "ances": 3990,
      "ense": 3991,
      "hood": 3992,
      "kids": 3993,
      "gone": 3994,
      "sat": 3995,
      "whate": 3996,
      "ention": 3997,
      "whatever": 3998,
      "itted": 3999,
      "border": 4000,
      "mit": 4001,
      "haven": 4002,
      "foreign": 4003,
      "looks": 4004,
      "significant": 4005,
      "inte": 4006,
      "stuff": 4007,
      "step": 4008,
      "estim": 4009,
      "television": 4010,
      "bat": 4011,
      "host": 4012,
      "stri": 4013,
      "adminis": 4014,
      "exe": 4015,
      "gets": 4016,
      "street": 4017,
      "announced": 4018,
      "ram": 4019,
      "create": 4020,
      "ering": 4021,
      "peace": 4022,
      "fell": 4023,
      "agree": 4024,
      "girls": 4025,
      "individual": 4026,
      "aking": 4027,
      "eyes": 4028,
      "dad": 4029,
      "ids": 4030,
      "playing": 4031,
      "continued": 4032,
      "za": 4033,
      "takes": 4034,
      "leader": 4035,
      "province": 4036,
      "access": 4037,
      "istic": 4038,
      "administr": 4039,
      "oce": 4040,
      "cannot": 4041,
      "finally": 4042,
      "director": 4043,
      "constit": 4044,
      "retr": 4045,
      "tax": 4046,
      "corpor": 4047,
      "ford": 4048,
      "dog": 4049,
      "ief": 4050,
      "diffic": 4051,
      "thus": 4052,
      "acade": 4053,
      "active": 4054,
      "green": 4055,
      "lines": 4056,
      "iment": 4057,
      "cape": 4058,
      "method": 4059,
      "worth": 4060,
      "cali": 4061,
      "wro": 4062,
      "ceed": 4063,
      "forest": 4064,
      "radio": 4065,
      "exactly": 4066,
      "bc": 4067,
      "nia": 4068,
      "bert": 4069,
      "tv": 4070,
      "save": 4071,
      "shoot": 4072,
      "bay": 4073,
      "hen": 4074,
      "thous": 4075,
      "clim": 4076,
      "longer": 4077,
      "problems": 4078,
      "computer": 4079,
      "available": 4080,
      "base": 4081,
      "ded": 4082,
      "goes": 4083,
      "personal": 4084,
      "decided": 4085,
      "korea": 4086,
      "beginning": 4087,
      "ctive": 4088,
      "media": 4089,
      "college": 4090,
      "iful": 4091,
      "manage": 4092,
      "sl": 4093,
      "log": 4094,
      "described": 4095,
      "thousand": 4096,
      "aur": 4097,
      "inal": 4098,
      "itself": 4099,
      "sense": 4100,
      "training": 4101,
      "jud": 4102,
      "ctions": 4103,
      "husband": 4104,
      "tion": 4105,
      "ising": 4106,
      "needs": 4107,
      "cases": 4108,
      "mill": 4109,
      "2004": 4110,
      "community": 4111,
      "500": 4112,
      "date": 4113,
      "ival": 4114,
      "ls": 4115,
      "display": 4116,
      "throughout": 4117,
      "tonight": 4118,
      "spanish": 4119,
      "security": 4120,
      "80": 4121,
      "cross": 4122,
      "tried": 4123,
      "planet": 4124,
      "reported": 4125,
      "ara": 4126,
      "deli": 4127,
      "answer": 4128,
      "temper": 4129,
      "couple": 4130,
      "oil": 4131,
      "aster": 4132,
      "audi": 4133,
      "discovered": 4134,
      "title": 4135,
      "asia": 4136,
      "operation": 4137,
      "cit": 4138,
      "mig": 4139,
      "py": 4140,
      "launch": 4141,
      "weeks": 4142,
      "cos": 4143,
      "mine": 4144,
      "ond": 4145,
      "viol": 4146,
      "heav": 4147,
      "size": 4148,
      "plane": 4149,
      "photo": 4150,
      "ained": 4151,
      "polic": 4152,
      "wrote": 4153,
      "lor": 4154,
      "vot": 4155,
      "termin": 4156,
      "door": 4157,
      "2000": 4158,
      "serious": 4159,
      "breed": 4160,
      "above": 4161,
      "numbers": 4162,
      "murder": 4163,
      "kh": 4164,
      "debut": 4165,
      "teen": 4166,
      "emper": 4167,
      "tural": 4168,
      "queen": 4169,
      "ior": 4170,
      "mart": 4171,
      "weap": 4172,
      "share": 4173,
      "xic": 4174,
      "council": 4175,
      "wanna": 4176,
      "egy": 4177,
      "ius": 4178,
      "bell": 4179,
      "demo": 4180,
      "ots": 4181,
      "fine": 4182,
      "ji": 4183,
      "earli": 4184,
      "empire": 4185,
      "lou": 4186,
      "manu": 4187,
      "groups": 4188,
      "london": 4189,
      "beautiful": 4190,
      "lay": 4191,
      "theory": 4192,
      "knows": 4193,
      "appeared": 4194,
      "cities": 4195,
      "flo": 4196,
      "ku": 4197,
      "oly": 4198,
      "deep": 4199,
      "summer": 4200,
      "kil": 4201,
      "sold": 4202,
      "rights": 4203,
      "supposed": 4204,
      "lord": 4205,
      "relig": 4206,
      "champion": 4207,
      "ease": 4208,
      "mou": 4209,
      "wash": 4210,
      "shall": 4211,
      "everybody": 4212,
      "morrow": 4213,
      "aign": 4214,
      "dred": 4215,
      "site": 4216,
      "slow": 4217,
      "table": 4218,
      "ery": 4219,
      "ony": 4220,
      "ump": 4221,
      "commer": 4222,
      "sky": 4223,
      "learn": 4224,
      "sleep": 4225,
      "nature": 4226,
      "stage": 4227,
      "express": 4228,
      "desp": 4229,
      "aver": 4230,
      "billion": 4231,
      "nom": 4232,
      "chief": 4233,
      "campaign": 4234,
      "distribut": 4235,
      "bridge": 4236,
      "ame": 4237,
      "nation": 4238,
      "scal": 4239,
      "via": 4240,
      "tomorrow": 4241,
      "ilities": 4242,
      "strate": 4243,
      "cells": 4244,
      "revolution": 4245,
      "argu": 4246,
      "ria": 4247,
      "fest": 4248,
      "psy": 4249,
      "arily": 4250,
      "chi": 4251,
      "society": 4252,
      "sess": 4253,
      "animals": 4254,
      "{\\": 4255,
      "apart": 4256,
      "190": 4257,
      "lam": 4258,
      "running": 4259,
      "global": 4260,
      "retrieved": 4261,
      "prince": 4262,
      "blue": 4263,
      "airport": 4264,
      "ission": 4265,
      "hundred": 4266,
      "\")": 4267,
      "camer": 4268,
      "bey": 4269,
      "neigh": 4270,
      "survi": 4271,
      "captain": 4272,
      "difficult": 4273,
      "amoun": 4274,
      "ager": 4275,
      "approach": 4276,
      "korean": 4277,
      "ocean": 4278,
      "lic": 4279,
      "ov": 4280,
      "polish": 4281,
      "changes": 4282,
      "ators": 4283,
      "haps": 4284,
      "antic": 4285,
      "moving": 4286,
      "spr": 4287,
      "istan": 4288,
      "2018": 4289,
      "flight": 4290,
      "condu": 4291,
      "perhaps": 4292,
      "higher": 4293,
      "prime": 4294,
      "simp": 4295,
      "trou": 4296,
      "complex": 4297,
      "touch": 4298,
      "stra": 4299,
      "forman": 4300,
      "suf": 4301,
      "emer": 4302,
      "legal": 4303,
      "hom": 4304,
      "mm": 4305,
      "easy": 4306,
      "swe": 4307,
      "arts": 4308,
      "join": 4309,
      "commit": 4310,
      "source": 4311,
      "chall": 4312,
      "doctor": 4313,
      "gaz": 4314,
      "truth": 4315,
      "card": 4316,
      "rup": 4317,
      "code": 4318,
      "sym": 4319,
      "muse": 4320,
      "founded": 4321,
      "eventually": 4322,
      "link": 4323,
      "text": 4324,
      "medic": 4325,
      "risk": 4326,
      "department": 4327,
      "transport": 4328,
      "ray": 4329,
      "signed": 4330,
      "nar": 4331,
      "mob": 4332,
      "performan": 4333,
      "crim": 4334,
      "services": 4335,
      "allowed": 4336,
      "emperor": 4337,
      "dete": 4338,
      "feature": 4339,
      "clean": 4340,
      "related": 4341,
      "transfer": 4342,
      "walk": 4343,
      "whether": 4344,
      "2001": 4345,
      "simple": 4346,
      "private": 4347,
      "zy": 4348,
      "anci": 4349,
      "braz": 4350,
      "itting": 4351,
      "surface": 4352,
      "consider": 4353,
      "ns": 4354,
      "pac": 4355,
      "wed": 4356,
      "gotta": 4357,
      "domin": 4358,
      "communic": 4359,
      "involved": 4360,
      "culture": 4361,
      "oid": 4362,
      "tex": 4363,
      "focus": 4364,
      "currently": 4365,
      "figure": 4366,
      "sco": 4367,
      "writing": 4368,
      "despite": 4369,
      "museum": 4370,
      "atory": 4371,
      "shar": 4372,
      "visit": 4373,
      "value": 4374,
      "russia": 4375,
      "ime": 4376,
      "nic": 4377,
      "evol": 4378,
      "famil": 4379,
      "followed": 4380,
      "fix": 4381,
      "attempt": 4382,
      "enced": 4383,
      "ali": 4384,
      "liber": 4385,
      "pected": 4386,
      "perfect": 4387,
      "poland": 4388,
      "needed": 4389,
      "occup": 4390,
      "approxim": 4391,
      "princi": 4392,
      "exc": 4393,
      "capt": 4394,
      "industri": 4395,
      "books": 4396,
      "frequ": 4397,
      "poor": 4398,
      "turned": 4399,
      "studies": 4400,
      "movement": 4401,
      "studi": 4402,
      "70": 4403,
      "cold": 4404,
      "chair": 4405,
      "somebody": 4406,
      "2003": 4407,
      "paris": 4408,
      "bour": 4409,
      "spent": 4410,
      "reached": 4411,
      "tered": 4412,
      "buy": 4413,
      "dollar": 4414,
      "execut": 4415,
      "expect": 4416,
      "brand": 4417,
      "disease": 4418,
      "syn": 4419,
      "evidence": 4420,
      "giving": 4421,
      "african": 4422,
      "rou": 4423,
      "web": 4424,
      "habit": 4425,
      "contact": 4426,
      "frank": 4427,
      "clos": 4428,
      "anymore": 4429,
      "color": 4430,
      "medical": 4431,
      "successful": 4432,
      "australia": 4433,
      "construction": 4434,
      "sed": 4435,
      "sele": 4436,
      "growth": 4437,
      "threat": 4438,
      "speed": 4439,
      "ancient": 4440,
      "brazil": 4441,
      "ipp": 4442,
      "loss": 4443,
      "nes": 4444,
      "load": 4445,
      "actions": 4446,
      "hero": 4447,
      "joy": 4448,
      "ption": 4449,
      "tained": 4450,
      "vari": 4451,
      "democr": 4452,
      "danger": 4453,
      "nations": 4454,
      "ably": 4455,
      "lived": 4456,
      "applic": 4457,
      "lower": 4458,
      "possib": 4459,
      "scot": 4460,
      "consist": 4461,
      "students": 4462,
      "companies": 4463,
      "cro": 4464,
      "cli": 4465,
      "themselves": 4466,
      "favor": 4467,
      "commission": 4468,
      "italian": 4469,
      "eye": 4470,
      "mem": 4471,
      "demand": 4472,
      "unit": 4473,
      "female": 4474,
      "normal": 4475,
      "events": 4476,
      "names": 4477,
      "califor": 4478,
      "90": 4479,
      "hop": 4480,
      "len": 4481,
      "tition": 4482,
      "immedi": 4483,
      "england": 4484,
      "rome": 4485,
      "standard": 4486,
      "completely": 4487,
      "piece": 4488,
      "machine": 4489,
      "bomb": 4490,
      "nine": 4491,
      "ordin": 4492,
      "telling": 4493,
      "hydro": 4494,
      "aries": 4495,
      "acqu": 4496,
      "likely": 4497,
      "navy": 4498,
      "winter": 4499,
      "amaz": 4500,
      "indic": 4501,
      "write": 4502,
      "leading": 4503,
      "recorded": 4504,
      "31": 4505,
      "hum": 4506,
      "jer": 4507,
      "feed": 4508,
      "gradu": 4509,
      "fan": 4510,
      "map": 4511,
      "ains": 4512,
      "lake": 4513,
      "soldi": 4514,
      "generally": 4515,
      "clo": 4516,
      "onom": 4517,
      "internet": 4518,
      "subject": 4519,
      "leaving": 4520,
      "opened": 4521,
      "issue": 4522,
      "lady": 4523,
      "olymp": 4524,
      "ging": 4525,
      "iso": 4526,
      "target": 4527,
      "manufact": 4528,
      "burg": 4529,
      "fill": 4530,
      "hang": 4531,
      "ja": 4532,
      "pi": 4533,
      "sar": 4534,
      "terms": 4535,
      "contract": 4536,
      "tee": 4537,
      "ify": 4538,
      "docu": 4539,
      "bra": 4540,
      "troops": 4541,
      "fleet": 4542,
      "structure": 4543,
      "square": 4544,
      "california": 4545,
      "necess": 4546,
      "mary": 4547,
      "seems": 4548,
      "mc": 4549,
      "lling": 4550,
      "hall": 4551,
      "alive": 4552,
      "rob": 4553,
      "hair": 4554,
      "moon": 4555,
      "players": 4556,
      "fourth": 4557,
      "chemical": 4558,
      "traditional": 4559,
      "bag": 4560,
      "itory": 4561,
      "lebr": 4562,
      "william": 4563,
      "experience": 4564,
      "bound": 4565,
      "ira": 4566,
      "cool": 4567,
      "ength": 4568,
      "miles": 4569,
      "marriage": 4570,
      "theast": 4571,
      "tware": 4572,
      "subst": 4573,
      "appointed": 4574,
      "james": 4575,
      "magaz": 4576,
      "extre": 4577,
      "ously": 4578,
      "meeting": 4579,
      "rule": 4580,
      "industry": 4581,
      "management": 4582,
      "kim": 4583,
      "pose": 4584,
      "ises": 4585,
      "whose": 4586,
      "fail": 4587,
      "organization": 4588,
      "lose": 4589,
      "agon": 4590,
      "network": 4591,
      "paul": 4592,
      "screen": 4593,
      "dav": 4594,
      "pair": 4595,
      "belong": 4596,
      "demon": 4597,
      "neg": 4598,
      "believed": 4599,
      "directly": 4600,
      "relationship": 4601,
      "path": 4602,
      "yl": 4603,
      "celebr": 4604,
      "provide": 4605,
      "premi": 4606,
      "prevent": 4607,
      "regard": 4608,
      "treatment": 4609,
      "dance": 4610,
      "meaning": 4611,
      "suffer": 4612,
      "stone": 4613,
      "county": 4614,
      "choice": 4615,
      "happens": 4616,
      "designed": 4617,
      "cand": 4618,
      "sand": 4619,
      "inct": 4620,
      "alex": 4621,
      "beha": 4622,
      "contribut": 4623,
      "reser": 4624,
      "remained": 4625,
      "windows": 4626,
      "earlier": 4627,
      "usion": 4628,
      "fear": 4629,
      "paper": 4630,
      "software": 4631,
      "mes": 4632,
      "beat": 4633,
      "performed": 4634,
      "tempor": 4635,
      "increase": 4636,
      "products": 4637,
      "send": 4638,
      "units": 4639,
      "partner": 4640,
      "caused": 4641,
      "types": 4642,
      "35": 4643,
      "kar": 4644,
      "plat": 4645,
      "acid": 4646,
      "deser": 4647,
      "highest": 4648,
      "waiting": 4649,
      "constitution": 4650,
      "deb": 4651,
      "vert": 4652,
      "kept": 4653,
      "increased": 4654,
      "limited": 4655,
      "establish": 4656,
      "channel": 4657,
      "forget": 4658,
      "mathem": 4659,
      "discus": 4660,
      "pressure": 4661,
      "finan": 4662,
      "investig": 4663,
      "goal": 4664,
      "finished": 4665,
      "professional": 4666,
      "george": 4667,
      "situation": 4668,
      "approximately": 4669,
      "hous": 4670,
      "drink": 4671,
      "scri": 4672,
      "powerful": 4673,
      "places": 4674,
      "cub": 4675,
      "adop": 4676,
      "opport": 4677,
      "mention": 4678,
      "prep": 4679,
      "larger": 4680,
      "italy": 4681,
      "towards": 4682,
      "effects": 4683,
      "territory": 4684,
      "decision": 4685,
      "tool": 4686,
      "felt": 4687,
      "spread": 4688,
      "thanks": 4689,
      "huh": 4690,
      "governor": 4691,
      "isra": 4692,
      "auto": 4693,
      "novel": 4694,
      "awa": 4695,
      "pati": 4696,
      "opportun": 4697,
      "zo": 4698,
      "atl": 4699,
      "qual": 4700,
      "cred": 4701,
      "heavy": 4702,
      "performance": 4703,
      "mix": 4704,
      "operations": 4705,
      "interesting": 4706,
      "confir": 4707,
      "ference": 4708,
      "itect": 4709,
      "surpr": 4710,
      "architect": 4711,
      "iii": 4712,
      "picture": 4713,
      "scale": 4714,
      "rang": 4715,
      "icip": 4716,
      "shows": 4717,
      "humans": 4718,
      "constant": 4719,
      "greek": 4720,
      "municip": 4721,
      "simply": 4722,
      "behavi": 4723,
      "sens": 4724,
      "ases": 4725,
      "utions": 4726,
      "nobody": 4727,
      "spain": 4728,
      "skin": 4729,
      "features": 4730,
      "ift": 4731,
      "cry": 4732,
      "minute": 4733,
      "prior": 4734,
      "competition": 4735,
      "era": 4736,
      "acting": 4737,
      "divid": 4738,
      "aff": 4739,
      "craz": 4740,
      "regular": 4741,
      "kilome": 4742,
      "fat": 4743,
      "pun": 4744,
      "tellig": 4745,
      "stories": 4746,
      "average": 4747,
      "trouble": 4748,
      "instru": 4749,
      "intellig": 4750,
      "ington": 4751,
      "forced": 4752,
      "worry": 4753,
      "employ": 4754,
      "rare": 4755,
      "wild": 4756,
      "suit": 4757,
      "teams": 4758,
      "claimed": 4759,
      "citiz": 4760,
      "migr": 4761,
      "hill": 4762,
      "inde": 4763,
      "aint": 4764,
      "produce": 4765,
      "originally": 4766,
      "responsible": 4767,
      "atives": 4768,
      "appl": 4769,
      "phen": 4770,
      "1998": 4771,
      "eli": 4772,
      "oud": 4773,
      "print": 4774,
      "greater": 4775,
      "189": 4776,
      "attention": 4777,
      "subsequ": 4778,
      "famous": 4779,
      "atively": 4780,
      "activity": 4781,
      "ades": 4782,
      "carry": 4783,
      "parliam": 4784,
      "imagine": 4785,
      "academy": 4786,
      "length": 4787,
      "anda": 4788,
      "shut": 4789,
      "cancer": 4790,
      "boys": 4791,
      "added": 4792,
      "nearly": 4793,
      "levels": 4794,
      "festival": 4795,
      "pacific": 4796,
      "iger": 4797,
      "feet": 4798,
      "nast": 4799,
      "icle": 4800,
      "conditions": 4801,
      "standing": 4802,
      "psych": 4803,
      "hid": 4804,
      "lap": 4805,
      "pil": 4806,
      "weight": 4807,
      "2002": 4808,
      "starting": 4809,
      "castle": 4810,
      "impact": 4811,
      "dut": 4812,
      "smo": 4813,
      "reve": 4814,
      "below": 4815,
      "defe": 4816,
      "forward": 4817,
      "plants": 4818,
      "guard": 4819,
      "strict": 4820,
      "indian": 4821,
      "voice": 4822,
      "particularly": 4823,
      "beyond": 4824,
      "fly": 4825,
      "gin": 4826,
      "none": 4827,
      "wise": 4828,
      "lee": 4829,
      "mechan": 4830,
      "preci": 4831,
      "colon": 4832,
      "drive": 4833,
      "parliament": 4834,
      "yo": 4835,
      "trial": 4836,
      "serve": 4837,
      "plays": 4838,
      "honor": 4839,
      "animal": 4840,
      "policy": 4841,
      "crazy": 4842,
      "300": 4843,
      "tree": 4844,
      "replaced": 4845,
      "ites": 4846,
      "proto": 4847,
      "bran": 4848,
      "rail": 4849,
      "increasing": 4850,
      "mouth": 4851,
      "applause": 4852,
      "ole": 4853,
      "ened": 4854,
      "weak": 4855,
      "movie": 4856,
      "records": 4857,
      "francis": 4858,
      "mountains": 4859,
      "rew": 4860,
      "stad": 4861,
      "mexic": 4862,
      "mole": 4863,
      "quality": 4864,
      "justice": 4865,
      "marine": 4866,
      "mostly": 4867,
      "charge": 4868,
      "federal": 4869,
      "gard": 4870,
      "ners": 4871,
      "imper": 4872,
      "price": 4873,
      "regions": 4874,
      "charles": 4875,
      "cultural": 4876,
      "introduced": 4877,
      "cow": 4878,
      "expected": 4879,
      "grant": 4880,
      "therefore": 4881,
      "smaller": 4882,
      "location": 4883,
      "languages": 4884,
      "fighting": 4885,
      "professor": 4886,
      "journal": 4887,
      "gam": 4888,
      "hong": 4889,
      "iny": 4890,
      "urban": 4891,
      "poly": 4892,
      "swed": 4893,
      "freed": 4894,
      "hurt": 4895,
      "previously": 4896,
      "experiment": 4897,
      "page": 4898,
      "inno": 4899,
      "afraid": 4900,
      "estimated": 4901,
      "sla": 4902,
      "edition": 4903,
      "stren": 4904,
      "numer": 4905,
      "45": 4906,
      "poin": 4907,
      "looked": 4908,
      "turning": 4909,
      "surround": 4910,
      "includes": 4911,
      "stars": 4912,
      "horse": 4913,
      "extreme": 4914,
      "ita": 4915,
      "stream": 4916,
      "memor": 4917,
      "achie": 4918,
      "election": 4919,
      "elected": 4920,
      "completed": 4921,
      "benef": 4922,
      "neighbor": 4923,
      "mexico": 4924,
      "ez": 4925,
      "agent": 4926,
      "account": 4927,
      "arrived": 4928,
      "ather": 4929,
      "entered": 4930,
      "resour": 4931,
      "naval": 4932,
      "continue": 4933,
      "arabic": 4934,
      "independent": 4935,
      "streng": 4936,
      "ires": 4937,
      "officer": 4938,
      "questions": 4939,
      "graphy": 4940,
      "tun": 4941,
      "ulations": 4942,
      "canada": 4943,
      "centre": 4944,
      "izing": 4945,
      "songs": 4946,
      "paid": 4947,
      "results": 4948,
      "contains": 4949,
      "arian": 4950,
      "uries": 4951,
      "colum": 4952,
      "1999": 4953,
      "physical": 4954,
      "rules": 4955,
      "improve": 4956,
      "immediately": 4957,
      "tas": 4958,
      "amed": 4959,
      "resist": 4960,
      "fee": 4961,
      "agre": 4962,
      "ification": 4963,
      "amount": 4964,
      "patients": 4965,
      "jim": 4966,
      "becoming": 4967,
      "ami": 4968,
      "odes": 4969,
      "yours": 4970,
      "cook": 4971,
      "nuclear": 4972,
      "climate": 4973,
      "sant": 4974,
      "plus": 4975,
      "calling": 4976,
      "expand": 4977,
      "independence": 4978,
      "displaystyle": 4979,
      "gate": 4980,
      "kong": 4981,
      "congress": 4982,
      "tai": 4983,
      "186": 4984,
      "valu": 4985,
      "killing": 4986,
      "enemy": 4987,
      "david": 4988,
      "cab": 4989,
      "arrest": 4990,
      "progress": 4991,
      "carbon": 4992,
      "sales": 4993,
      "issues": 4994,
      "primary": 4995,
      "astr": 4996,
      "youn": 4997,
      "store": 4998,
      "missing": 4999,
      "communist": 5000,
      "economy": 5001,
      "commercial": 5002,
      "magazine": 5003,
      "points": 5004,
      "cort": 5005,
      "pts": 5006,
      "online": 5007,
      "sec": 5008,
      "degree": 5009,
      "concept": 5010,
      "188": 5011,
      "writer": 5012,
      "difference": 5013,
      "aven": 5014,
      "bing": 5015,
      "vation": 5016,
      "wat": 5017,
      "image": 5018,
      "anyway": 5019,
      "raised": 5020,
      "mainly": 5021,
      "gives": 5022,
      "hung": 5023,
      "thir": 5024,
      "ician": 5025,
      "extra": 5026,
      "letter": 5027,
      "majority": 5028,
      "electric": 5029,
      "spirit": 5030,
      "straight": 5031,
      "mathemat": 5032,
      "ander": 5033,
      "whom": 5034,
      "187": 5035,
      "regis": 5036,
      "invas": 5037,
      "universe": 5038,
      "remains": 5039,
      "settle": 5040,
      "memory": 5041,
      "nap": 5042,
      "seat": 5043,
      "libr": 5044,
      "perform": 5045,
      "berg": 5046,
      "throw": 5047,
      "student": 5048,
      "potential": 5049,
      "influence": 5050,
      "bow": 5051,
      "ech": 5052,
      "mut": 5053,
      "altern": 5054,
      "ils": 5055,
      "fected": 5056,
      "aging": 5057,
      "agric": 5058,
      "aud": 5059,
      "emot": 5060,
      "1994": 5061,
      "address": 5062,
      "arent": 5063,
      "tournam": 5064,
      "connect": 5065,
      "rapid": 5066,
      "integr": 5067,
      "deliver": 5068,
      "committee": 5069,
      "mobile": 5070,
      "dim": 5071,
      "awards": 5072,
      "learned": 5073,
      "provided": 5074,
      "weapons": 5075,
      "reign": 5076,
      "refle": 5077,
      "advan": 5078,
      "ulated": 5079,
      "positive": 5080,
      "helped": 5081,
      "micros": 5082,
      "appears": 5083,
      "growing": 5084,
      "freedom": 5085,
      "patient": 5086,
      "treaty": 5087,
      "victor": 5088,
      "typically": 5089,
      "fit": 5090,
      "pti": 5091,
      "push": 5092,
      "rat": 5093,
      "adap": 5094,
      "supply": 5095,
      "basic": 5096,
      "scientific": 5097,
      "studio": 5098,
      "native": 5099,
      "rank": 5100,
      "reli": 5101,
      "minor": 5102,
      "schools": 5103,
      "explain": 5104,
      "dynast": 5105,
      "destroyed": 5106,
      "separate": 5107,
      "rac": 5108,
      "zed": 5109,
      "inj": 5110,
      "osop": 5111,
      "rect": 5112,
      "compl": 5113,
      "owned": 5114,
      "flag": 5115,
      "drop": 5116,
      "latin": 5117,
      "christian": 5118,
      "temperature": 5119,
      "phere": 5120,
      "ension": 5121,
      "pattern": 5122,
      "promise": 5123,
      "launched": 5124,
      "enty": 5125,
      "determin": 5126,
      "hael": 5127,
      "absol": 5128,
      "19th": 5129,
      "artist": 5130,
      "phy": 5131,
      "ski": 5132,
      "happening": 5133,
      "farm": 5134,
      "sexual": 5135,
      "dollars": 5136,
      "wit": 5137,
      "thes": 5138,
      "enc": 5139,
      "cham": 5140,
      "shop": 5141,
      "spect": 5142,
      "singer": 5143,
      "directed": 5144,
      "custo": 5145,
      "teacher": 5146,
      "entertain": 5147,
      "practice": 5148,
      "thousands": 5149,
      "inated": 5150,
      "bear": 5151,
      "becomes": 5152,
      "mel": 5153,
      "resident": 5154,
      "closed": 5155,
      "ders": 5156,
      "twice": 5157,
      "failed": 5158,
      "flict": 5159,
      "require": 5160,
      "trop": 5161,
      "kyo": 5162,
      "industrial": 5163,
      "imperial": 5164,
      "cate": 5165,
      "request": 5166,
      "lect": 5167,
      "detail": 5168,
      "iron": 5169,
      "ula": 5170,
      "gue": 5171,
      "cath": 5172,
      "finish": 5173,
      "obvious": 5174,
      "philipp": 5175,
      "accident": 5176,
      "soldiers": 5177,
      "financial": 5178,
      "reveal": 5179,
      "36": 5180,
      "hip": 5181,
      "rise": 5182,
      "ena": 5183,
      "ari": 5184,
      "astic": 5185,
      "anybody": 5186,
      "highly": 5187,
      "ordered": 5188,
      "fuel": 5189,
      "equal": 5190,
      "widely": 5191,
      "message": 5192,
      "review": 5193,
      "arms": 5194,
      "covery": 5195,
      "spot": 5196,
      "elements": 5197,
      "feeling": 5198,
      "mort": 5199,
      "attract": 5200,
      "tired": 5201,
      "interview": 5202,
      "studied": 5203,
      "sounds": 5204,
      "32": 5205,
      "dor": 5206,
      "ror": 5207,
      "ugh": 5208,
      "oft": 5209,
      "youth": 5210,
      "conserv": 5211,
      "rian": 5212,
      "ounds": 5213,
      "seeing": 5214,
      "solution": 5215,
      "orders": 5216,
      "galax": 5217,
      "referred": 5218,
      "circ": 5219,
      "bil": 5220,
      "stated": 5221,
      "metal": 5222,
      "rot": 5223,
      "concent": 5224,
      "ighter": 5225,
      "manager": 5226,
      "iel": 5227,
      "apped": 5228,
      "37": 5229,
      "fc": 5230,
      "iation": 5231,
      "mol": 5232,
      "spl": 5233,
      "wol": 5234,
      "sud": 5235,
      "shown": 5236,
      "gra": 5237,
      "speaking": 5238,
      "condition": 5239,
      "1991": 5240,
      "films": 5241,
      "officially": 5242,
      "required": 5243,
      "electron": 5244,
      "victim": 5245,
      "gentle": 5246,
      "recently": 5247,
      "symbol": 5248,
      "families": 5249,
      "divided": 5250,
      "bin": 5251,
      "bun": 5252,
      "yu": 5253,
      "argent": 5254,
      "staff": 5255,
      "ental": 5256,
      "meant": 5257,
      "solar": 5258,
      "showed": 5259,
      "1945": 5260,
      "pression": 5261,
      "response": 5262,
      "philosop": 5263,
      "kin": 5264,
      "nd": 5265,
      "repe": 5266,
      "beach": 5267,
      "mac": 5268,
      "stood": 5269,
      "opening": 5270,
      "laws": 5271,
      "painting": 5272,
      "religious": 5273,
      "48": 5274,
      "fing": 5275,
      "hate": 5276,
      "ugu": 5277,
      "enjoy": 5278,
      "asian": 5279,
      "ura": 5280,
      "ideas": 5281,
      "hib": 5282,
      "secretary": 5283,
      "washington": 5284,
      "wing": 5285,
      "itude": 5286,
      "chain": 5287,
      "cris": 5288,
      "occas": 5289,
      "1992": 5290,
      "shouldn": 5291,
      "distance": 5292,
      "victory": 5293,
      "document": 5294,
      "jose": 5295,
      "stal": 5296,
      "convent": 5297,
      "plans": 5298,
      "crew": 5299,
      "greatest": 5300,
      "operating": 5301,
      "commonly": 5302,
      "additional": 5303,
      "brief": 5304,
      "egypt": 5305,
      "cens": 5306,
      "unless": 5307,
      "ables": 5308,
      "squad": 5309,
      "storm": 5310,
      "initially": 5311,
      "status": 5312,
      "opportunity": 5313,
      "bang": 5314,
      "nut": 5315,
      "rum": 5316,
      "wealth": 5317,
      "somewhere": 5318,
      "boat": 5319,
      "surve": 5320,
      "generation": 5321,
      "reasons": 5322,
      "hotel": 5323,
      "absolute": 5324,
      "ano": 5325,
      "atom": 5326,
      "tot": 5327,
      "estic": 5328,
      "smart": 5329,
      "variety": 5330,
      "honest": 5331,
      "damage": 5332,
      "defined": 5333,
      "institute": 5334,
      "38": 5335,
      "icles": 5336,
      "affair": 5337,
      "malay": 5338,
      "reality": 5339,
      "britain": 5340,
      "princess": 5341,
      "spring": 5342,
      "tournament": 5343,
      "fal": 5344,
      "pir": 5345,
      "asking": 5346,
      "section": 5347,
      "contr": 5348,
      "actor": 5349,
      "coal": 5350,
      "michael": 5351,
      "double": 5352,
      "broadcast": 5353,
      "route": 5354,
      "bia": 5355,
      "bai": 5356,
      "vic": 5357,
      "thom": 5358,
      "armed": 5359,
      "chart": 5360,
      "pet": 5361,
      "affect": 5362,
      "predict": 5363,
      "1996": 5364,
      "transl": 5365,
      "remaining": 5366,
      "fant": 5367,
      "aper": 5368,
      "maxim": 5369,
      "actress": 5370,
      "avoid": 5371,
      "apparent": 5372,
      "measure": 5373,
      "cere": 5374,
      "hors": 5375,
      "phas": 5376,
      "ume": 5377,
      "ida": 5378,
      "concl": 5379,
      "conference": 5380,
      "genet": 5381,
      "faith": 5382,
      "counter": 5383,
      "huge": 5384,
      "observ": 5385,
      "selling": 5386,
      "digital": 5387,
      "sweet": 5388,
      "agreed": 5389,
      "ahead": 5390,
      "bom": 5391,
      "kr": 5392,
      "mitted": 5393,
      "atures": 5394,
      "tach": 5395,
      "prize": 5396,
      "temple": 5397,
      "protection": 5398,
      "critic": 5399,
      "dna": 5400,
      "enge": 5401,
      "veh": 5402,
      "robot": 5403,
      "older": 5404,
      "spend": 5405,
      "preser": 5406,
      "characters": 5407,
      "guns": 5408,
      "commander": 5409,
      "dangerous": 5410,
      "achieve": 5411,
      "race": 5412,
      "stup": 5413,
      "trip": 5414,
      "loved": 5415,
      "bodies": 5416,
      "techni": 5417,
      "interested": 5418,
      "purpose": 5419,
      "fifth": 5420,
      "multiple": 5421,
      "agreement": 5422,
      "tropical": 5423,
      "(\"": 5424,
      "75": 5425,
      "gain": 5426,
      "wards": 5427,
      "isa": 5428,
      "note": 5429,
      "izations": 5430,
      "discuss": 5431,
      "numerous": 5432,
      "task": 5433,
      "zone": 5434,
      "anne": 5435,
      "tery": 5436,
      "pers": 5437,
      "pray": 5438,
      "bright": 5439,
      "content": 5440,
      "1997": 5441,
      "powers": 5442,
      "leaders": 5443,
      "supported": 5444,
      "appearance": 5445,
      "bsite": 5446,
      "louis": 5447,
      "necessary": 5448,
      "snow": 5449,
      "saint": 5450,
      "cha": 5451,
      "peter": 5452,
      "rible": 5453,
      "ledge": 5454,
      "collection": 5455,
      "brothers": 5456,
      "activities": 5457,
      "administration": 5458,
      "dynasty": 5459,
      "ake": 5460,
      "ini": 5461,
      "stan": 5462,
      "entertainment": 5463,
      "horses": 5464,
      "jes": 5465,
      "ret": 5466,
      "element": 5467,
      "solid": 5468,
      "sources": 5469,
      "invasion": 5470,
      ".)": 5471,
      "honey": 5472,
      "onto": 5473,
      "website": 5474,
      "iday": 5475,
      "lla": 5476,
      "sole": 5477,
      "provin": 5478,
      "drugs": 5479,
      "amazing": 5480,
      "33": 5481,
      "400": 5482,
      "55": 5483,
      "bact": 5484,
      "fres": 5485,
      "uel": 5486,
      "yer": 5487,
      "asc": 5488,
      "neut": 5489,
      "istics": 5490,
      "kings": 5491,
      "valley": 5492,
      "choose": 5493,
      "broke": 5494,
      "install": 5495,
      "fortun": 5496,
      "negative": 5497,
      "israel": 5498,
      "stupid": 5499,
      "boss": 5500,
      "dress": 5501,
      "tes": 5502,
      "roll": 5503,
      "user": 5504,
      "advis": 5505,
      "iang": 5506,
      "newsp": 5507,
      "presence": 5508,
      "paral": 5509,
      "scene": 5510,
      "direction": 5511,
      "succeed": 5512,
      "learning": 5513,
      "objects": 5514,
      "stadium": 5515,
      "icts": 5516,
      "chos": 5517,
      "weather": 5518,
      "aband": 5519,
      "tray": 5520,
      "agu": 5521,
      "centuries": 5522,
      "foundation": 5523,
      "awarded": 5524,
      "property": 5525,
      "welcome": 5526,
      "intelligence": 5527,
      "ona": 5528,
      "ato": 5529,
      "escort": 5530,
      "dear": 5531,
      "olic": 5532,
      "pel": 5533,
      "math": 5534,
      "wars": 5535,
      "seconds": 5536,
      "aught": 5537,
      "organis": 5538,
      "connected": 5539,
      "resources": 5540,
      "sudden": 5541,
      "bla": 5542,
      "rough": 5543,
      "vice": 5544,
      "osis": 5545,
      "ctors": 5546,
      "turk": 5547,
      "regional": 5548,
      "crime": 5549,
      "buildings": 5550,
      "voy": 5551,
      "purch": 5552,
      "eld": 5553,
      "pha": 5554,
      "sight": 5555,
      "zi": 5556,
      "encour": 5557,
      "knowledge": 5558,
      "brown": 5559,
      "effic": 5560,
      "planning": 5561,
      "schol": 5562,
      "possibly": 5563,
      "strength": 5564,
      "47": 5565,
      "dong": 5566,
      "gall": 5567,
      "oke": 5568,
      "rand": 5569,
      "tend": 5570,
      "cts": 5571,
      "mod": 5572,
      "1993": 5573,
      "1995": 5574,
      "invent": 5575,
      "historical": 5576,
      "behavior": 5577,
      "cise": 5578,
      "fash": 5579,
      "zen": 5580,
      "waste": 5581,
      "negot": 5582,
      "iff": 5583,
      "ultim": 5584,
      "1950": 5585,
      "taugh": 5586,
      "gry": 5587,
      "render": 5588,
      "correct": 5589,
      "worldwide": 5590,
      "ysis": 5591,
      "ministry": 5592,
      "heat": 5593,
      "imple": 5594,
      "exer": 5595,
      "1990": 5596,
      "cycl": 5597,
      "developing": 5598,
      "bio": 5599,
      "sites": 5600,
      "camera": 5601,
      "taught": 5602,
      "beli": 5603,
      "quant": 5604,
      "grew": 5605,
      "attended": 5606,
      "unique": 5607,
      "trees": 5608,
      "burn": 5609,
      "shape": 5610,
      "winning": 5611,
      "scientists": 5612,
      "catal": 5613,
      "floor": 5614,
      "theat": 5615,
      "onia": 5616,
      "iran": 5617,
      "proposed": 5618,
      "yell": 5619,
      "pleas": 5620,
      "genus": 5621,
      "pull": 5622,
      "turns": 5623,
      "palace": 5624,
      "fields": 5625,
      "oxy": 5626,
      "medicine": 5627,
      "temporary": 5628,
      "39": 5629,
      "cof": 5630,
      "hat": 5631,
      "jam": 5632,
      "kam": 5633,
      "ses": 5634,
      "wid": 5635,
      "ald": 5636,
      "itation": 5637,
      "cher": 5638,
      "ola": 5639,
      "conflict": 5640,
      "gency": 5641,
      "1944": 5642,
      "biggest": 5643,
      "allows": 5644,
      "silver": 5645,
      "henry": 5646,
      "bacter": 5647,
      "ws": 5648,
      "ware": 5649,
      "oul": 5650,
      "robert": 5651,
      "20th": 5652,
      "excl": 5653,
      "ourselves": 5654,
      "indones": 5655,
      "cide": 5656,
      "guest": 5657,
      "workers": 5658,
      "gene": 5659,
      "daily": 5660,
      "declared": 5661,
      "dinner": 5662,
      "houses": 5663,
      "abandon": 5664,
      "pas": 5665,
      "rated": 5666,
      "thur": 5667,
      "ado": 5668,
      "noted": 5669,
      "possess": 5670,
      "iction": 5671,
      "micro": 5672,
      "sports": 5673,
      "richard": 5674,
      "magic": 5675,
      "challenge": 5676,
      "caught": 5677,
      "flying": 5678,
      "till": 5679,
      "upper": 5680,
      "guar": 5681,
      "reading": 5682,
      "holy": 5683,
      "copy": 5684,
      "environmental": 5685,
      "hide": 5686,
      "ón": 5687,
      "uncle": 5688,
      "lia": 5689,
      "mental": 5690,
      "acts": 5691,
      "episo": 5692,
      "calls": 5693,
      "contest": 5694,
      "relations": 5695,
      "muslim": 5696,
      "ivity": 5697,
      "physics": 5698,
      "primarily": 5699,
      "recognized": 5700,
      "australian": 5701,
      "zero": 5702,
      "wedding": 5703,
      "fashion": 5704,
      "episode": 5705,
      "nik": 5706,
      "thy": 5707,
      "fection": 5708,
      "atell": 5709,
      "marry": 5710,
      "firm": 5711,
      "warm": 5712,
      "compared": 5713,
      "1942": 5714,
      "responsib": 5715,
      "represented": 5716,
      "occurred": 5717,
      "defeated": 5718,
      "!\"": 5719,
      "avi": 5720,
      "nan": 5721,
      "tres": 5722,
      "oli": 5723,
      "unk": 5724,
      "geo": 5725,
      "lif": 5726,
      "comfort": 5727,
      "prop": 5728,
      "perman": 5729,
      "dipl": 5730,
      "ems": 5731,
      "dry": 5732,
      "soul": 5733,
      "compon": 5734,
      "broken": 5735,
      "engineering": 5736,
      "susp": 5737,
      "bos": 5738,
      "peak": 5739,
      "artists": 5740,
      "agency": 5741,
      "blow": 5742,
      "jected": 5743,
      "jewish": 5744,
      "ireland": 5745,
      "kills": 5746,
      "males": 5747,
      "factor": 5748,
      "terror": 5749,
      "birds": 5750,
      "device": 5751,
      "advant": 5752,
      "methods": 5753,
      "witness": 5754,
      "kan": 5755,
      "las": 5756,
      "ping": 5757,
      "rates": 5758,
      "slo": 5759,
      "atmos": 5760,
      "convers": 5761,
      "opt": 5762,
      "spok": 5763,
      "visible": 5764,
      "mount": 5765,
      "occurs": 5766,
      "quarters": 5767,
      "candid": 5768,
      "confirmed": 5769,
      "microsoft": 5770,
      "implement": 5771,
      "42": 5772,
      "cash": 5773,
      "gt": 5774,
      "kiss": 5775,
      "sin": 5776,
      "}}": 5777,
      "chap": 5778,
      "lip": 5779,
      "apore": 5780,
      "modif": 5781,
      "2019": 5782,
      "worse": 5783,
      "clin": 5784,
      "causes": 5785,
      "prefer": 5786,
      "syria": 5787,
      "singapore": 5788,
      "stein": 5789,
      "domestic": 5790,
      "severe": 5791,
      "virus": 5792,
      "virgin": 5793,
      "tests": 5794,
      "ukrain": 5795,
      "models": 5796,
      "mentioned": 5797,
      "diplom": 5798,
      "ets": 5799,
      "file": 5800,
      "ix": 5801,
      "replace": 5802,
      "iced": 5803,
      "forts": 5804,
      "resol": 5805,
      "shin": 5806,
      "acity": 5807,
      "herself": 5808,
      "pros": 5809,
      "coach": 5810,
      "stopped": 5811,
      "treated": 5812,
      "battles": 5813,
      "programs": 5814,
      "bak": 5815,
      "gic": 5816,
      "satell": 5817,
      "tam": 5818,
      "zz": 5819,
      "incorpor": 5820,
      "stable": 5821,
      "uss": 5822,
      "oppos": 5823,
      "magn": 5824,
      "core": 5825,
      "crash": 5826,
      "bles": 5827,
      "inten": 5828,
      "southeast": 5829,
      "senior": 5830,
      "sequence": 5831,
      "wearing": 5832,
      "evolution": 5833,
      "advanced": 5834,
      "foun": 5835,
      "nit": 5836,
      "escape": 5837,
      "collabor": 5838,
      "cycle": 5839,
      "virt": 5840,
      "nearby": 5841,
      "equip": 5842,
      "ville": 5843,
      "authorities": 5844,
      "initial": 5845,
      "championship": 5846,
      "ordinary": 5847,
      "adopted": 5848,
      "bought": 5849,
      "gs": 5850,
      "nur": 5851,
      "pig": 5852,
      "som": 5853,
      "vacc": 5854,
      "wis": 5855,
      "insu": 5856,
      "alli": 5857,
      "adian": 5858,
      "conver": 5859,
      "tower": 5860,
      "metres": 5861,
      "holding": 5862,
      "defense": 5863,
      "investment": 5864,
      "weren": 5865,
      "initi": 5866,
      "losing": 5867,
      "census": 5868,
      "kat": 5869,
      "reaction": 5870,
      "mell": 5871,
      "idi": 5872,
      "fru": 5873,
      "sust": 5874,
      "gotten": 5875,
      "cars": 5876,
      "goods": 5877,
      "maintain": 5878,
      "consci": 5879,
      "1989": 5880,
      "understanding": 5881,
      "safety": 5882,
      "kilometres": 5883,
      "46": 5884,
      "fought": 5885,
      "images": 5886,
      "phot": 5887,
      "strange": 5888,
      "scen": 5889,
      "zeal": 5890,
      "politics": 5891,
      "motor": 5892,
      "devices": 5893,
      "pictures": 5894,
      "fresh": 5895,
      "bid": 5896,
      "nas": 5897,
      "voc": 5898,
      "thro": 5899,
      "edge": 5900,
      "tokyo": 5901,
      "lets": 5902,
      "usual": 5903,
      "admir": 5904,
      "herit": 5905,
      "crow": 5906,
      "internal": 5907,
      "operated": 5908,
      "ailand": 5909,
      "projects": 5910,
      "individuals": 5911,
      "transferred": 5912,
      "executive": 5913,
      "bt": 5914,
      "slight": 5915,
      "consul": 5916,
      "exchange": 5917,
      "acu": 5918,
      "ques": 5919,
      "intended": 5920,
      "visual": 5921,
      "tells": 5922,
      "planned": 5923,
      "annual": 5924,
      "incredi": 5925,
      "basis": 5926,
      "effective": 5927,
      "window": 5928,
      "bottom": 5929,
      "carried": 5930,
      "crisis": 5931,
      "coffee": 5932,
      "gang": 5933,
      "vive": 5934,
      "restrict": 5935,
      "decre": 5936,
      "agn": 5937,
      "ghan": 5938,
      "saved": 5939,
      "portugu": 5940,
      "150": 5941,
      "leaves": 5942,
      "mrs": 5943,
      "electr": 5944,
      "hundreds": 5945,
      "duty": 5946,
      "85": 5947,
      "dish": 5948,
      "flood": 5949,
      "niger": 5950,
      "sad": 5951,
      "thailand": 5952,
      "cel": 5953,
      "composed": 5954,
      "1930": 5955,
      "parties": 5956,
      "cade": 5957,
      "willing": 5958,
      "thinks": 5959,
      "180": 5960,
      "identified": 5961,
      "wave": 5962,
      "steal": 5963,
      "hypo": 5964,
      "signal": 5965,
      "anni": 5966,
      "organized": 5967,
      "receive": 5968,
      "authority": 5969,
      "combat": 5970,
      "materials": 5971,
      "phase": 5972,
      "yellow": 5973,
      "bird": 5974,
      "yn": 5975,
      "sets": 5976,
      "deput": 5977,
      "actual": 5978,
      "flor": 5979,
      "ologies": 5980,
      "headed": 5981,
      "1943": 5982,
      "begins": 5983,
      "analy": 5984,
      "accepted": 5985,
      "demonstr": 5986,
      "municipality": 5987,
      "taiwan": 5988,
      "chamber": 5989,
      "negoti": 5990,
      "equipment": 5991,
      "portuguese": 5992,
      "bath": 5993,
      "cd": 5994,
      "ey": 5995,
      "rab": 5996,
      "ration": 5997,
      "recept": 5998,
      "iles": 5999,
      "chron": 6000,
      "mail": 6001,
      "joint": 6002,
      "issued": 6003,
      "combined": 6004,
      "apartment": 6005,
      "bach": 6006,
      "egg": 6007,
      "fla": 6008,
      "wine": 6009,
      "ote": 6010,
      "frame": 6011,
      "pping": 6012,
      "visions": 6013,
      "capable": 6014,
      "realize": 6015,
      "easily": 6016,
      "rising": 6017,
      "graphic": 6018,
      "offered": 6019,
      "distribution": 6020,
      "conducted": 6021,
      "citizens": 6022,
      "garden": 6023,
      "library": 6024,
      "insp": 6025,
      "stress": 6026,
      "chile": 6027,
      "goals": 6028,
      "managed": 6029,
      "anywhere": 6030,
      "relatively": 6031,
      "certainly": 6032,
      "jin": 6033,
      "pak": 6034,
      "rout": 6035,
      "sitting": 6036,
      "rep": 6037,
      "orient": 6038,
      "beth": 6039,
      "seas": 6040,
      "degre": 6041,
      "ador": 6042,
      "trig": 6043,
      "accoun": 6044,
      "grade": 6045,
      "iet": 6046,
      "pregn": 6047,
      "portion": 6048,
      "changing": 6049,
      "alongside": 6050,
      "territor": 6051,
      "competit": 6052,
      "georg": 6053,
      "analysis": 6054,
      "atlantic": 6055,
      "34": 6056,
      "mam": 6057,
      "pse": 6058,
      "rose": 6059,
      "reven": 6060,
      "height": 6061,
      "ares": 6062,
      "consu": 6063,
      "notice": 6064,
      "serving": 6065,
      "tons": 6066,
      "definite": 6067,
      "advance": 6068,
      "critical": 6069,
      "promoted": 6070,
      "suggested": 6071,
      "literature": 6072,
      "scott": 6073,
      "ceremon": 6074,
      "gul": 6075,
      "pin": 6076,
      "yan": 6077,
      "income": 6078,
      "thesis": 6079,
      "complic": 6080,
      "tea": 6081,
      "appreci": 6082,
      "sons": 6083,
      "efforts": 6084,
      "kinds": 6085,
      "promin": 6086,
      "golden": 6087,
      "incident": 6088,
      "captured": 6089,
      "chairman": 6090,
      "prepared": 6091,
      "extremely": 6092,
      "philippines": 6093,
      "zealand": 6094,
      "degrees": 6095,
      "cs": 6096,
      "ito": 6097,
      "shad": 6098,
      "ston": 6099,
      "stair": 6100,
      "defeat": 6101,
      "unlike": 6102,
      "lith": 6103,
      "discovery": 6104,
      "formal": 6105,
      "speech": 6106,
      "engage": 6107,
      "calcul": 6108,
      "capacity": 6109,
      "secondary": 6110,
      "funny": 6111,
      "1986": 6112,
      "hibit": 6113,
      "extended": 6114,
      "connection": 6115,
      "participated": 6116,
      "audience": 6117,
      "seriously": 6118,
      "younger": 6119,
      "catholic": 6120,
      "galaxy": 6121,
      "oxygen": 6122,
      "aer": 6123,
      "iro": 6124,
      "lig": 6125,
      "recomm": 6126,
      "alco": 6127,
      "und": 6128,
      "traf": 6129,
      "compar": 6130,
      "apy": 6131,
      "bob": 6132,
      "crown": 6133,
      "poison": 6134,
      "norm": 6135,
      "evil": 6136,
      "handle": 6137,
      "talked": 6138,
      "organizations": 6139,
      "keeping": 6140,
      "dynam": 6141,
      "besides": 6142,
      "astronom": 6143,
      "encies": 6144,
      "ios": 6145,
      "lit": 6146,
      "ored": 6147,
      "sung": 6148,
      "sword": 6149,
      "vit": 6150,
      "inhabit": 6151,
      "ingu": 6152,
      "propos": 6153,
      "aces": 6154,
      "ishing": 6155,
      "twenty": 6156,
      "185": 6157,
      "putting": 6158,
      "folk": 6159,
      "custom": 6160,
      "largely": 6161,
      "budd": 6162,
      "violence": 6163,
      "vote": 6164,
      "strategy": 6165,
      "applications": 6166,
      "iraq": 6167,
      "44": 6168,
      "bits": 6169,
      "iling": 6170,
      "aya": 6171,
      "adult": 6172,
      "liver": 6173,
      "accur": 6174,
      "grav": 6175,
      "covers": 6176,
      "fool": 6177,
      "owner": 6178,
      "pool": 6179,
      "dram": 6180,
      "visited": 6181,
      "wake": 6182,
      "musical": 6183,
      "addy": 6184,
      "realized": 6185,
      "1980s": 6186,
      "applied": 6187,
      "christmas": 6188,
      "texas": 6189,
      "architecture": 6190,
      "spoken": 6191,
      "eating": 6192,
      "isol": 6193,
      "entially": 6194,
      "soil": 6195,
      "max": 6196,
      "plate": 6197,
      "ride": 6198,
      "elim": 6199,
      "creation": 6200,
      "minim": 6201,
      "aware": 6202,
      "observed": 6203,
      "americans": 6204,
      "legis": 6205,
      "examples": 6206,
      "sched": 6207,
      "beauty": 6208,
      "tube": 6209,
      "weapon": 6210,
      "subsequently": 6211,
      "65": 6212,
      "jos": 6213,
      "kal": 6214,
      "thai": 6215,
      "meat": 6216,
      "lyn": 6217,
      "rog": 6218,
      "unknown": 6219,
      "otto": 6220,
      "ogle": 6221,
      "matters": 6222,
      "metro": 6223,
      "collect": 6224,
      "basically": 6225,
      "birthday": 6226,
      "challeng": 6227,
      "affairs": 6228,
      "bish": 6229,
      "rd": 6230,
      "rig": 6231,
      "ark": 6232,
      "icated": 6233,
      "consum": 6234,
      "shr": 6235,
      "notes": 6236,
      "oldest": 6237,
      "survive": 6238,
      "presented": 6239,
      "profit": 6240,
      "walking": 6241,
      "limit": 6242,
      "provides": 6243,
      "respectively": 6244,
      "egypti": 6245,
      "featured": 6246,
      "favorite": 6247,
      "branch": 6248,
      "ell": 6249,
      "foss": 6250,
      "faster": 6251,
      "oy": 6252,
      "pes": 6253,
      "scr": 6254,
      "icide": 6255,
      "ione": 6256,
      "ili": 6257,
      "users": 6258,
      "neur": 6259,
      "1920": 6260,
      "mann": 6261,
      "afghan": 6262,
      "symp": 6263,
      "useful": 6264,
      "invited": 6265,
      "setting": 6266,
      "1985": 6267,
      "communities": 6268,
      "presidential": 6269,
      "explor": 6270,
      "reduced": 6271,
      "federation": 6272,
      "tools": 6273,
      "circum": 6274,
      "joseph": 6275,
      "gro": 6276,
      "rit": 6277,
      "tle": 6278,
      "sey": 6279,
      "seed": 6280,
      "decide": 6281,
      "machin": 6282,
      "presents": 6283,
      "throne": 6284,
      "effort": 6285,
      "functions": 6286,
      "1988": 6287,
      "swim": 6288,
      "glad": 6289,
      "vietnamese": 6290,
      "principal": 6291,
      "dir": 6292,
      "sides": 6293,
      "wound": 6294,
      "anna": 6295,
      "returning": 6296,
      "isher": 6297,
      "illa": 6298,
      "mode": 6299,
      "myster": 6300,
      "worst": 6301,
      "grown": 6302,
      "affected": 6303,
      "otherwise": 6304,
      "els": 6305,
      "desc": 6306,
      "obtained": 6307,
      "showing": 6308,
      "strugg": 6309,
      "controlled": 6310,
      "depending": 6311,
      "faces": 6312,
      "driving": 6313,
      "cruis": 6314,
      "employe": 6315,
      "clothes": 6316,
      "reserve": 6317,
      "francisco": 6318,
      "genetic": 6319,
      "alcohol": 6320,
      "dur": 6321,
      "drew": 6322,
      "mate": 6323,
      "rh": 6324,
      "rice": 6325,
      "anc": 6326,
      "enn": 6327,
      "islam": 6328,
      "edward": 6329,
      "esh": 6330,
      "withdraw": 6331,
      "ulate": 6332,
      "covid": 6333,
      "fault": 6334,
      "1990s": 6335,
      "brea": 6336,
      "scared": 6337,
      "factory": 6338,
      "1980": 6339,
      "1941": 6340,
      "resulting": 6341,
      "chester": 6342,
      "satur": 6343,
      "photograph": 6344,
      "script": 6345,
      "cm": 6346,
      "cia": 6347,
      "jun": 6348,
      "kg": 6349,
      "tall": 6350,
      "uan": 6351,
      "insur": 6352,
      "asy": 6353,
      "chris": 6354,
      "abilities": 6355,
      "sugar": 6356,
      "google": 6357,
      "maria": 6358,
      "phar": 6359,
      "forever": 6360,
      "poll": 6361,
      "flat": 6362,
      "costs": 6363,
      "criminal": 6364,
      "granted": 6365,
      "thomas": 6366,
      "legisl": 6367,
      "49": 6368,
      "jing": 6369,
      "kur": 6370,
      "sab": 6371,
      "recon": 6372,
      "removed": 6373,
      "alleg": 6374,
      "liqu": 6375,
      "compos": 6376,
      "opin": 6377,
      "proof": 6378,
      "cles": 6379,
      "discover": 6380,
      "toward": 6381,
      "shared": 6382,
      "volume": 6383,
      "pursu": 6384,
      "entirely": 6385,
      "democratic": 6386,
      "application": 6387,
      "responsibility": 6388,
      "3d": 6389,
      "cot": 6390,
      "kha": 6391,
      "obl": 6392,
      "tank": 6393,
      "ionally": 6394,
      "ila": 6395,
      "immigr": 6396,
      "apple": 6397,
      "attend": 6398,
      "legend": 6399,
      "1975": 6400,
      "titled": 6401,
      "distinct": 6402,
      "%)": 6403,
      "600": 6404,
      "eper": 6405,
      "jump": 6406,
      "infect": 6407,
      "istry": 6408,
      "aded": 6409,
      "berlin": 6410,
      "knowing": 6411,
      "pra": 6412,
      "colomb": 6413,
      "latter": 6414,
      "ruled": 6415,
      "dogs": 6416,
      "resistance": 6417,
      "revealed": 6418,
      "inspired": 6419,
      "gained": 6420,
      "pure": 6421,
      "weird": 6422,
      "tric": 6423,
      "ours": 6424,
      "guide": 6425,
      "izes": 6426,
      "landing": 6427,
      "evening": 6428,
      "angeles": 6429,
      "finding": 6430,
      "stell": 6431,
      "lots": 6432,
      "bigger": 6433,
      "cambod": 6434,
      "failure": 6435,
      "nie": 6436,
      "yal": 6437,
      "refu": 6438,
      "terrible": 6439,
      "ider": 6440,
      "oph": 6441,
      "ifying": 6442,
      "prove": 6443,
      "saving": 6444,
      "creating": 6445,
      "corner": 6446,
      "identity": 6447,
      "suppose": 6448,
      "listed": 6449,
      "marked": 6450,
      "streets": 6451,
      "properties": 6452,
      "wonderful": 6453,
      "judge": 6454,
      "capture": 6455,
      "traffic": 6456,
      "43": 6457,
      "scar": 6458,
      "advent": 6459,
      "ket": 6460,
      "prepar": 6461,
      "mont": 6462,
      "aka": 6463,
      "genes": 6464,
      "consists": 6465,
      "harm": 6466,
      "runs": 6467,
      "towns": 6468,
      "trained": 6469,
      "reports": 6470,
      "reduce": 6471,
      "refused": 6472,
      "journey": 6473,
      "occupied": 6474,
      "alternative": 6475,
      "totally": 6476,
      "hr": 6477,
      "uce": 6478,
      "otic": 6479,
      "abol": 6480,
      "tel": 6481,
      "gods": 6482,
      "proud": 6483,
      "vessel": 6484,
      "breaking": 6485,
      "promised": 6486,
      "recording": 6487,
      "approved": 6488,
      "clearly": 6489,
      "distingu": 6490,
      "dropped": 6491,
      "claims": 6492,
      "strike": 6493,
      "leadership": 6494,
      "emergency": 6495,
      "premier": 6496,
      "knight": 6497,
      "lau": 6498,
      "mous": 6499,
      "pill": 6500,
      "pher": 6501,
      "chlor": 6502,
      "coron": 6503,
      "corps": 6504,
      "aki": 6505,
      "starts": 6506,
      "yester": 6507,
      "politician": 6508,
      "holds": 6509,
      "officials": 6510,
      "literally": 6511,
      "communication": 6512,
      "waters": 6513,
      "split": 6514,
      "advantage": 6515,
      "refuge": 6516,
      "fare": 6517,
      "mong": 6518,
      "oth": 6519,
      "tat": 6520,
      "infr": 6521,
      "anime": 6522,
      "eral": 6523,
      "ening": 6524,
      "resto": 6525,
      "quiet": 6526,
      "answ": 6527,
      "pope": 6528,
      "turkey": 6529,
      "jean": 6530,
      "waves": 6531,
      "1987": 6532,
      "leads": 6533,
      "1979": 6534,
      "restaur": 6535,
      "bringing": 6536,
      "computers": 6537,
      "fellow": 6538,
      "rupt": 6539,
      "excuse": 6540,
      "credit": 6541,
      "mixed": 6542,
      "determined": 6543,
      "cue": 6544,
      "dum": 6545,
      "sie": 6546,
      "yah": 6547,
      "osaur": 6548,
      "attach": 6549,
      "canadian": 6550,
      "diagn": 6551,
      "disci": 6552,
      "medal": 6553,
      "elections": 6554,
      "typical": 6555,
      "specifically": 6556,
      "indeed": 6557,
      "opposite": 6558,
      "thetic": 6559,
      "aria": 6560,
      "iments": 6561,
      "article": 6562,
      "extr": 6563,
      "worri": 6564,
      "bled": 6565,
      "blind": 6566,
      "standards": 6567,
      "missed": 6568,
      "protected": 6569,
      "allowing": 6570,
      "motion": 6571,
      "corporation": 6572,
      "absolutely": 6573,
      "chosen": 6574,
      "sustain": 6575,
      "cze": 6576,
      "kit": 6577,
      "smell": 6578,
      "enem": 6579,
      "aspect": 6580,
      "roof": 6581,
      "unable": 6582,
      "aga": 6583,
      "mayor": 6584,
      "northeast": 6585,
      "raise": 6586,
      "singles": 6587,
      "headquarters": 6588,
      "milk": 6589,
      "technologies": 6590,
      "requires": 6591,
      "copies": 6592,
      "expensive": 6593,
      "ladies": 6594,
      "quarter": 6595,
      "alliance": 6596,
      "yesterday": 6597,
      "bure": 6598,
      "daddy": 6599,
      "gol": 6600,
      "jac": 6601,
      "lum": 6602,
      "tough": 6603,
      "vest": 6604,
      "thin": 6605,
      "sem": 6606,
      "supre": 6607,
      "noon": 6608,
      "spin": 6609,
      "causing": 6610,
      "warsaw": 6611,
      "solve": 6612,
      "buried": 6613,
      "patro": 6614,
      "organic": 6615,
      "ffic": 6616,
      "teaching": 6617,
      "administrative": 6618,
      "phenom": 6619,
      "details": 6620,
      "inhabitants": 6621,
      "dos": 6622,
      "edia": 6623,
      "heaven": 6624,
      "conqu": 6625,
      "pear": 6626,
      "anton": 6627,
      "export": 6628,
      "acted": 6629,
      "monarch": 6630,
      "drama": 6631,
      "surrender": 6632,
      "heads": 6633,
      "1982": 6634,
      "officers": 6635,
      "1970s": 6636,
      "moscow": 6637,
      "relationships": 6638,
      "conduct": 6639,
      "dal": 6640,
      "dun": 6641,
      "ipped": 6642,
      "laugh": 6643,
      "lung": 6644,
      "wang": 6645,
      "zam": 6646,
      "repair": 6647,
      "unfortun": 6648,
      "optim": 6649,
      "shel": 6650,
      "phan": 6651,
      "overall": 6652,
      "correspon": 6653,
      "elev": 6654,
      "killer": 6655,
      "ternal": 6656,
      "1940": 6657,
      "1963": 6658,
      "shortly": 6659,
      "mistake": 6660,
      "destroyer": 6661,
      "chemistry": 6662,
      "refers": 6663,
      "slightly": 6664,
      "stairs": 6665,
      "1st": 6666,
      "gory": 6667,
      "iar": 6668,
      "ss": 6669,
      "sic": 6670,
      "sacr": 6671,
      "von": 6672,
      "org": 6673,
      "icon": 6674,
      "bei": 6675,
      "deplo": 6676,
      "conce": 6677,
      "comment": 6678,
      "proceed": 6679,
      "cope": 6680,
      "label": 6681,
      "letters": 6682,
      "gather": 6683,
      "legs": 6684,
      "importance": 6685,
      "pressed": 6686,
      "technical": 6687,
      "explos": 6688,
      "roads": 6689,
      "providing": 6690,
      "millions": 6691,
      "definitely": 6692,
      "aire": 6693,
      "fighter": 6694,
      "kir": 6695,
      "pul": 6696,
      "ross": 6697,
      "theor": 6698,
      "arrange": 6699,
      "stations": 6700,
      "veget": 6701,
      "impossible": 6702,
      "uten": 6703,
      "frag": 6704,
      "derived": 6705,
      "bron": 6706,
      "inet": 6707,
      "versions": 6708,
      "values": 6709,
      "treas": 6710,
      "ulture": 6711,
      "feels": 6712,
      "rush": 6713,
      "processes": 6714,
      "hunting": 6715,
      "greece": 6716,
      "oxide": 6717,
      "footballer": 6718,
      "existence": 6719,
      "concerned": 6720,
      "pieces": 6721,
      "selected": 6722,
      "sweden": 6723,
      "residents": 6724,
      "gentlemen": 6725,
      "permanent": 6726,
      "conversation": 6727,
      "99": 6728,
      "dated": 6729,
      "fate": 6730,
      "gift": 6731,
      "oon": 6732,
      "inations": 6733,
      "alpha": 6734,
      "comed": 6735,
      "duke": 6736,
      "dubai": 6737,
      "fav": 6738,
      "ensity": 6739,
      "anean": 6740,
      "1939": 6741,
      "healthy": 6742,
      "martin": 6743,
      "scored": 6744,
      "suffered": 6745,
      "bacteria": 6746,
      "admiral": 6747,
      "88": 6748,
      "lis": 6749,
      "pit": 6750,
      "rural": 6751,
      "sang": 6752,
      "rein": 6753,
      "allied": 6754,
      "stim": 6755,
      "mov": 6756,
      "hasn": 6757,
      "bling": 6758,
      "medium": 6759,
      "cert": 6760,
      "hole": 6761,
      "northwest": 6762,
      "factors": 6763,
      "1962": 6764,
      "protein": 6765,
      "appropri": 6766,
      "truly": 6767,
      "experienced": 6768,
      "detective": 6769,
      "scotland": 6770,
      "olympics": 6771,
      "arrested": 6772,
      "provinces": 6773,
      "normally": 6774,
      "theore": 6775,
      "remind": 6776,
      "arct": 6777,
      "bean": 6778,
      "adam": 6779,
      "compr": 6780,
      "antine": 6781,
      "acle": 6782,
      "astro": 6783,
      "spoke": 6784,
      "jobs": 6785,
      "1960s": 6786,
      "testing": 6787,
      "containing": 6788,
      "walls": 6789,
      "soft": 6790,
      "constructed": 6791,
      "hydrogen": 6792,
      "alexander": 6793,
      "secure": 6794,
      "apparently": 6795,
      "newspaper": 6796,
      "ultimately": 6797,
      "belief": 6798,
      "satellite": 6799,
      "photos": 6800,
      "deputy": 6801,
      "66": 6802,
      "jur": 6803,
      "lun": 6804,
      "sna": 6805,
      "adul": 6806,
      "ulty": 6807,
      "shir": 6808,
      "giant": 6809,
      "statement": 6810,
      "harry": 6811,
      "lawyer": 6812,
      "sciences": 6813,
      "autonom": 6814,
      "seemed": 6815,
      "combination": 6816,
      "concert": 6817,
      "carrier": 6818,
      "ethnic": 6819,
      "religion": 6820,
      "railway": 6821,
      "obviously": 6822,
      "bly": 6823,
      "fab": 6824,
      "gos": 6825,
      "gian": 6826,
      "kn": 6827,
      "rif": 6828,
      "tum": 6829,
      "tren": 6830,
      "vul": 6831,
      "ani": 6832,
      "advert": 6833,
      "liked": 6834,
      "ultural": 6835,
      "achieved": 6836,
      "carol": 6837,
      "operate": 6838,
      "matic": 6839,
      "decades": 6840,
      "balance": 6841,
      "winner": 6842,
      "peninsu": 6843,
      "nucle": 6844,
      "forests": 6845,
      "olympic": 6846,
      "desert": 6847,
      "egyptian": 6848,
      "bureau": 6849,
      ");": 6850,
      "95": 6851,
      "bou": 6852,
      "ora": 6853,
      "nether": 6854,
      "rivers": 6855,
      "grab": 6856,
      "serie": 6857,
      "mediter": 6858,
      "jews": 6859,
      "calm": 6860,
      "attle": 6861,
      "childhood": 6862,
      "1983": 6863,
      "1984": 6864,
      "ugal": 6865,
      "banks": 6866,
      "recei": 6867,
      "damaged": 6868,
      "recognition": 6869,
      "mathematics": 6870,
      "contrast": 6871,
      "atmosphere": 6872,
      "mediterr": 6873,
      "2nd": 6874,
      "bare": 6875,
      "kaz": 6876,
      "mia": 6877,
      "pod": 6878,
      "yard": 6879,
      "isto": 6880,
      "escap": 6881,
      "armen": 6882,
      "sector": 6883,
      "ays": 6884,
      "absor": 6885,
      "neu": 6886,
      "neither": 6887,
      "bye": 6888,
      "moves": 6889,
      "sher": 6890,
      "solutions": 6891,
      "resulted": 6892,
      "dying": 6893,
      "appearances": 6894,
      "1958": 6895,
      "closely": 6896,
      "emphas": 6897,
      "empty": 6898,
      "representative": 6899,
      "involve": 6900,
      "linked": 6901,
      "dominant": 6902,
      "closer": 6903,
      "democracy": 6904,
      "platform": 6905,
      "adapt": 6906,
      "convention": 6907,
      "indonesia": 6908,
      "heritage": 6909,
      "pakistan": 6910,
      "afghanistan": 6911,
      "supreme": 6912,
      "kor": 6913,
      "tie": 6914,
      "entry": 6915,
      "agents": 6916,
      "divor": 6917,
      "iano": 6918,
      "cros": 6919,
      "renamed": 6920,
      "archived": 6921,
      "hydr": 6922,
      "1946": 6923,
      "1972": 6924,
      "1976": 6925,
      "salt": 6926,
      "expans": 6927,
      "structures": 6928,
      "historic": 6929,
      "dreams": 6930,
      "intel": 6931,
      "shooting": 6932,
      "dedicated": 6933,
      "planets": 6934,
      "fixed": 6935,
      "frequently": 6936,
      "acquired": 6937,
      "filled": 6938,
      "subsequent": 6939,
      "argentina": 6940,
      "roughly": 6941,
      "random": 6942,
      "abandoned": 6943,
      "fficient": 6944,
      "mediterranean": 6945,
      "41": 6946,
      "72": 6947,
      "tight": 6948,
      "ori": 6949,
      "chess": 6950,
      "meter": 6951,
      "context": 6952,
      "option": 6953,
      "myth": 6954,
      "dia": 6955,
      "collap": 6956,
      "producer": 6957,
      "populations": 6958,
      "hyper": 6959,
      "aired": 6960,
      "bond": 6961,
      "markets": 6962,
      "diction": 6963,
      "settled": 6964,
      "theatre": 6965,
      "exclus": 6966,
      "gulf": 6967,
      "peninsula": 6968,
      "ape": 6969,
      "dat": 6970,
      "ux": 6971,
      "yang": 6972,
      "ال": 6973,
      "theater": 6974,
      "ala": 6975,
      "toms": 6976,
      "ario": 6977,
      "igen": 6978,
      "shore": 6979,
      "colog": 6980,
      "compound": 6981,
      "videos": 6982,
      "harbor": 6983,
      "1974": 6984,
      "1969": 6985,
      "equival": 6986,
      "titles": 6987,
      "fired": 6988,
      "cules": 6989,
      "separated": 6990,
      "cuba": 6991,
      "expanded": 6992,
      "victims": 6993,
      "maximum": 6994,
      "neutral": 6995,
      "suddenly": 6996,
      "enemies": 6997,
      "98": 6998,
      "aqu": 6999,
      "cod": 7000,
      "cure": 7001,
      "fron": 7002,
      "resign": 7003,
      "notable": 7004,
      "loyal": 7005,
      "venez": 7006,
      "committed": 7007,
      "producing": 7008,
      "writ": 7009,
      "smith": 7010,
      "priest": 7011,
      "busy": 7012,
      "biology": 7013,
      "universal": 7014,
      "netic": 7015,
      "successor": 7016,
      "existing": 7017,
      "institutions": 7018,
      "satis": 7019,
      "swedish": 7020,
      "agriculture": 7021,
      "rapidly": 7022,
      "turkish": 7023,
      "appreciate": 7024,
      "worried": 7025,
      ".'": 7026,
      "800": 7027,
      "bian": 7028,
      "cers": 7029,
      "dies": 7030,
      "daw": 7031,
      "ec": 7032,
      "ek": 7033,
      "ras": 7034,
      "án": 7035,
      "infection": 7036,
      "theme": 7037,
      "enzy": 7038,
      "chen": 7039,
      "chip": 7040,
      "meters": 7041,
      "depression": 7042,
      "tire": 7043,
      "marsh": 7044,
      "gender": 7045,
      "differences": 7046,
      "fund": 7047,
      "1961": 7048,
      "senate": 7049,
      "doubt": 7050,
      "definition": 7051,
      "champions": 7052,
      "influenced": 7053,
      "malaysia": 7054,
      "jesus": 7055,
      "fruit": 7056,
      "):": 7057,
      "64": 7058,
      "nest": 7059,
      "ninten": 7060,
      "rach": 7061,
      "rub": 7062,
      "tin": 7063,
      "twel": 7064,
      "tha": 7065,
      "inse": 7066,
      "proced": 7067,
      "doctors": 7068,
      "canal": 7069,
      "exhib": 7070,
      "peru": 7071,
      "talent": 7072,
      "solo": 7073,
      "biological": 7074,
      "1970": 7075,
      "volcan": 7076,
      "rison": 7077,
      "interests": 7078,
      "defence": 7079,
      "figured": 7080,
      "advice": 7081,
      "familiar": 7082,
      "attempted": 7083,
      "municipal": 7084,
      "employed": 7085,
      "citizen": 7086,
      "santa": 7087,
      "ranked": 7088,
      "philosophy": 7089,
      "conscious": 7090,
      "prominent": 7091,
      "deploy": 7092,
      "cous": 7093,
      "ining": 7094,
      "itzer": 7095,
      "seoul": 7096,
      "determ": 7097,
      "excell": 7098,
      "rival": 7099,
      "ghost": 7100,
      "pron": 7101,
      "phos": 7102,
      "understood": 7103,
      "warning": 7104,
      "southwest": 7105,
      "fundam": 7106,
      "1981": 7107,
      "lights": 7108,
      "1973": 7109,
      "wales": 7110,
      "radiation": 7111,
      "clubs": 7112,
      "marketing": 7113,
      "license": 7114,
      "hoping": 7115,
      "complicated": 7116,
      "machines": 7117,
      "nintendo": 7118,
      "determine": 7119,
      "oster": 7120,
      "ante": 7121,
      "orbit": 7122,
      "semi": 7123,
      "entr": 7124,
      "weigh": 7125,
      "therapy": 7126,
      "agers": 7127,
      "ieties": 7128,
      "sailed": 7129,
      "coordin": 7130,
      "foc": 7131,
      "poe": 7132,
      "ologist": 7133,
      "lieuten": 7134,
      "helping": 7135,
      "governments": 7136,
      "careful": 7137,
      "controver": 7138,
      "1960": 7139,
      "continues": 7140,
      "falls": 7141,
      "reference": 7142,
      "suspect": 7143,
      "slowly": 7144,
      "settlement": 7145,
      "agricultural": 7146,
      "florida": 7147,
      "52": 7148,
      "68": 7149,
      "cin": 7150,
      "cular": 7151,
      "jail": 7152,
      "pier": 7153,
      "vous": 7154,
      "ów": 7155,
      "reform": 7156,
      "reput": 7157,
      "recru": 7158,
      "andro": 7159,
      "chose": 7160,
      "usa": 7161,
      "consequ": 7162,
      "contemporary": 7163,
      "opposition": 7164,
      "maj": 7165,
      "mars": 7166,
      "phones": 7167,
      "crete": 7168,
      "surger": 7169,
      "scout": 7170,
      "signs": 7171,
      "deaths": 7172,
      "instance": 7173,
      "stayed": 7174,
      "facilities": 7175,
      "layer": 7176,
      "distributed": 7177,
      "communications": 7178,
      "surrounding": 7179,
      "bone": 7180,
      "bunch": 7181,
      "cine": 7182,
      "gri": 7183,
      "jet": 7184,
      "tus": 7185,
      "retired": 7186,
      "alo": 7187,
      "diale": 7188,
      "cler": 7189,
      "clust": 7190,
      "rent": 7191,
      "destru": 7192,
      "versity": 7193,
      "18th": 7194,
      "evacu": 7195,
      "scul": 7196,
      "follows": 7197,
      "juli": 7198,
      "1968": 7199,
      "successfully": 7200,
      "trading": 7201,
      "extensive": 7202,
      "boyfriend": 7203,
      "storage": 7204,
      "figures": 7205,
      "prisoners": 7206,
      "improved": 7207,
      "temperatures": 7208,
      "increasingly": 7209,
      "benefit": 7210,
      "finger": 7211,
      "survey": 7212,
      "paralle": 7213,
      "comfortable": 7214,
      "ottoman": 7215,
      "77": 7216,
      "gab": 7217,
      "gment": 7218,
      "lag": 7219,
      "nis": 7220,
      "nose": 7221,
      "phe": 7222,
      "scor": 7223,
      "ull": 7224,
      "vast": 7225,
      "vary": 7226,
      "editor": 7227,
      "forgive": 7228,
      "haw": 7229,
      "ota": 7230,
      "suicide": 7231,
      "somehow": 7232,
      "tier": 7233,
      "fox": 7234,
      "mond": 7235,
      "monu": 7236,
      "rence": 7237,
      "portugal": 7238,
      "everywhere": 7239,
      "warri": 7240,
      "flash": 7241,
      "obtain": 7242,
      "charges": 7243,
      "easier": 7244,
      "holiday": 7245,
      "villages": 7246,
      "grandfather": 7247,
      "pedo": 7248,
      "arrival": 7249,
      "billboard": 7250,
      "decisions": 7251,
      "heavily": 7252,
      "investigation": 7253,
      "succeeded": 7254,
      "territories": 7255,
      "ceremony": 7256,
      "netherlands": 7257,
      "expansion": 7258,
      "hunt": 7259,
      "jung": 7260,
      "oi": 7261,
      "pom": 7262,
      "sought": 7263,
      "skills": 7264,
      "vine": 7265,
      "angry": 7266,
      "sees": 7267,
      "amin": 7268,
      "bers": 7269,
      "grace": 7270,
      "afford": 7271,
      "disney": 7272,
      "preced": 7273,
      "creative": 7274,
      "forming": 7275,
      "spell": 7276,
      "dragon": 7277,
      "earned": 7278,
      "engaged": 7279,
      "transition": 7280,
      "studying": 7281,
      "formerly": 7282,
      "promotion": 7283,
      "tanks": 7284,
      "policies": 7285,
      "expressed": 7286,
      "neighbour": 7287,
      "prepare": 7288,
      "gil": 7289,
      "juni": 7290,
      "pup": 7291,
      "sac": 7292,
      "vas": 7293,
      "yam": 7294,
      "onic": 7295,
      "remove": 7296,
      "remot": 7297,
      "algor": 7298,
      "opposed": 7299,
      "output": 7300,
      "shor": 7301,
      "guil": 7302,
      "disput": 7303,
      "cav": 7304,
      "lax": 7305,
      "highway": 7306,
      "helps": 7307,
      "merch": 7308,
      "mike": 7309,
      "designated": 7310,
      "seasons": 7311,
      "hearing": 7312,
      "describe": 7313,
      "wheel": 7314,
      "torpedo": 7315,
      "fifa": 7316,
      "strategic": 7317,
      "suffering": 7318,
      "250": 7319,
      "96": 7320,
      "dates": 7321,
      "fred": 7322,
      "gay": 7323,
      "kon": 7324,
      "khan": 7325,
      "mers": 7326,
      "rating": 7327,
      "zes": 7328,
      "rey": 7329,
      "unte": 7330,
      "soph": 7331,
      "acce": 7332,
      "guit": 7333,
      "server": 7334,
      "positions": 7335,
      "enses": 7336,
      "athlet": 7337,
      "steel": 7338,
      "burning": 7339,
      "1947": 7340,
      "feelings": 7341,
      "volunte": 7342,
      "tomb": 7343,
      "listening": 7344,
      "situated": 7345,
      "sharing": 7346,
      "graduate": 7347,
      "surprise": 7348,
      "neighborhood": 7349,
      "electronic": 7350,
      "trigger": 7351,
      "georgia": 7352,
      "ancest": 7353,
      "liquid": 7354,
      "discipl": 7355,
      "venezuel": 7356,
      "lieutenant": 7357,
      "algorith": 7358,
      "fold": 7359,
      "mum": 7360,
      "sn": 7361,
      "ule": 7362,
      "ima": 7363,
      "aret": 7364,
      "uded": 7365,
      "poet": 7366,
      "syrian": 7367,
      "drag": 7368,
      "hook": 7369,
      "tribes": 7370,
      "missions": 7371,
      "bush": 7372,
      "1954": 7373,
      "weekend": 7374,
      "enterpr": 7375,
      "drawn": 7376,
      "fishing": 7377,
      "budget": 7378,
      "brazilian": 7379,
      "punish": 7380,
      "conservation": 7381,
      "pleasure": 7382,
      "opinion": 7383,
      "movies": 7384,
      "cart": 7385,
      "dp": 7386,
      "oto": 7387,
      "sid": 7388,
      "xi": 7389,
      "oshi": 7390,
      "reci": 7391,
      "allies": 7392,
      "oted": 7393,
      "iring": 7394,
      "abs": 7395,
      "convin": 7396,
      "keys": 7397,
      "pler": 7398,
      "exists": 7399,
      "akh": 7400,
      "poses": 7401,
      "relative": 7402,
      "solved": 7403,
      "1978": 7404,
      "apping": 7405,
      "expedition": 7406,
      "kov": 7407,
      "concern": 7408,
      "introduce": 7409,
      "commissioned": 7410,
      "graduated": 7411,
      "patterns": 7412,
      "symptoms": 7413,
      "remote": 7414,
      "76": 7415,
      "700": 7416,
      "gap": 7417,
      "hil": 7418,
      "scan": 7419,
      "vae": 7420,
      "‎)": 7421,
      "infl": 7422,
      "chor": 7423,
      "illust": 7424,
      "rescue": 7425,
      "essential": 7426,
      "clan": 7427,
      "prus": 7428,
      "formula": 7429,
      "afternoon": 7430,
      "bull": 7431,
      "mainland": 7432,
      "1971": 7433,
      "explo": 7434,
      "philip": 7435,
      "existed": 7436,
      "circle": 7437,
      "participate": 7438,
      "attempts": 7439,
      "hiding": 7440,
      "colonial": 7441,
      "taste": 7442,
      "electricity": 7443,
      "wolf": 7444,
      "vehicle": 7445,
      "technique": 7446,
      "incorporated": 7447,
      "founder": 7448,
      "struggle": 7449,
      "pharma": 7450,
      "mongol": 7451,
      "focused": 7452,
      "driver": 7453,
      "ias": 7454,
      "kok": 7455,
      "lion": 7456,
      "mere": 7457,
      "sau": 7458,
      "zing": 7459,
      "ía": 7460,
      "inner": 7461,
      "infan": 7462,
      "ania": 7463,
      "retail": 7464,
      "attribut": 7465,
      "oma": 7466,
      "wet": 7467,
      "teeth": 7468,
      "maker": 7469,
      "agues": 7470,
      "cloud": 7471,
      "seek": 7472,
      "comput": 7473,
      "download": 7474,
      "helic": 7475,
      "finds": 7476,
      "files": 7477,
      "bury": 7478,
      "ashi": 7479,
      "1964": 7480,
      "sale": 7481,
      "flowers": 7482,
      "coastal": 7483,
      "confess": 7484,
      "significantly": 7485,
      "narrow": 7486,
      "score": 7487,
      "substant": 7488,
      "protocol": 7489,
      "surrounded": 7490,
      "categor": 7491,
      "category": 7492,
      "efficient": 7493,
      "bishop": 7494,
      "circumst": 7495,
      "equivalent": 7496,
      "athen": 7497,
      "adel": 7498,
      "fans": 7499,
      "gut": 7500,
      "sli": 7501,
      "wow": 7502,
      "err": 7503,
      "renew": 7504,
      "beer": 7505,
      "illi": 7506,
      "ulous": 7507,
      "shift": 7508,
      "2020": 7509,
      "diam": 7510,
      "sail": 7511,
      "newly": 7512,
      "laid": 7513,
      "finance": 7514,
      "planes": 7515,
      "explained": 7516,
      "rooms": 7517,
      "uki": 7518,
      "1959": 7519,
      "recognize": 7520,
      "expression": 7521,
      "evolved": 7522,
      "industries": 7523,
      "possibility": 7524,
      "debt": 7525,
      "establishment": 7526,
      "surprised": 7527,
      "index": 7528,
      "eliza": 7529,
      "grave": 7530,
      "components": 7531,
      "clinical": 7532,
      "poetry": 7533,
      "120": 7534,
      "cards": 7535,
      "evalu": 7536,
      "pc": 7537,
      "pto": 7538,
      "sq": 7539,
      "swear": 7540,
      "tang": 7541,
      "toxic": 7542,
      "leon": 7543,
      "illegal": 7544,
      "chica": 7545,
      "chrom": 7546,
      "heim": 7547,
      "dem": 7548,
      "hawa": 7549,
      "geome": 7550,
      "proved": 7551,
      "quit": 7552,
      "marks": 7553,
      "crush": 7554,
      "udes": 7555,
      "pred": 7556,
      "finite": 7557,
      "charged": 7558,
      "covering": 7559,
      "eases": 7560,
      "supporting": 7561,
      "switzer": 7562,
      "horiz": 7563,
      "reaching": 7564,
      "tourism": 7565,
      "facing": 7566,
      "defend": 7567,
      "measures": 7568,
      "navig": 7569,
      "academic": 7570,
      "emotional": 7571,
      "techniques": 7572,
      "oliver": 7573,
      "eggs": 7574,
      "employees": 7575,
      "appropriate": 7576,
      "phosph": 7577,
      "surgery": 7578,
      "junior": 7579,
      "switzerland": 7580,
      "dare": 7581,
      "dust": 7582,
      "eigh": 7583,
      "gers": 7584,
      "jar": 7585,
      "theless": 7586,
      "enna": 7587,
      "mex": 7588,
      "decade": 7589,
      "vere": 7590,
      "onel": 7591,
      "shif": 7592,
      "manga": 7593,
      "rix": 7594,
      "umes": 7595,
      "naiss": 7596,
      "eleph": 7597,
      "singing": 7598,
      "breath": 7599,
      "shame": 7600,
      "jane": 7601,
      "1953": 7602,
      "daniel": 7603,
      "drawing": 7604,
      "critics": 7605,
      "laboratory": 7606,
      "breeding": 7607,
      "revolutionary": 7608,
      "regarded": 7609,
      "restaurant": 7610,
      "phenomen": 7611,
      "beijing": 7612,
      "sculpt": 7613,
      "chicago": 7614,
      "naissance": 7615,
      "53": 7616,
      "aus": 7617,
      "nin": 7618,
      "pic": 7619,
      "pover": 7620,
      "tical": 7621,
      "represents": 7622,
      "icians": 7623,
      "depos": 7624,
      "hab": 7625,
      "hai": 7626,
      "imate": 7627,
      "teles": 7628,
      "protest": 7629,
      "doors": 7630,
      "rio": 7631,
      "diseases": 7632,
      "formally": 7633,
      "monitor": 7634,
      "carib": 7635,
      "vised": 7636,
      "engines": 7637,
      "brook": 7638,
      "1965": 7639,
      "depth": 7640,
      "faced": 7641,
      "districts": 7642,
      "1938": 7643,
      "darkness": 7644,
      "borders": 7645,
      "liberal": 7646,
      "molecules": 7647,
      "cabinet": 7648,
      "mathematical": 7649,
      "dimens": 7650,
      "organisms": 7651,
      "elder": 7652,
      "twelve": 7653,
      "poverty": 7654,
      "58": 7655,
      "fiction": 7656,
      "kas": 7657,
      "pounds": 7658,
      "tap": 7659,
      "tiny": 7660,
      "uz": 7661,
      "inary": 7662,
      "youtube": 7663,
      "owe": 7664,
      "heal": 7665,
      "unusual": 7666,
      "idae": 7667,
      "loves": 7668,
      "perspe": 7669,
      "permission": 7670,
      "grat": 7671,
      "prose": 7672,
      "drinking": 7673,
      "archae": 7674,
      "fried": 7675,
      "profile": 7676,
      "placing": 7677,
      "sixth": 7678,
      "earthqu": 7679,
      "albums": 7680,
      "weekly": 7681,
      "engineer": 7682,
      "survived": 7683,
      "client": 7684,
      "documents": 7685,
      "registered": 7686,
      "vehicles": 7687,
      "favour": 7688,
      "arctic": 7689,
      "crossing": 7690,
      "perspective": 7691,
      "gust": 7692,
      "kos": 7693,
      "vince": 7694,
      "wides": 7695,
      "sters": 7696,
      "una": 7697,
      "aming": 7698,
      "plot": 7699,
      "shield": 7700,
      "dian": 7701,
      "diet": 7702,
      "deriv": 7703,
      "spending": 7704,
      "iana": 7705,
      "joe": 7706,
      "larvae": 7707,
      "identify": 7708,
      "gium": 7709,
      "depends": 7710,
      "austria": 7711,
      "falling": 7712,
      "gradually": 7713,
      "pyram": 7714,
      "frequency": 7715,
      "studios": 7716,
      "manufacturing": 7717,
      "delivered": 7718,
      "candidate": 7719,
      "insurance": 7720,
      "guitar": 7721,
      "3rd": 7722,
      "mn": 7723,
      "nt": 7724,
      "pad": 7725,
      "pper": 7726,
      "ua": 7727,
      "vant": 7728,
      "yle": 7729,
      "arsen": 7730,
      "itis": 7731,
      "noticed": 7732,
      "tage": 7733,
      "expos": 7734,
      "divisions": 7735,
      "sile": 7736,
      "pread": 7737,
      "serves": 7738,
      "angle": 7739,
      "desire": 7740,
      "epis": 7741,
      "talks": 7742,
      "fled": 7743,
      "regime": 7744,
      "submarine": 7745,
      "muscle": 7746,
      "meanwhile": 7747,
      "funds": 7748,
      "releg": 7749,
      "opera": 7750,
      "shaped": 7751,
      "delay": 7752,
      "1966": 7753,
      "balls": 7754,
      "approval": 7755,
      "dealing": 7756,
      "arriving": 7757,
      "institution": 7758,
      "murdered": 7759,
      "principle": 7760,
      "carrying": 7761,
      "pilot": 7762,
      "performing": 7763,
      "victoria": 7764,
      "modified": 7765,
      "unfortunately": 7766,
      "helicop": 7767,
      "caribbean": 7768,
      "cree": 7769,
      "fro": 7770,
      "hob": 7771,
      "iency": 7772,
      "lb": 7773,
      "yi": 7774,
      "tho": 7775,
      "theas": 7776,
      "deleg": 7777,
      "devil": 7778,
      "kel": 7779,
      "apol": 7780,
      "byz": 7781,
      "brig": 7782,
      "brings": 7783,
      "afterwards": 7784,
      "jection": 7785,
      "stands": 7786,
      "17th": 7787,
      "networks": 7788,
      "equation": 7789,
      "programming": 7790,
      "cops": 7791,
      "breakfast": 7792,
      "diego": 7793,
      "introduction": 7794,
      "appointment": 7795,
      "detect": 7796,
      "visitors": 7797,
      "trials": 7798,
      "hungary": 7799,
      "false": 7800,
      "pregnant": 7801,
      "guilty": 7802,
      "widespread": 7803,
      "57": 7804,
      "bind": 7805,
      "hmm": 7806,
      "lunch": 7807,
      "pok": 7808,
      "til": 7809,
      "vak": 7810,
      "instruct": 7811,
      "relax": 7812,
      "alask": 7813,
      "seal": 7814,
      "roles": 7815,
      "adi": 7816,
      "females": 7817,
      "shire": 7818,
      "butter": 7819,
      "exceed": 7820,
      "aux": 7821,
      "thered": 7822,
      "inea": 7823,
      "guards": 7824,
      "precise": 7825,
      "whereas": 7826,
      "pole": 7827,
      "colonel": 7828,
      "happiness": 7829,
      "attor": 7830,
      "anny": 7831,
      "1949": 7832,
      "staying": 7833,
      "1956": 7834,
      "seventh": 7835,
      "departed": 7836,
      "papers": 7837,
      "amounts": 7838,
      "threatened": 7839,
      "ranged": 7840,
      "employment": 7841,
      "innocent": 7842,
      "adults": 7843,
      "phenomenon": 7844,
      "theastern": 7845,
      "4th": 7846,
      "mud": 7847,
      "sion": 7848,
      "inate": 7849,
      "inction": 7850,
      "inspir": 7851,
      "toy": 7852,
      "arthur": 7853,
      "stab": 7854,
      "terior": 7855,
      "uri": 7856,
      "tile": 7857,
      "ichi": 7858,
      "format": 7859,
      "intermedi": 7860,
      "aku": 7861,
      "choices": 7862,
      "barry": 7863,
      "1948": 7864,
      "portray": 7865,
      "apply": 7866,
      "truct": 7867,
      "motiv": 7868,
      "featuring": 7869,
      "flower": 7870,
      "scientist": 7871,
      "measured": 7872,
      "nominated": 7873,
      "homes": 7874,
      "joining": 7875,
      "transportation": 7876,
      "regarding": 7877,
      "duties": 7878,
      "column": 7879,
      "valuable": 7880,
      "ukraine": 7881,
      "pearl": 7882,
      "elizabeth": 7883,
      "69": 7884,
      "kne": 7885,
      "raf": 7886,
      "saudi": 7887,
      "vamp": 7888,
      "inch": 7889,
      "rebel": 7890,
      "oured": 7891,
      "albert": 7892,
      "eda": 7893,
      "items": 7894,
      "irus": 7895,
      "urb": 7896,
      "convoy": 7897,
      "shō": 7898,
      "artific": 7899,
      "manchester": 7900,
      "sake": 7901,
      "bruce": 7902,
      "erson": 7903,
      "bless": 7904,
      "norway": 7905,
      "supplies": 7906,
      "ologists": 7907,
      "moral": 7908,
      "merged": 7909,
      "burned": 7910,
      "hired": 7911,
      "1967": 7912,
      "ngc": 7913,
      "cheese": 7914,
      "woods": 7915,
      "decline": 7916,
      "soldier": 7917,
      "substit": 7918,
      "israeli": 7919,
      "hills": 7920,
      "virginia": 7921,
      "customers": 7922,
      "fossil": 7923,
      "fundamental": 7924,
      "infantry": 7925,
      "horizon": 7926,
      "51": 7927,
      "blo": 7928,
      "bah": 7929,
      "dating": 7930,
      "jav": 7931,
      "icy": 7932,
      "betray": 7933,
      "accompl": 7934,
      "sheep": 7935,
      "coat": 7936,
      "hadn": 7937,
      "pulled": 7938,
      "jeff": 7939,
      "appeal": 7940,
      "patri": 7941,
      "keeps": 7942,
      "grapher": 7943,
      "businesses": 7944,
      "1957": 7945,
      "continuous": 7946,
      "shoes": 7947,
      "graphical": 7948,
      "experiences": 7949,
      "concerns": 7950,
      "crossed": 7951,
      "exciting": 7952,
      "manufactur": 7953,
      "journalist": 7954,
      "thirty": 7955,
      "napole": 7956,
      "resolution": 7957,
      "incredible": 7958,
      "shadow": 7959,
      "datab": 7960,
      "fasc": 7961,
      "nish": 7962,
      "tay": 7963,
      "vors": 7964,
      "eric": 7965,
      "rejected": 7966,
      "enos": 7967,
      "ende": 7968,
      "ensure": 7969,
      "alice": 7970,
      "decess": 7971,
      "ament": 7972,
      "urally": 7973,
      "abu": 7974,
      "likes": 7975,
      "ifice": 7976,
      "rescu": 7977,
      "loan": 7978,
      "embr": 7979,
      "marg": 7980,
      "cave": 7981,
      "caval": 7982,
      "predecess": 7983,
      "intervent": 7984,
      "overseas": 7985,
      "parad": 7986,
      "versary": 7987,
      "angel": 7988,
      "legit": 7989,
      "hardly": 7990,
      "belgium": 7991,
      "penn": 7992,
      "advoc": 7993,
      "practical": 7994,
      "expert": 7995,
      "hidden": 7996,
      "prototype": 7997,
      "extraordinary": 7998,
      "relief": 7999,
      "1950s": 8000,
      "1930s": 8001,
      "wounded": 8002,
      "escaped": 8003,
      "reputation": 8004,
      "acceler": 8005,
      "bac": 8006,
      "bread": 8007,
      "dv": 8008,
      "gig": 8009,
      "mend": 8010,
      "pione": 8011,
      "inian": 8012,
      "ancy": 8013,
      "ert": 8014,
      "charts": 8015,
      "neo": 8016,
      "trin": 8017,
      "shi": 8018,
      "essentially": 8019,
      "nobel": 8020,
      "indigen": 8021,
      "partners": 8022,
      "colony": 8023,
      "desk": 8024,
      "valid": 8025,
      "trave": 8026,
      "nervous": 8027,
      "linear": 8028,
      "continental": 8029,
      "economics": 8030,
      "belt": 8031,
      "effectively": 8032,
      "flew": 8033,
      "1937": 8034,
      "contained": 8035,
      "teachers": 8036,
      "circu": 8037,
      "madrid": 8038,
      "declar": 8039,
      "bulgar": 8040,
      "promote": 8041,
      "steps": 8042,
      "earliest": 8043,
      "executed": 8044,
      "constitutional": 8045,
      "kilometers": 8046,
      "smoke": 8047,
      "farmers": 8048,
      "scholar": 8049,
      "scholars": 8050,
      "lithuan": 8051,
      "parallel": 8052,
      "62": 8053,
      "93": 8054,
      "cution": 8055,
      "gates": 8056,
      "hut": 8057,
      "mone": 8058,
      "wich": 8059,
      "ão": 8060,
      "thal": 8061,
      "resu": 8062,
      "reward": 8063,
      "eds": 8064,
      "ilit": 8065,
      "usal": 8066,
      "sufficient": 8067,
      "apers": 8068,
      "ife": 8069,
      "estate": 8070,
      "excess": 8071,
      "nah": 8072,
      "caes": 8073,
      "monster": 8074,
      "landed": 8075,
      "akes": 8076,
      "colors": 8077,
      "proteins": 8078,
      "returns": 8079,
      "romantic": 8080,
      "swiss": 8081,
      "facility": 8082,
      "dancing": 8083,
      "educational": 8084,
      "popularity": 8085,
      "cultures": 8086,
      "occupation": 8087,
      "benefits": 8088,
      "options": 8089,
      "nigeria": 8090,
      "infras": 8091,
      "attached": 8092,
      "juris": 8093,
      "destruction": 8094,
      "ao": 8095,
      "aunt": 8096,
      "bones": 8097,
      "nag": 8098,
      "oe": 8099,
      "pd": 8100,
      "pages": 8101,
      "osla": 8102,
      "retire": 8103,
      "orches": 8104,
      "itz": 8105,
      "secut": 8106,
      "admit": 8107,
      "constell": 8108,
      "petro": 8109,
      "trap": 8110,
      "sovere": 8111,
      "external": 8112,
      "worn": 8113,
      "gross": 8114,
      "prices": 8115,
      "coin": 8116,
      "naked": 8117,
      "peoples": 8118,
      "syl": 8119,
      "joke": 8120,
      "airlines": 8121,
      "raw": 8122,
      "smile": 8123,
      "adding": 8124,
      "greatly": 8125,
      "lovely": 8126,
      "1977": 8127,
      "16th": 8128,
      "locations": 8129,
      "increases": 8130,
      "walked": 8131,
      "tested": 8132,
      "1951": 8133,
      "animation": 8134,
      "winds": 8135,
      "fluid": 8136,
      "stronger": 8137,
      "samples": 8138,
      "flows": 8139,
      "hurry": 8140,
      "hosted": 8141,
      "delivery": 8142,
      "loud": 8143,
      "survival": 8144,
      "texts": 8145,
      "consisted": 8146,
      "belongs": 8147,
      "rarely": 8148,
      "shopping": 8149,
      "exercise": 8150,
      "consumer": 8151,
      "dramatic": 8152,
      "schedul": 8153,
      "dirty": 8154,
      "alleged": 8155,
      "oblig": 8156,
      "restored": 8157,
      "receiving": 8158,
      "convinced": 8159,
      "attorney": 8160,
      "indigenous": 8161,
      "sovereign": 8162,
      "bbc": 8163,
      "eve": 8164,
      "fs": 8165,
      "jum": 8166,
      "kers": 8167,
      "lone": 8168,
      "sending": 8169,
      "zard": 8170,
      "ín": 8171,
      "inher": 8172,
      "reverse": 8173,
      "ender": 8174,
      "lyr": 8175,
      "amy": 8176,
      "idal": 8177,
      "soci": 8178,
      "tag": 8179,
      "clar": 8180,
      "marines": 8181,
      "guinea": 8182,
      "ache": 8183,
      "drunk": 8184,
      "uefa": 8185,
      "lifetime": 8186,
      "courage": 8187,
      "15th": 8188,
      "funeral": 8189,
      "personally": 8190,
      "depict": 8191,
      "periods": 8192,
      "1936": 8193,
      "mirror": 8194,
      "wondering": 8195,
      "violent": 8196,
      "commerce": 8197,
      "consisting": 8198,
      "governorate": 8199,
      "ranging": 8200,
      "experimental": 8201,
      "columbia": 8202,
      "reflect": 8203,
      "anniversary": 8204,
      "accounts": 8205,
      "answers": 8206,
      "entrance": 8207,
      "5th": 8208,
      "dent": 8209,
      "hits": 8210,
      "oz": 8211,
      "ske": 8212,
      "wy": 8213,
      "remark": 8214,
      "arrow": 8215,
      "decor": 8216,
      "forgot": 8217,
      "iding": 8218,
      "imm": 8219,
      "uted": 8220,
      "sudan": 8221,
      "ighters": 8222,
      "pled": 8223,
      "plastic": 8224,
      "articles": 8225,
      "serge": 8226,
      "monkey": 8227,
      "interpre": 8228,
      "interface": 8229,
      "lakes": 8230,
      "underground": 8231,
      "tale": 8232,
      "generated": 8233,
      "harder": 8234,
      "babies": 8235,
      "girlfriend": 8236,
      "senator": 8237,
      "purposes": 8238,
      "germans": 8239,
      "sentence": 8240,
      "labour": 8241,
      "armies": 8242,
      "buddy": 8243,
      "estimate": 8244,
      "debuted": 8245,
      "session": 8246,
      "memorial": 8247,
      "cambodia": 8248,
      "patrol": 8249,
      "rachel": 8250,
      "infrastruct": 8251,
      "86": 8252,
      "87": 8253,
      "eur": 8254,
      "fbi": 8255,
      "fighters": 8256,
      "mist": 8257,
      "pine": 8258,
      "rhe": 8259,
      "yug": 8260,
      "ée": 8261,
      "infected": 8262,
      "anes": 8263,
      "error": 8264,
      "rebell": 8265,
      "andrew": 8266,
      "leban": 8267,
      "irish": 8268,
      "abroad": 8269,
      "composition": 8270,
      "maur": 8271,
      "persu": 8272,
      "grid": 8273,
      "indu": 8274,
      "hua": 8275,
      "surge": 8276,
      "stole": 8277,
      "stolen": 8278,
      "skull": 8279,
      "personnel": 8280,
      "domain": 8281,
      "views": 8282,
      "moments": 8283,
      "sunday": 8284,
      "bloody": 8285,
      "paying": 8286,
      "lux": 8287,
      "strongly": 8288,
      "sample": 8289,
      "republican": 8290,
      "suggests": 8291,
      "ruption": 8292,
      "links": 8293,
      "sharp": 8294,
      "necessarily": 8295,
      "customer": 8296,
      "fingers": 8297,
      "scenes": 8298,
      "islamic": 8299,
      "colombia": 8300,
      "intellect": 8301,
      "cousin": 8302,
      "circumstances": 8303,
      "mexican": 8304,
      "56": 8305,
      "dose": 8306,
      "fisher": 8307,
      "rag": 8308,
      "sche": 8309,
      "vac": 8310,
      "input": 8311,
      "erup": 8312,
      "alban": 8313,
      "hem": 8314,
      "oles": 8315,
      "igno": 8316,
      "construct": 8317,
      "friday": 8318,
      "maid": 8319,
      "manner": 8320,
      "explan": 8321,
      "somewhat": 8322,
      "upset": 8323,
      "sized": 8324,
      "carl": 8325,
      "borrow": 8326,
      "mala": 8327,
      "trail": 8328,
      "mixt": 8329,
      "aires": 8330,
      "designs": 8331,
      "casual": 8332,
      "collected": 8333,
      "radical": 8334,
      "respond": 8335,
      "processing": 8336,
      "honour": 8337,
      "holly": 8338,
      "researchers": 8339,
      "involving": 8340,
      "oxid": 8341,
      "arabia": 8342,
      "experiments": 8343,
      "confidence": 8344,
      "crimes": 8345,
      "excited": 8346,
      "habitat": 8347,
      "closing": 8348,
      "ipping": 8349,
      "subjects": 8350,
      "hanging": 8351,
      "debate": 8352,
      "molecular": 8353,
      "encouraged": 8354,
      "chapter": 8355,
      "metropolit": 8356,
      "infections": 8357,
      "coronav": 8358,
      "yugosla": 8359,
      "94": 8360,
      "bost": 8361,
      "jones": 8362,
      "lers": 8363,
      "sne": 8364,
      "tens": 8365,
      "insul": 8366,
      "outer": 8367,
      "chand": 8368,
      "entit": 8369,
      "tering": 8370,
      "idad": 8371,
      "apolog": 8372,
      "1918": 8373,
      "notably": 8374,
      "manip": 8375,
      "gray": 8376,
      "interpret": 8377,
      "offers": 8378,
      "letting": 8379,
      "maintained": 8380,
      "mercur": 8381,
      "tony": 8382,
      "powered": 8383,
      "sultan": 8384,
      "kenya": 8385,
      "designer": 8386,
      "equipped": 8387,
      "hardware": 8388,
      "uka": 8389,
      "glas": 8390,
      "penal": 8391,
      "sisters": 8392,
      "profession": 8393,
      "confused": 8394,
      "argued": 8395,
      "frequent": 8396,
      "celebrate": 8397,
      "guests": 8398,
      "virtual": 8399,
      "vocal": 8400,
      "accurate": 8401,
      "vulner": 8402,
      "barely": 8403,
      "artificial": 8404,
      "54": 8405,
      "59": 8406,
      "jon": 8407,
      "khal": 8408,
      "luc": 8409,
      "piano": 8410,
      "tub": 8411,
      "thi": 8412,
      "inn": 8413,
      "anth": 8414,
      "onian": 8415,
      "isha": 8416,
      "cement": 8417,
      "superi": 8418,
      "perce": 8419,
      "actors": 8420,
      "auth": 8421,
      "noise": 8422,
      "gran": 8423,
      "ieval": 8424,
      "cooperation": 8425,
      "marshall": 8426,
      "whenever": 8427,
      "phr": 8428,
      "disappeared": 8429,
      "prefect": 8430,
      "interaction": 8431,
      "izer": 8432,
      "mini": 8433,
      "mines": 8434,
      "founding": 8435,
      "beings": 8436,
      "tribe": 8437,
      "harmon": 8438,
      "naturally": 8439,
      "fortune": 8440,
      "extinct": 8441,
      "aneous": 8442,
      "competed": 8443,
      "connections": 8444,
      "destroyers": 8445,
      "wilson": 8446,
      "shots": 8447,
      "reducing": 8448,
      "traveled": 8449,
      "teenth": 8450,
      "sleeping": 8451,
      "dominated": 8452,
      "repeated": 8453,
      "translated": 8454,
      "fantasy": 8455,
      "installed": 8456,
      "propag": 8457,
      "converted": 8458,
      "electrical": 8459,
      "aspects": 8460,
      "comedy": 8461,
      "excellent": 8462,
      "infrastructure": 8463,
      "06": 8464,
      "09": 8465,
      "cau": 8466,
      "dic": 8467,
      "jong": 8468,
      "pand": 8469,
      "pink": 8470,
      "rant": 8471,
      "xy": 8472,
      "beast": 8473,
      "seats": 8474,
      "adjust": 8475,
      "lib": 8476,
      "convince": 8477,
      "plain": 8478,
      "provision": 8479,
      "ody": 8480,
      "accompan": 8481,
      "isted": 8482,
      "clou": 8483,
      "sav": 8484,
      "whoever": 8485,
      "mining": 8486,
      "boring": 8487,
      "eleven": 8488,
      "lasted": 8489,
      "matrix": 8490,
      "humanity": 8491,
      "programme": 8492,
      "glac": 8493,
      "aneously": 8494,
      "socialist": 8495,
      "prints": 8496,
      "hitler": 8497,
      "magnetic": 8498,
      "soccer": 8499,
      "bullet": 8500,
      "fifty": 8501,
      "licens": 8502,
      "alien": 8503,
      "perfectly": 8504,
      "robin": 8505,
      "adapted": 8506,
      "stalin": 8507,
      "proposal": 8508,
      "theories": 8509,
      "dawn": 8510,
      "mercury": 8511,
      "accompanied": 8512,
      "bb": 8513,
      "hir": 8514,
      "mask": 8515,
      "vard": 8516,
      "thou": 8517,
      "thunder": 8518,
      "anx": 8519,
      "onso": 8520,
      "tok": 8521,
      "arc": 8522,
      "stones": 8523,
      "hama": 8524,
      "unes": 8525,
      "usage": 8526,
      "impress": 8527,
      "administer": 8528,
      "abstr": 8529,
      "ller": 8530,
      "plas": 8531,
      "resort": 8532,
      "1921": 8533,
      "tak": 8534,
      "tailed": 8535,
      "exposed": 8536,
      "noble": 8537,
      "sheet": 8538,
      "tied": 8539,
      "cream": 8540,
      "longest": 8541,
      "porter": 8542,
      "amongst": 8543,
      "samsung": 8544,
      "freak": 8545,
      "carriers": 8546,
      "argue": 8547,
      "argument": 8548,
      "flights": 8549,
      "variable": 8550,
      "indicate": 8551,
      "housing": 8552,
      "confirm": 8553,
      "mechanism": 8554,
      "memories": 8555,
      "occasionally": 8556,
      "invented": 8557,
      "component": 8558,
      "vaccine": 8559,
      "consult": 8560,
      "incredibly": 8561,
      "neuro": 8562,
      "android": 8563,
      "alaska": 8564,
      "metropolitan": 8565,
      "boston": 8566,
      "aj": 8567,
      "bae": 8568,
      "cz": 8569,
      "cattle": 8570,
      "gus": 8571,
      "gdp": 8572,
      "tong": 8573,
      "vig": 8574,
      "inos": 8575,
      "rear": 8576,
      "retain": 8577,
      "alright": 8578,
      "leop": 8579,
      "beta": 8580,
      "behalf": 8581,
      "chat": 8582,
      "meal": 8583,
      "ads": 8584,
      "admitted": 8585,
      "wik": 8586,
      "1922": 8587,
      "loose": 8588,
      "claire": 8589,
      "brow": 8590,
      "cole": 8591,
      "dude": 8592,
      "serial": 8593,
      "centers": 8594,
      "intention": 8595,
      "etc": 8596,
      "valent": 8597,
      "issions": 8598,
      "compat": 8599,
      "produces": 8600,
      "simult": 8601,
      "anned": 8602,
      "patent": 8603,
      "originated": 8604,
      "cute": 8605,
      "masters": 8606,
      "1952": 8607,
      "missile": 8608,
      "educated": 8609,
      "additionally": 8610,
      "involves": 8611,
      "engineers": 8612,
      "historically": 8613,
      "practices": 8614,
      "brave": 8615,
      "tunnel": 8616,
      "hungarian": 8617,
      "spiritual": 8618,
      "squadron": 8619,
      "purchased": 8620,
      "cruiser": 8621,
      "siege": 8622,
      "organs": 8623,
      "treasure": 8624,
      "bis": 8625,
      "daugh": 8626,
      "fusion": 8627,
      "gies": 8628,
      "kai": 8629,
      "pent": 8630,
      "ré": 8631,
      "sri": 8632,
      "tissue": 8633,
      "vian": 8634,
      "regre": 8635,
      "alge": 8636,
      "icious": 8637,
      "whel": 8638,
      "triang": 8639,
      "outbreak": 8640,
      "exual": 8641,
      "agger": 8642,
      "perm": 8643,
      "persian": 8644,
      "clay": 8645,
      "cooper": 8646,
      "embar": 8647,
      "whoa": 8648,
      "offensive": 8649,
      "intent": 8650,
      "curious": 8651,
      "hub": 8652,
      "calend": 8653,
      "nevertheless": 8654,
      "specim": 8655,
      "shares": 8656,
      "bene": 8657,
      "extent": 8658,
      "paint": 8659,
      "ruling": 8660,
      "riding": 8661,
      "statistics": 8662,
      "experts": 8663,
      "reduction": 8664,
      "martial": 8665,
      "considerable": 8666,
      "consistent": 8667,
      "contributions": 8668,
      "credited": 8669,
      "pilots": 8670,
      "innov": 8671,
      "youngest": 8672,
      "injured": 8673,
      "preserved": 8674,
      "battleship": 8675,
      "recommend": 8676,
      "shirt": 8677,
      "writers": 8678,
      "cluster": 8679,
      "exposure": 8680,
      "episodes": 8681,
      "cavalry": 8682,
      "coronavirus": 8683,
      "daughters": 8684,
      "900": 8685,
      "cats": 8686,
      "ein": 8687,
      "kom": 8688,
      "kins": 8689,
      "mich": 8690,
      "pm": 8691,
      "rhy": 8692,
      "swi": 8693,
      "tt": 8694,
      "ystem": 8695,
      "atar": 8696,
      "encing": 8697,
      "isation": 8698,
      "alger": 8699,
      "icing": 8700,
      "chy": 8701,
      "mete": 8702,
      "dean": 8703,
      "forgotten": 8704,
      "root": 8705,
      "amate": 8706,
      "aller": 8707,
      "commod": 8708,
      "exhibit": 8709,
      "aggress": 8710,
      "bern": 8711,
      "tian": 8712,
      "marie": 8713,
      "disaster": 8714,
      "aceae": 8715,
      "creatures": 8716,
      "poems": 8717,
      "puer": 8718,
      "raising": 8719,
      "identical": 8720,
      "charlie": 8721,
      "nerve": 8722,
      "hier": 8723,
      "linux": 8724,
      "universities": 8725,
      "cript": 8726,
      "bases": 8727,
      "cuis": 8728,
      "begun": 8729,
      "palest": 8730,
      "grandmother": 8731,
      "driven": 8732,
      "grounds": 8733,
      "threw": 8734,
      "brian": 8735,
      "survivors": 8736,
      "sensitive": 8737,
      "suitable": 8738,
      "slaves": 8739,
      "concentration": 8740,
      "briefly": 8741,
      "coalition": 8742,
      "ukrainian": 8743,
      "sustainable": 8744,
      "sacrifice": 8745,
      "satisf": 8746,
      "sacred": 8747,
      "ancestors": 8748,
      "venezuela": 8749,
      "punishment": 8750,
      "napoleon": 8751,
      "constellation": 8752,
      "immune": 8753,
      ")\"": 8754,
      "07": 8755,
      "67": 8756,
      "bust": 8757,
      "bie": 8758,
      "cc": 8759,
      "cen": 8760,
      "dess": 8761,
      "hes": 8762,
      "mare": 8763,
      "mile": 8764,
      "rational": 8765,
      "tort": 8766,
      "yards": 8767,
      "refr": 8768,
      "align": 8769,
      "aside": 8770,
      "vey": 8771,
      "chase": 8772,
      "uran": 8773,
      "oppon": 8774,
      "illness": 8775,
      "ressing": 8776,
      "quad": 8777,
      "umi": 8778,
      "bother": 8779,
      "phia": 8780,
      "crus": 8781,
      "medieval": 8782,
      "choos": 8783,
      "compounds": 8784,
      "ideal": 8785,
      "powder": 8786,
      "trait": 8787,
      "mature": 8788,
      "restor": 8789,
      "hunter": 8790,
      "extension": 8791,
      "figur": 8792,
      "latest": 8793,
      "oxford": 8794,
      "devast": 8795,
      "ranking": 8796,
      "recognised": 8797,
      "percentage": 8798,
      "axis": 8799,
      "transp": 8800,
      "battery": 8801,
      "nationally": 8802,
      "croat": 8803,
      "jersey": 8804,
      "manufactured": 8805,
      "contributed": 8806,
      "cooking": 8807,
      "magnitude": 8808,
      "nurse": 8809,
      "gravity": 8810,
      "entitled": 8811,
      "algebra": 8812,
      "hiv": 8813,
      "jaz": 8814,
      "lind": 8815,
      "mult": 8816,
      "ores": 8817,
      "sig": 8818,
      "yield": 8819,
      "zon": 8820,
      "chest": 8821,
      "entre": 8822,
      "util": 8823,
      "abdu": 8824,
      "conven": 8825,
      "plenty": 8826,
      "proven": 8827,
      "1900": 8828,
      "exit": 8829,
      "agan": 8830,
      "acids": 8831,
      "ums": 8832,
      "yeong": 8833,
      "nazi": 8834,
      "sians": 8835,
      "interior": 8836,
      "seeking": 8837,
      "poem": 8838,
      "subs": 8839,
      "breast": 8840,
      "steve": 8841,
      "stephen": 8842,
      "signing": 8843,
      "juan": 8844,
      "houston": 8845,
      "queens": 8846,
      "movements": 8847,
      "particles": 8848,
      "venture": 8849,
      "viewed": 8850,
      "romans": 8851,
      "cule": 8852,
      "destination": 8853,
      "1955": 8854,
      "silent": 8855,
      "ruler": 8856,
      "speakers": 8857,
      "statue": 8858,
      "camps": 8859,
      "strikes": 8860,
      "worthy": 8861,
      "immediate": 8862,
      "amazon": 8863,
      "regularly": 8864,
      "printed": 8865,
      "emotions": 8866,
      "conservative": 8867,
      "crowd": 8868,
      "routes": 8869,
      "pollution": 8870,
      "consequences": 8871,
      "89": 8872,
      "iop": 8873,
      "iber": 8874,
      "jok": 8875,
      "mama": 8876,
      "oct": 8877,
      "vy": 8878,
      "wings": 8879,
      "ław": 8880,
      "iner": 8881,
      "inum": 8882,
      "inspe": 8883,
      "resem": 8884,
      "ales": 8885,
      "arranged": 8886,
      "stig": 8887,
      "stating": 8888,
      "omon": 8889,
      "rod": 8890,
      "convict": 8891,
      "sier": 8892,
      "spaces": 8893,
      "cake": 8894,
      "minus": 8895,
      "counting": 8896,
      "thoughts": 8897,
      "ogy": 8898,
      "borough": 8899,
      "publishing": 8900,
      "suppress": 8901,
      "funding": 8902,
      "delta": 8903,
      "lane": 8904,
      "culti": 8905,
      "continuing": 8906,
      "campus": 8907,
      "describes": 8908,
      "couples": 8909,
      "targets": 8910,
      "ibility": 8911,
      "properly": 8912,
      "characteristics": 8913,
      "landscape": 8914,
      "principles": 8915,
      "fatal": 8916,
      "bombs": 8917,
      "blame": 8918,
      "aviation": 8919,
      "bachel": 8920,
      "engagement": 8921,
      "cruisers": 8922,
      "vessels": 8923,
      "czech": 8924,
      "arsenal": 8925,
      "byzantine": 8926,
      "71": 8927,
      "etr": 8928,
      "gif": 8929,
      "hin": 8930,
      "kab": 8931,
      "oreg": 8932,
      "tone": 8933,
      "vs": 8934,
      "wart": 8935,
      "enor": 8936,
      "oral": 8937,
      "whis": 8938,
      "implic": 8939,
      "lift": 8940,
      "ulating": 8941,
      "shan": 8942,
      "odd": 8943,
      "phal": 8944,
      "crap": 8945,
      "disappear": 8946,
      "twin": 8947,
      "overwhel": 8948,
      "corn": 8949,
      "fake": 8950,
      "counsel": 8951,
      "parks": 8952,
      "raid": 8953,
      "heading": 8954,
      "signals": 8955,
      "transform": 8956,
      "persons": 8957,
      "colleagues": 8958,
      "denmark": 8959,
      "extens": 8960,
      "vania": 8961,
      "philadel": 8962,
      "1934": 8963,
      "representatives": 8964,
      "entering": 8965,
      "civilization": 8966,
      "declined": 8967,
      "breeds": 8968,
      "khmer": 8969,
      "cameras": 8970,
      "pix": 8971,
      "premiered": 8972,
      "crystal": 8973,
      "mortal": 8974,
      "attracted": 8975,
      "annex": 8976,
      "newspapers": 8977,
      "restricted": 8978,
      "mammal": 8979,
      "liga": 8980,
      "challenges": 8981,
      "mystery": 8982,
      "breathe": 8983,
      "photographs": 8984,
      "marshal": 8985,
      "enterprise": 8986,
      "database": 8987,
      "110": 8988,
      "aa": 8989,
      "eing": 8990,
      "wand": 8991,
      "wins": 8992,
      "inaug": 8993,
      "ati": 8994,
      "atically": 8995,
      "stability": 8996,
      "beating": 8997,
      "whit": 8998,
      "aman": 8999,
      "amph": 9000,
      "adal": 9001,
      "esty": 9002,
      "ounced": 9003,
      "exile": 9004,
      "dium": 9005,
      "diversity": 9006,
      "brilli": 9007,
      "spons": 9008,
      "strain": 9009,
      "buying": 9010,
      "flesh": 9011,
      "curve": 9012,
      "mato": 9013,
      "personality": 9014,
      "barbar": 9015,
      "13th": 9016,
      "horn": 9017,
      "meetings": 9018,
      "graphics": 9019,
      "parent": 9020,
      "protecting": 9021,
      "battal": 9022,
      "strip": 9023,
      "deeply": 9024,
      "sarah": 9025,
      "boundary": 9026,
      "mechanical": 9027,
      "slave": 9028,
      "tunis": 9029,
      "enjoyed": 9030,
      "provincial": 9031,
      "purchase": 9032,
      "diplomatic": 9033,
      "isolated": 9034,
      "descend": 9035,
      "controversi": 9036,
      "substantial": 9037,
      "superior": 9038,
      "beneath": 9039,
      "philadelphia": 9040,
      "flies": 9041,
      "hence": 9042,
      "jup": 9043,
      "jama": 9044,
      "mtv": 9045,
      "pus": 9046,
      "punch": 9047,
      "inform": 9048,
      "reactions": 9049,
      "orange": 9050,
      "iti": 9051,
      "bee": 9052,
      "veter": 9053,
      "het": 9054,
      "hex": 9055,
      "trau": 9056,
      "goth": 9057,
      "ifer": 9058,
      "residence": 9059,
      "shang": 9060,
      "shops": 9061,
      "lob": 9062,
      "manif": 9063,
      "tape": 9064,
      "coins": 9065,
      "ela": 9066,
      "crying": 9067,
      "cathe": 9068,
      "typho": 9069,
      "angered": 9070,
      "portal": 9071,
      "bleed": 9072,
      "drill": 9073,
      "airline": 9074,
      "suppor": 9075,
      "folks": 9076,
      "handed": 9077,
      "facts": 9078,
      "anka": 9079,
      "ashed": 9080,
      "harvest": 9081,
      "lotte": 9082,
      "jordan": 9083,
      "facebook": 9084,
      "uganda": 9085,
      "distant": 9086,
      "summit": 9087,
      "nato": 9088,
      "flex": 9089,
      "extend": 9090,
      "tourist": 9091,
      "elsewhere": 9092,
      "define": 9093,
      "payment": 9094,
      "description": 9095,
      "brains": 9096,
      "prisoner": 9097,
      "sorts": 9098,
      "traveling": 9099,
      "multip": 9100,
      "selection": 9101,
      "clothing": 9102,
      "belonged": 9103,
      "alexand": 9104,
      "cuban": 9105,
      "printing": 9106,
      "pageant": 9107,
      "tasks": 9108,
      "ratio": 9109,
      "observations": 9110,
      "prosper": 9111,
      "throat": 9112,
      "negotiations": 9113,
      "breathing": 9114,
      "bronze": 9115,
      "exhibition": 9116,
      "elephant": 9117,
      "skelet": 9118,
      "cuisine": 9119,
      "6th": 9120,
      "bred": 9121,
      "cant": 9122,
      "dj": 9123,
      "dale": 9124,
      "ecu": 9125,
      "fide": 9126,
      "gly": 9127,
      "gence": 9128,
      "jay": 9129,
      "kans": 9130,
      "mg": 9131,
      "tent": 9132,
      "wen": 9133,
      "ym": 9134,
      "recovery": 9135,
      "encoun": 9136,
      "orb": 9137,
      "itter": 9138,
      "stro": 9139,
      "forcing": 9140,
      "igan": 9141,
      "unci": 9142,
      "immun": 9143,
      "trump": 9144,
      "tear": 9145,
      "mood": 9146,
      "1914": 9147,
      "1929": 9148,
      "ries": 9149,
      "emir": 9150,
      "ishes": 9151,
      "creates": 9152,
      "wanting": 9153,
      "coln": 9154,
      "cardi": 9155,
      "joey": 9156,
      "buenos": 9157,
      "awak": 9158,
      "avo": 9159,
      "tooth": 9160,
      "simon": 9161,
      "ska": 9162,
      "publication": 9163,
      "barrel": 9164,
      "lincoln": 9165,
      "continent": 9166,
      "commonwealth": 9167,
      "radar": 9168,
      "controls": 9169,
      "davis": 9170,
      "1935": 9171,
      "compete": 9172,
      "graded": 9173,
      "physic": 9174,
      "miracle": 9175,
      "accused": 9176,
      "objective": 9177,
      "hospitals": 9178,
      "audio": 9179,
      "championships": 9180,
      "approaches": 9181,
      "heroes": 9182,
      "celebrated": 9183,
      "deserve": 9184,
      "instruments": 9185,
      "colonies": 9186,
      "criticized": 9187,
      "robots": 9188,
      "encourage": 9189,
      "replacement": 9190,
      "comparison": 9191,
      "buddhist": 9192,
      "distinguished": 9193,
      "sicily": 9194,
      "algorithm": 9195,
      "athens": 9196,
      "taylor": 9197,
      "declaration": 9198,
      "lyrics": 9199,
      "rebellion": 9200,
      "intellectual": 9201,
      "meteor": 9202,
      "oregon": 9203,
      "05": 9204,
      "blog": 9205,
      "dwar": 9206,
      "ggl": 9207,
      "iest": 9208,
      "mall": 9209,
      "matt": 9210,
      "nh": 9211,
      "pace": 9212,
      "sz": 9213,
      "vital": 9214,
      "zh": 9215,
      "inating": 9216,
      "ativity": 9217,
      "oro": 9218,
      "alan": 9219,
      "tox": 9220,
      "asha": 9221,
      "stages": 9222,
      "chu": 9223,
      "forth": 9224,
      "amine": 9225,
      "idency": 9226,
      "utical": 9227,
      "gel": 9228,
      "lix": 9229,
      "consecut": 9230,
      "fright": 9231,
      "sodium": 9232,
      "fever": 9233,
      "oded": 9234,
      "autom": 9235,
      "naz": 9236,
      "draft": 9237,
      "desper": 9238,
      "pton": 9239,
      "ensis": 9240,
      "greg": 9241,
      "stores": 9242,
      "believes": 9243,
      "14th": 9244,
      "basin": 9245,
      "basket": 9246,
      "minds": 9247,
      "austrian": 9248,
      "1933": 9249,
      "johnson": 9250,
      "representing": 9251,
      "digit": 9252,
      "literary": 9253,
      "exception": 9254,
      "bella": 9255,
      "surviving": 9256,
      "liberty": 9257,
      "variant": 9258,
      "bags": 9259,
      "qualified": 9260,
      "intelligent": 9261,
      "reliable": 9262,
      "requirements": 9263,
      "revenue": 9264,
      "recommended": 9265,
      "consumption": 9266,
      "swimming": 9267,
      "majesty": 9268,
      "habited": 9269,
      "scheduled": 9270,
      "clouds": 9271,
      "08": 9272,
      "78": 9273,
      "cig": 9274,
      "dil": 9275,
      "kol": 9276,
      "nac": 9277,
      "oo": 9278,
      "rin": 9279,
      "tis": 9280,
      "tut": 9281,
      "inals": 9282,
      "inhabited": 9283,
      "anthro": 9284,
      "andal": 9285,
      "leo": 9286,
      "icial": 9287,
      "chop": 9288,
      "lier": 9289,
      "trace": 9290,
      "therine": 9291,
      "anta": 9292,
      "shine": 9293,
      "1917": 9294,
      "artistic": 9295,
      "agencies": 9296,
      "rium": 9297,
      "prost": 9298,
      "siber": 9299,
      "wayne": 9300,
      "disk": 9301,
      "monaster": 9302,
      "vibr": 9303,
      "drome": 9304,
      "finland": 9305,
      "visiting": 9306,
      "versus": 9307,
      "ears": 9308,
      "scare": 9309,
      "decay": 9310,
      "grams": 9311,
      "cheon": 9312,
      "badly": 9313,
      "faculty": 9314,
      "1932": 9315,
      "spacecraft": 9316,
      "sooner": 9317,
      "representation": 9318,
      "phoe": 9319,
      "speaker": 9320,
      "offering": 9321,
      "participants": 9322,
      "batman": 9323,
      "execution": 9324,
      "ameter": 9325,
      "bourg": 9326,
      "jerusal": 9327,
      "novels": 9328,
      "molecule": 9329,
      "jimmy": 9330,
      "argentine": 9331,
      "atoms": 9332,
      "translation": 9333,
      "conclusion": 9334,
      "bomber": 9335,
      "schedule": 9336,
      "josé": 9337,
      "composer": 9338,
      "pursue": 9339,
      "refugees": 9340,
      "certific": 9341,
      "involvement": 9342,
      "warrior": 9343,
      "telescope": 9344,
      "earthquake": 9345,
      "dvd": 9346,
      "chandler": 9347,
      "calendar": 9348,
      "puerto": 9349,
      "controversial": 9350,
      "ecuador": 9351,
      "jerusalem": 9352,
      "63": 9353,
      "cum": 9354,
      "ea": 9355,
      "ecos": 9356,
      "fon": 9357,
      "fers": 9358,
      "gau": 9359,
      "rings": 9360,
      "slaughter": 9361,
      "tz": 9362,
      "uous": 9363,
      "wu": 9364,
      "enab": 9365,
      "asa": 9366,
      "bek": 9367,
      "wei": 9368,
      "imprison": 9369,
      "uru": 9370,
      "aba": 9371,
      "nowhere": 9372,
      "shed": 9373,
      "shipping": 9374,
      "cancell": 9375,
      "excav": 9376,
      "rie": 9377,
      "diver": 9378,
      "prey": 9379,
      "monsters": 9380,
      "interactions": 9381,
      "string": 9382,
      "olds": 9383,
      "grey": 9384,
      "visa": 9385,
      "flour": 9386,
      "generations": 9387,
      "steam": 9388,
      "privi": 9389,
      "relevant": 9390,
      "burst": 9391,
      "faction": 9392,
      "salv": 9393,
      "limits": 9394,
      "trains": 9395,
      "hungry": 9396,
      "21st": 9397,
      "coup": 9398,
      "bottle": 9399,
      "societies": 9400,
      "influential": 9401,
      "campaigns": 9402,
      "anticip": 9403,
      "narr": 9404,
      "performances": 9405,
      "expecting": 9406,
      "channels": 9407,
      "discussed": 9408,
      "instrument": 9409,
      "branches": 9410,
      "innovation": 9411,
      "concluded": 9412,
      "suspended": 9413,
      "candidates": 9414,
      "oriented": 9415,
      "revenge": 9416,
      "minimum": 9417,
      "ritual": 9418,
      "saturday": 9419,
      "repairs": 9420,
      "advertising": 9421,
      "divorce": 9422,
      "procedure": 9423,
      "volcano": 9424,
      "absence": 9425,
      "inspiration": 9426,
      "bachelor": 9427,
      "brilliant": 9428,
      "jupiter": 9429,
      "130": 9430,
      "74": 9431,
      "92": 9432,
      "hl": 9433,
      "yok": 9434,
      "onna": 9435,
      "reforms": 9436,
      "replacing": 9437,
      "omer": 9438,
      "omes": 9439,
      "icit": 9440,
      "icel": 9441,
      "sevent": 9442,
      "detailed": 9443,
      "hae": 9444,
      "haul": 9445,
      "amino": 9446,
      "withdrew": 9447,
      "conversion": 9448,
      "traged": 9449,
      "keeper": 9450,
      "outcome": 9451,
      "maced": 9452,
      "doc": 9453,
      "1924": 9454,
      "spart": 9455,
      "partial": 9456,
      "owns": 9457,
      "lago": 9458,
      "coral": 9459,
      "fame": 9460,
      "norman": 9461,
      "intim": 9462,
      "intensity": 9463,
      "polar": 9464,
      "ette": 9465,
      "warned": 9466,
      "obsess": 9467,
      "relatives": 9468,
      "treating": 9469,
      "morph": 9470,
      "moroc": 9471,
      "mercy": 9472,
      "lesson": 9473,
      "friendly": 9474,
      "surely": 9475,
      "12th": 9476,
      "ministers": 9477,
      "metabol": 9478,
      "cutting": 9479,
      "searching": 9480,
      "grows": 9481,
      "hanoi": 9482,
      "similarly": 9483,
      "arrive": 9484,
      "ranks": 9485,
      "fairly": 9486,
      "historians": 9487,
      "hurric": 9488,
      "km2": 9489,
      "babylon": 9490,
      "dinosaur": 9491,
      "hosts": 9492,
      "corporate": 9493,
      "logical": 9494,
      "reportedly": 9495,
      "voted": 9496,
      "mouse": 9497,
      "emerged": 9498,
      "hoped": 9499,
      "maps": 9500,
      "chemicals": 9501,
      "substance": 9502,
      "behaviour": 9503,
      "smooth": 9504,
      "neighboring": 9505,
      "connecting": 9506,
      "galaxies": 9507,
      "fantastic": 9508,
      "collaboration": 9509,
      "framework": 9510,
      "mysterious": 9511,
      "legislation": 9512,
      "explosion": 9513,
      "sheriff": 9514,
      "pyramid": 9515,
      "rescued": 9516,
      "intervention": 9517,
      "caesar": 9518,
      "hollywood": 9519,
      "amateur": 9520,
      "dd": 9521,
      "een": 9522,
      "lg": 9523,
      "mant": 9524,
      "mates": 9525,
      "nun": 9526,
      "nab": 9527,
      "ois": 9528,
      "ogen": 9529,
      "pard": 9530,
      "pump": 9531,
      "xx": 9532,
      "inhibit": 9533,
      "recovered": 9534,
      "atra": 9535,
      "ensu": 9536,
      "altit": 9537,
      "esome": 9538,
      "ille": 9539,
      "chains": 9540,
      "meets": 9541,
      "hay": 9542,
      "unexpected": 9543,
      "amen": 9544,
      "wire": 9545,
      "abuse": 9546,
      "nepal": 9547,
      "peters": 9548,
      "mah": 9549,
      "1925": 9550,
      "worship": 9551,
      "rier": 9552,
      "upstairs": 9553,
      "brad": 9554,
      "emic": 9555,
      "boats": 9556,
      "spar": 9557,
      "craw": 9558,
      "hima": 9559,
      "prescri": 9560,
      "intercept": 9561,
      "corruption": 9562,
      "lowest": 9563,
      "coll": 9564,
      "descent": 9565,
      "bug": 9566,
      "chocol": 9567,
      "invaded": 9568,
      "subspecies": 9569,
      "milan": 9570,
      "operational": 9571,
      "lists": 9572,
      "designation": 9573,
      "mothers": 9574,
      "equil": 9575,
      "instant": 9576,
      "kidn": 9577,
      "considering": 9578,
      "dependent": 9579,
      "currency": 9580,
      "animated": 9581,
      "villa": 9582,
      "darwin": 9583,
      "furthermore": 9584,
      "confident": 9585,
      "estimates": 9586,
      "miller": 9587,
      "lords": 9588,
      "terminal": 9589,
      "manuel": 9590,
      "medication": 9591,
      "bourne": 9592,
      "closest": 9593,
      "losses": 9594,
      "demands": 9595,
      "bombing": 9596,
      "feeding": 9597,
      "opportunities": 9598,
      "strengthen": 9599,
      "injury": 9600,
      "physi": 9601,
      "discussion": 9602,
      "elementary": 9603,
      "gallery": 9604,
      "virtually": 9605,
      "nasa": 9606,
      "dynamic": 9607,
      "adventure": 9608,
      "trend": 9609,
      "exclusive": 9610,
      "hawaii": 9611,
      "java": 9612,
      "legitimate": 9613,
      "circuit": 9614,
      "licensed": 9615,
      "regret": 9616,
      "ecosystem": 9617,
      "bap": 9618,
      "density": 9619,
      "eh": 9620,
      "ecolog": 9621,
      "jen": 9622,
      "nen": 9623,
      "rations": 9624,
      "sday": 9625,
      "zar": 9626,
      "osexual": 9627,
      "anony": 9628,
      "atro": 9629,
      "asi": 9630,
      "asle": 9631,
      "heir": 9632,
      "nev": 9633,
      "ules": 9634,
      "1910": 9635,
      "tibet": 9636,
      "donald": 9637,
      "spots": 9638,
      "guin": 9639,
      "vene": 9640,
      "cra": 9641,
      "prev": 9642,
      "strand": 9643,
      "blast": 9644,
      "ports": 9645,
      "aked": 9646,
      "mina": 9647,
      "poles": 9648,
      "thrill": 9649,
      "earn": 9650,
      "calci": 9651,
      "downtown": 9652,
      "stomach": 9653,
      "lasting": 9654,
      "triple": 9655,
      "lessons": 9656,
      "carefully": 9657,
      "volumes": 9658,
      "songwriter": 9659,
      "rico": 9660,
      "localities": 9661,
      "probability": 9662,
      "globe": 9663,
      "ridge": 9664,
      "participation": 9665,
      "taxes": 9666,
      "clients": 9667,
      "indicated": 9668,
      "billy": 9669,
      "cataly": 9670,
      "guardian": 9671,
      "dishes": 9672,
      "demonstrated": 9673,
      "scottish": 9674,
      "municipalities": 9675,
      "monument": 9676,
      "categories": 9677,
      "dimensional": 9678,
      "instructions": 9679,
      "explanation": 9680,
      "mixture": 9681,
      "cathedr": 9682,
      "consecutive": 9683,
      "equilib": 9684,
      "beng": 9685,
      "foster": 9686,
      "iated": 9687,
      "pants": 9688,
      "sap": 9689,
      "sara": 9690,
      "infer": 9691,
      "infinite": 9692,
      "ongoing": 9693,
      "retained": 9694,
      "bec": 9695,
      "vegas": 9696,
      "deport": 9697,
      "roots": 9698,
      "igo": 9699,
      "amend": 9700,
      "arena": 9701,
      "conquest": 9702,
      "congrat": 9703,
      "petr": 9704,
      "protests": 9705,
      "dozen": 9706,
      "1926": 9707,
      "manus": 9708,
      "tip": 9709,
      "monday": 9710,
      "thrown": 9711,
      "gathered": 9712,
      "uniform": 9713,
      "burial": 9714,
      "legacy": 9715,
      "midnight": 9716,
      "titan": 9717,
      "remainder": 9718,
      "explore": 9719,
      "pale": 9720,
      "destiny": 9721,
      "horrible": 9722,
      "danish": 9723,
      "productive": 9724,
      "foods": 9725,
      "telephone": 9726,
      "secrets": 9727,
      "wooden": 9728,
      "traditionally": 9729,
      "ethiop": 9730,
      "vincent": 9731,
      "detected": 9732,
      "communicate": 9733,
      "syndrome": 9734,
      "pipe": 9735,
      "williams": 9736,
      "boundaries": 9737,
      "magazines": 9738,
      "instruction": 9739,
      "psychology": 9740,
      "gardens": 9741,
      "resource": 9742,
      "minority": 9743,
      "reviews": 9744,
      "surveill": 9745,
      "honestly": 9746,
      "achievement": 9747,
      "paraly": 9748,
      "organisation": 9749,
      "initiative": 9750,
      "idiot": 9751,
      "stealing": 9752,
      "chilean": 9753,
      "praised": 9754,
      "autonomous": 9755,
      "enzyme": 9756,
      "intermediate": 9757,
      "predecessor": 9758,
      "orchestra": 9759,
      "sylvania": 9760,
      "remarkable": 9761,
      "rhyth": 9762,
      "enormous": 9763,
      "asleep": 9764,
[...]
