{
  "version": "1.0",
  "truncation": null,
  "padding": null,
  "added_tokens": [
    {
      "id": 0,
      "content": "<pad>",
      "single_word": false,
      "lstrip": false,
      "rstrip": false,
      "normalized": false,
      "special": true
    },
    {
      "id": 1,
      "content": "<bos>",
      "single_word": false,
      "lstrip": false,
      "rstrip": false,
      "normalized": false,
      "special": true
    },
    {
      "id": 2,
      "content": "<eos>",
      "single_word": false,
      "lstrip": false,
      "rstrip": false,
      "normalized": false,
      "special": true
    },
    {
      "id": 3,
      "content": "<unk>",
      "single_word": false,
      "lstrip": false,
      "rstrip": false,
      "normalized": false,
      "special": true
    }
  ],
  "normalizer": null,
  "pre_tokenizer": {
    "type": "Whitespace"
  },
  "post_processor": null,
  "decoder": null,
  "model": {
    "type": "BPE",
    "dropout": null,
    "unk_token": "<unk>",
    "continuing_subword_prefix": null,
    "end_of_word_suffix": null,
    "fuse_unk": false,
    "byte_fallback": false,
    "ignore_merges": false,
    "vocab": {
      "<pad>": 0,
      "<bos>": 1,
      "<eos>": 2,
      "<unk>": 3,
      "!": 4,
      "\"": 5,
      "#": 6,
      "$": 7,
      "%": 8,
      "&": 9,
      "'": 10,
      "(": 11,
      ")": 12,
      "*": 13,
      "+": 14,
      ",": 15,
      "-": 16,
      ".": 17,
      "/": 18,
      "0": 19,
      "1": 20,
      "2": 21,
      "3": 22,
      "4": 23,
      "5": 24,
      "6": 25,
      "7": 26,
      "8": 27,
      "9": 28,
      ":": 29,
      ";": 30,
      "<": 31,
      "=": 32,
      ">": 33,
      "?": 34,
      "@": 35,
      "[": 36,
      "\\": 37,
      "]": 38,
      "^": 39,
      "_": 40,
      "`": 41,
      "a": 42,
      "b": 43,
      "c": 44,
      "d": 45,
      "e": 46,
      "f": 47,
      "g": 48,
      "h": 49,
      "i": 50,
      "j": 51,
      "k": 52,
      "l": 53,
      "m": 54,
      "n": 55,
      "o": 56,
      "p": 57,
      "q": 58,
      "r": 59,
      "s": 60,
      "t": 61,
      "u": 62,
      "v": 63,
      "w": 64,
      "x": 65,
      "y": 66,
      "z": 67,
      "{": 68,
      "}": 69,
      "~": 70,
      "": 71,
      "": 72,
      "": 73,
      "": 74,
      "": 75,
      "": 76,
      "": 77,
      "¡": 78,
      "¢": 79,
      "£": 80,
      "¥": 81,
      "§": 82,
      "©": 83,
      "ª": 84,
      "«": 85,
      "¬": 86,
      "­": 87,
      "®": 88,
      "¯": 89,
      "°": 90,
      "±": 91,
      "²": 92,
      "³": 93,
      "´": 94,
      "µ": 95,
      "¶": 96,
      "·": 97,
      "¸": 98,
      "¹": 99,
      "º": 100,
      "»": 101,
      "¼": 102,
      "½": 103,
      "¾": 104,
      "¿": 105,
      "×": 106,
      "ß": 107,
      "à": 108,
      "á": 109,
      "â": 110,
      "ã": 111,
      "ä": 112,
      "å": 113,
      "æ": 114,
      "ç": 115,
      "è": 116,
      "é": 117,
      "ê": 118,
      "ë": 119,
      "ì": 120,
      "í": 121,
      "î": 122,
      "ï": 123,
      "ð": 124,
      "ñ": 125,
      "ò": 126,
      "ó": 127,
      "ô": 128,
      "õ": 129,
      "ö": 130,
      "÷": 131,
      "ø": 132,
      "ù": 133,
      "ú": 134,
      "û": 135,
      "ü": 136,
      "ý": 137,
      "þ": 138,
      "ÿ": 139,
      "ā": 140,
      "ă": 141,
      "ą": 142,
      "ć": 143,
      "č": 144,
      "đ": 145,
      "ē": 146,
      "ė": 147,
      "ę": 148,
      "ě": 149,
      "ğ": 150,
      "ģ": 151,
      "ħ": 152,
      "ĩ": 153,
      "ī": 154,
      "ĭ": 155,
      "į": 156,
      "ı": 157,
      "ļ": 158,
      "ľ": 159,
      "ł": 160,
      "ń": 161,
      "ņ": 162,
      "ō": 163,
      "ŏ": 164,
      "ő": 165,
      "œ": 166,
      "ř": 167,
      "ś": 168,
      "ş": 169,
      "š": 170,
      "ţ": 171,
      "ũ": 172,
      "ū": 173,
      "ŭ": 174,
      "ů": 175,
      "ų": 176,
      "ź": 177,
      "ż": 178,
      "ž": 179,
      "ơ": 180,
      "ư": 181,
      "ǁ": 182,
      "ǎ": 183,
      "ǐ": 184,
      "ǒ": 185,
      "ǔ": 186,
      "ǫ": 187,
      "ǹ": 188,
      "ș": 189,
      "ț": 190,
      "ɐ": 191,
      "ɓ": 192,
      "ɕ": 193,
      "ə": 194,
      "ɡ": 195,
      "ɣ": 196,
      "ɨ": 197,
      "ɾ": 198,
      "ʰ": 199,
      "ʷ": 200,
      "ʻ": 201,
      "ʿ": 202,
      "ˈ": 203,
      "ː": 204,
      "˙": 205,
      "̀": 206,
      "́": 207,
      "̃": 208,
      "̇": 209,
      "̉": 210,
      "̣": 211,
      "̤": 212,
      "̥": 213,
      "̀": 214,
      "́": 215,
      "ά": 216,
      "έ": 217,
      "ή": 218,
      "ί": 219,
      "α": 220,
      "β": 221,
      "γ": 222,
      "δ": 223,
      "ε": 224,
      "ζ": 225,
      "η": 226,
      "θ": 227,
      "ι": 228,
      "κ": 229,
      "λ": 230,
      "μ": 231,
      "ν": 232,
      "ξ": 233,
      "ο": 234,
      "π": 235,
      "ρ": 236,
      "ς": 237,
      "σ": 238,
      "τ": 239,
      "υ": 240,
      "φ": 241,
      "χ": 242,
      "ψ": 243,
      "ω": 244,
      "ό": 245,
      "ύ": 246,
      "ώ": 247,
      "ϕ": 248,
      "ϵ": 249,
      "а": 250,
      "б": 251,
      "в": 252,
      "г": 253,
      "д": 254,
      "е": 255,
      "ж": 256,
      "з": 257,
      "и": 258,
      "й": 259,
      "к": 260,
      "л": 261,
      "м": 262,
      "н": 263,
      "о": 264,
      "п": 265,
      "р": 266,
      "с": 267,
      "т": 268,
      "у": 269,
      "ф": 270,
      "х": 271,
      "ц": 272,
      "ч": 273,
      "ш": 274,
      "ъ": 275,
      "ы": 276,
      "ь": 277,
      "э": 278,
      "ю": 279,
      "я": 280,
      "ё": 281,
      "і": 282,
      "ї": 283,
      "ј": 284,
      "њ": 285,
      "ћ": 286,
      "ў": 287,
      "ғ": 288,
      "ҧ": 289,
      "ұ": 290,
      "ӄ": 291,
      "ә": 292,
      "ӧ": 293,
      "ա": 294,
      "ի": 295,
      "խ": 296,
      "ղ": 297,
      "մ": 298,
      "յ": 299,
      "ն": 300,
      "ո": 301,
      "ջ": 302,
      "ս": 303,
      "վ": 304,
      "ֲ": 305,
      "ַ": 306,
      "ָ": 307,
      "ּ": 308,
      "א": 309,
      "ב": 310,
      "ג": 311,
      "ד": 312,
      "ה": 313,
      "ו": 314,
      "ז": 315,
      "ח": 316,
      "ט": 317,
      "י": 318,
      "ל": 319,
      "ם": 320,
      "מ": 321,
      "ן": 322,
      "נ": 323,
      "ע": 324,
      "פ": 325,
      "צ": 326,
      "ק": 327,
      "ר": 328,
      "ש": 329,
      "ת": 330,
      "ء": 331,
      "أ": 332,
      "إ": 333,
      "ئ": 334,
      "ا": 335,
      "ب": 336,
      "ة": 337,
      "ت": 338,
      "ث": 339,
      "ج": 340,
      "ح": 341,
      "خ": 342,
      "د": 343,
      "ذ": 344,
      "ر": 345,
      "ز": 346,
      "س": 347,
      "ش": 348,
      "ص": 349,
      "ض": 350,
      "ط": 351,
      "ع": 352,
      "غ": 353,
      "ف": 354,
      "ق": 355,
      "ك": 356,
      "ل": 357,
      "م": 358,
      "ن": 359,
      "ه": 360,
      "و": 361,
      "ى": 362,
      "ي": 363,
      "َ": 364,
      "ِ": 365,
      "ّ": 366,
      "ٱ": 367,
      "پ": 368,
      "ډ": 369,
      "ښ": 370,
      "ڤ": 371,
      "ک": 372,
      "گ": 373,
      "ڵ": 374,
      "ہ": 375,
      "ۇ": 376,
      "ی": 377,
      "ے": 378,
      "क": 379,
      "ग": 380,
      "च": 381,
      "ज": 382,
      "ड": 383,
      "त": 384,
      "द": 385,
      "न": 386,
      "प": 387,
      "ब": 388,
      "य": 389,
      "र": 390,
      "़": 391,
      "ा": 392,
      "ि": 393,
      "े": 394,
      "ै": 395,
      "ो": 396,
      "ौ": 397,
      "्": 398,
      "ছ": 399,
      "ট": 400,
      "ঠ": 401,
      "র": 402,
      "ল": 403,
      "স": 404,
      "া": 405,
      "ি": 406,
      "ে": 407,
      "ก": 408,
      "ข": 409,
      "ค": 410,
      "ง": 411,
      "จ": 412,
      "ฉ": 413,
      "ช": 414,
      "ญ": 415,
      "ฎ": 416,
      "ฐ": 417,
      "ฑ": 418,
      "ฒ": 419,
      "ณ": 420,
      "ด": 421,
      "ต": 422,
      "ถ": 423,
      "ท": 424,
      "ธ": 425,
      "น": 426,
      "บ": 427,
      "ป": 428,
      "ผ": 429,
      "พ": 430,
      "ฟ": 431,
      "ภ": 432,
      "ม": 433,
      "ย": 434,
      "ร": 435,
      "ฤ": 436,
      "ล": 437,
      "ว": 438,
      "ศ": 439,
      "ษ": 440,
      "ส": 441,
      "ห": 442,
      "อ": 443,
      "ะ": 444,
      "ั": 445,
      "า": 446,
      "ำ": 447,
      "ิ": 448,
      "ี": 449,
      "ื": 450,
      "ุ": 451,
      "ู": 452,
      "เ": 453,
      "แ": 454,
      "โ": 455,
      "ไ": 456,
      "็": 457,
      "่": 458,
      "้": 459,
      "๊": 460,
      "์": 461,
      "་": 462,
      "ང": 463,
      "ན": 464,
      "ར": 465,
      "ཨ": 466,
      "ི": 467,
      "ྰ": 468,
      "က": 469,
      "ခ": 470,
      "င": 471,
      "စ": 472,
      "ဇ": 473,
      "ဋ": 474,
      "တ": 475,
      "ထ": 476,
      "ဒ": 477,
      "န": 478,
      "ပ": 479,
      "ဘ": 480,
      "မ": 481,
      "ယ": 482,
      "ရ": 483,
      "သ": 484,
      "အ": 485,
      "ါ": 486,
      "ာ": 487,
      "ိ": 488,
      "ီ": 489,
      "ု": 490,
      "ေ": 491,
      "း": 492,
      "္": 493,
      "်": 494,
      "ျ": 495,
      "ြ": 496,
      "ွ": 497,
      "၀": 498,
      "၁": 499,
      "၅": 500,
      "၆": 501,
      "၇": 502,
      "၉": 503,
      "႓": 504,
      "ა": 505,
      "ი": 506,
      "ნ": 507,
      "ო": 508,
      "რ": 509,
      "ᜆ": 510,
      "ᜇ": 511,
      "ᜈ": 512,
      "ᜓ": 513,
      "ង": 514,
      "ត": 515,
      "ល": 516,
      "វ": 517,
      "ា": 518,
      "ើ": 519,
      "ែ": 520,
      "ḍ": 521,
      "ḥ": 522,
      "ḫ": 523,
      "ṛ": 524,
      "ṣ": 525,
      "ṭ": 526,
      "ạ": 527,
      "ả": 528,
      "ấ": 529,
      "ầ": 530,
      "ẩ": 531,
      "ẫ": 532,
      "ậ": 533,
      "ắ": 534,
      "ằ": 535,
      "ẳ": 536,
      "ẵ": 537,
      "ặ": 538,
      "ẹ": 539,
      "ẻ": 540,
      "ẽ": 541,
      "ế": 542,
      "ề": 543,
      "ể": 544,
      "ễ": 545,
      "ệ": 546,
      "ỉ": 547,
      "ị": 548,
      "ọ": 549,
      "ỏ": 550,
      "ố": 551,
      "ồ": 552,
      "ổ": 553,
      "ỗ": 554,
      "ộ": 555,
      "ớ": 556,
      "ờ": 557,
      "ở": 558,
      "ỡ": 559,
      "ợ": 560,
      "ụ": 561,
      "ủ": 562,
      "ứ": 563,
      "ừ": 564,
      "ử": 565,
      "ữ": 566,
      "ự": 567,
      "ỳ": 568,
      "ỵ": 569,
      "ỷ": 570,
      "ỹ": 571,
      "ἀ": 572,
      "ἁ": 573,
      "ἥ": 574,
      "ἰ": 575,
      "ὀ": 576,
      "ὄ": 577,
      "ὐ": 578,
      "ὰ": 579,
      "ῆ": 580,
      "ῖ": 581,
      "ῦ": 582,
      "​": 583,
      "‎": 584,
      "‐": 585,
      "–": 586,
      "—": 587,
      "‘": 588,
      "’": 589,
      "‚": 590,
      "“": 591,
      "”": 592,
      "„": 593,
      "†": 594,
      "•": 595,
      "…": 596,
      "‭": 597,
      "′": 598,
      "″": 599,
      "‹": 600,
      "›": 601,
      "※": 602,
      "⁄": 603,
      "⁡": 604,
      "⁷": 605,
      "₣": 606,
      "₩": 607,
      "€": 608,
      "₸": 609,
      "₹": 610,
      "ℏ": 611,
      "ℑ": 612,
      "ℓ": 613,
      "ℜ": 614,
      "℞": 615,
      "™": 616,
      "⅔": 617,
      "←": 618,
      "↑": 619,
      "→": 620,
      "↔": 621,
      "↦": 622,
      "↽": 623,
      "⇀": 624,
      "⇌": 625,
      "∀": 626,
      "∂": 627,
      "∅": 628,
      "∆": 629,
      "∇": 630,
      "∈": 631,
      "∑": 632,
      "−": 633,
      "∗": 634,
      "∘": 635,
      "√": 636,
      "∞": 637,
      "∣": 638,
      "∤": 639,
      "∥": 640,
      "∧": 641,
      "∨": 642,
      "∩": 643,
      "∫": 644,
      "≅": 645,
      "≈": 646,
      "≠": 647,
      "≡": 648,
      "≤": 649,
      "≥": 650,
      "⊆": 651,
      "⊊": 652,
      "⊙": 653,
      "⊲": 654,
      "⋅": 655,
      "⋯": 656,
      "■": 657,
      "△": 658,
      "●": 659,
      "★": 660,
      "☆": 661,
      "♗": 662,
      "♝": 663,
      "♠": 664,
      "♥": 665,
      "♪": 666,
      "♫": 667,
      "♭": 668,
      "♮": 669,
      "♯": 670,
      "⟨": 671,
      "⟩": 672,
      "⸸": 673,
      "、": 674,
      "々": 675,
      "「": 676,
      "」": 677,
      "ぁ": 678,
      "あ": 679,
      "い": 680,
      "う": 681,
      "ぇ": 682,
      "お": 683,
      "か": 684,
      "が": 685,
      "き": 686,
      "ぎ": 687,
      "く": 688,
      "け": 689,
      "げ": 690,
      "こ": 691,
      "ご": 692,
      "さ": 693,
      "し": 694,
      "じ": 695,
      "す": 696,
      "せ": 697,
      "ぜ": 698,
      "そ": 699,
      "た": 700,
      "ち": 701,
      "っ": 702,
      "つ": 703,
      "て": 704,
      "で": 705,
      "と": 706,
      "ど": 707,
      "な": 708,
      "に": 709,
      "ぬ": 710,
      "ね": 711,
      "の": 712,
      "は": 713,
      "ば": 714,
      "ぱ": 715,
      "ひ": 716,
      "び": 717,
      "ぶ": 718,
      "へ": 719,
      "ぼ": 720,
      "み": 721,
      "め": 722,
      "も": 723,
      "ゃ": 724,
      "や": 725,
      "ょ": 726,
      "よ": 727,
      "ら": 728,
      "り": 729,
      "る": 730,
      "れ": 731,
      "ろ": 732,
      "わ": 733,
      "を": 734,
      "ん": 735,
      "ァ": 736,
      "ア": 737,
      "ィ": 738,
      "イ": 739,
      "ウ": 740,
      "ェ": 741,
      "エ": 742,
      "ォ": 743,
      "オ": 744,
      "カ": 745,
      "ガ": 746,
      "キ": 747,
      "ギ": 748,
      "ク": 749,
      "グ": 750,
      "ケ": 751,
      "ゲ": 752,
      "コ": 753,
      "ゴ": 754,
      "サ": 755,
      "ザ": 756,
      "シ": 757,
      "ジ": 758,
      "ス": 759,
      "ズ": 760,
      "ゼ": 761,
      "ソ": 762,
      "ゾ": 763,
      "タ": 764,
      "ダ": 765,
      "チ": 766,
      "ッ": 767,
      "ツ": 768,
      "テ": 769,
      "デ": 770,
      "ト": 771,
      "ド": 772,
      "ナ": 773,
      "ニ": 774,
      "ヌ": 775,
      "ネ": 776,
      "ノ": 777,
      "ハ": 778,
      "バ": 779,
      "パ": 780,
      "ヒ": 781,
      "ビ": 782,
      "フ": 783,
      "ブ": 784,
      "プ": 785,
      "ヘ": 786,
      "ベ": 787,
      "ペ": 788,
      "ホ": 789,
      "ボ": 790,
      "ポ": 791,
      "マ": 792,
      "ミ": 793,
      "ム": 794,
      "メ": 795,
      "モ": 796,
      "ャ": 797,
      "ヤ": 798,
      "ュ": 799,
      "ユ": 800,
      "ョ": 801,
      "ヨ": 802,
      "ラ": 803,
      "リ": 804,
      "ル": 805,
      "レ": 806,
      "ロ": 807,
      "ン": 808,
      "ヴ": 809,
      "ヶ": 810,
      "・": 811,
      "ー": 812,
      "ㄴ": 813,
      "ㄹ": 814,
      "ㅁ": 815,
      "ㅅ": 816,
      "ㅇ": 817,
      "ㅐ": 818,
      "ㅑ": 819,
      "ㅕ": 820,
      "一": 821,
      "丁": 822,
      "七": 823,
      "丈": 824,
      "三": 825,
      "上": 826,
      "下": 827,
      "不": 828,
      "与": 829,
      "世": 830,
      "丞": 831,
      "中": 832,
      "丸": 833,
      "乃": 834,
      "之": 835,
      "乐": 836,
      "乔": 837,
      "九": 838,
      "也": 839,
      "习": 840,
      "乱": 841,
      "亂": 842,
      "予": 843,
      "事": 844,
      "二": 845,
      "五": 846,
      "井": 847,
      "亡": 848,
      "亦": 849,
      "京": 850,
      "亮": 851,
      "人": 852,
      "仁": 853,
      "今": 854,
      "介": 855,
      "他": 856,
      "付": 857,
      "仙": 858,
      "代": 859,
      "令": 860,
      "以": 861,
      "仮": 862,
      "件": 863,
      "份": 864,
      "伊": 865,
      "伏": 866,
      "伐": 867,
      "会": 868,
      "伝": 869,
      "伸": 870,
      "佐": 871,
      "体": 872,
      "何": 873,
      "你": 874,
      "佩": 875,
      "佳": 876,
      "使": 877,
      "侍": 878,
      "侯": 879,
      "俊": 880,
      "保": 881,
      "信": 882,
      "倭": 883,
      "健": 884,
      "備": 885,
      "傷": 886,
      "傾": 887,
      "像": 888,
      "僕": 889,
      "儀": 890,
      "元": 891,
      "兄": 892,
      "先": 893,
      "光": 894,
      "克": 895,
      "兔": 896,
      "兩": 897,
      "八": 898,
      "公": 899,
      "六": 900,
      "共": 901,
      "兴": 902,
      "兵": 903,
      "其": 904,
      "典": 905,
      "内": 906,
      "再": 907,
      "写": 908,
      "军": 909,
      "冠": 910,
      "决": 911,
      "冷": 912,
      "准": 913,
      "凰": 914,
      "出": 915,
      "刀": 916,
      "分": 917,
      "刊": 918,
      "刑": 919,
      "初": 920,
      "別": 921,
      "利": 922,
      "前": 923,
      "剣": 924,
      "副": 925,
      "劉": 926,
      "力": 927,
      "加": 928,
      "助": 929,
      "劳": 930,
      "勇": 931,
      "勋": 932,
      "動": 933,
      "務": 934,
      "勝": 935,
      "勢": 936,
      "化": 937,
      "北": 938,
      "区": 939,
      "區": 940,
      "十": 941,
      "千": 942,
      "半": 943,
      "华": 944,
      "南": 945,
      "博": 946,
      "占": 947,
      "卿": 948,
      "原": 949,
      "參": 950,
      "及": 951,
      "友": 952,
      "反": 953,
      "受": 954,
      "变": 955,
      "口": 956,
      "古": 957,
      "句": 958,
      "可": 959,
      "台": 960,
      "史": 961,
      "右": 962,
      "号": 963,
      "司": 964,
      "吃": 965,
      "合": 966,
      "名": 967,
      "后": 968,
      "君": 969,
      "吳": 970,
      "吾": 971,
      "呉": 972,
      "周": 973,
      "味": 974,
      "命": 975,
      "咁": 976,
      "和": 977,
      "咎": 978,
      "咲": 979,
      "哀": 980,
      "哉": 981,
      "哲": 982,
      "唐": 983,
      "唔": 984,
      "唱": 985,
      "啦": 986,
      "善": 987,
      "喜": 988,
      "嗣": 989,
      "嘉": 990,
      "噉": 991,
      "噌": 992,
      "器": 993,
      "四": 994,
      "回": 995,
      "因": 996,
      "団": 997,
      "図": 998,
      "国": 999,
      "國": 1000,
      "園": 1001,
      "團": 1002,
      "土": 1003,
      "在": 1004,
      "地": 1005,
      "场": 1006,
      "均": 1007,
      "坊": 1008,
      "坳": 1009,
      "垂": 1010,
      "城": 1011,
      "基": 1012,
      "堂": 1013,
      "報": 1014,
      "場": 1015,
      "塾": 1016,
      "墓": 1017,
      "増": 1018,
      "士": 1019,
      "壱": 1020,
      "夕": 1021,
      "外": 1022,
      "夙": 1023,
      "夜": 1024,
      "夢": 1025,
      "大": 1026,
      "天": 1027,
      "太": 1028,
      "夫": 1029,
      "头": 1030,
      "奄": 1031,
      "奇": 1032,
      "奈": 1033,
      "奉": 1034,
      "奥": 1035,
      "女": 1036,
      "妃": 1037,
      "妙": 1038,
      "姑": 1039,
      "姓": 1040,
      "姫": 1041,
      "姬": 1042,
      "娃": 1043,
      "婆": 1044,
      "媞": 1045,
      "子": 1046,
      "字": 1047,
      "孚": 1048,
      "孝": 1049,
      "季": 1050,
      "学": 1051,
      "學": 1052,
      "宇": 1053,
      "安": 1054,
      "宋": 1055,
      "宏": 1056,
      "宗": 1057,
      "定": 1058,
      "宝": 1059,
      "実": 1060,
      "客": 1061,
      "宣": 1062,
      "宮": 1063,
      "家": 1064,
      "容": 1065,
      "宿": 1066,
      "密": 1067,
      "寛": 1068,
      "察": 1069,
      "實": 1070,
      "寧": 1071,
      "寺": 1072,
      "対": 1073,
      "寿": 1074,
      "将": 1075,
      "將": 1076,
      "對": 1077,
      "小": 1078,
      "少": 1079,
      "尔": 1080,
      "尘": 1081,
      "尚": 1082,
      "尼": 1083,
      "尾": 1084,
      "居": 1085,
      "屈": 1086,
      "屋": 1087,
      "属": 1088,
      "山": 1089,
      "岐": 1090,
      "岑": 1091,
      "岛": 1092,
      "岡": 1093,
      "岩": 1094,
      "岬": 1095,
      "岭": 1096,
      "岳": 1097,
      "岸": 1098,
      "峦": 1099,
      "峰": 1100,
      "島": 1101,
      "峻": 1102,
      "崎": 1103,
      "嶋": 1104,
      "川": 1105,
      "州": 1106,
      "工": 1107,
      "左": 1108,
      "巫": 1109,
      "巴": 1110,
      "巻": 1111,
      "巾": 1112,
      "市": 1113,
      "布": 1114,
      "师": 1115,
      "帝": 1116,
      "師": 1117,
      "帯": 1118,
      "帰": 1119,
      "常": 1120,
      "帽": 1121,
      "幕": 1122,
      "幣": 1123,
      "平": 1124,
      "年": 1125,
      "幽": 1126,
      "庁": 1127,
      "広": 1128,
      "庄": 1129,
      "庆": 1130,
      "庇": 1131,
      "府": 1132,
      "度": 1133,
      "庭": 1134,
      "廃": 1135,
      "廣": 1136,
      "建": 1137,
      "开": 1138,
      "弁": 1139,
      "式": 1140,
      "弟": 1141,
      "张": 1142,
      "弥": 1143,
      "彦": 1144,
      "影": 1145,
      "律": 1146,
      "徒": 1147,
      "御": 1148,
      "徳": 1149,
      "德": 1150,
      "徹": 1151,
      "徽": 1152,
      "心": 1153,
      "志": 1154,
      "忘": 1155,
      "応": 1156,
      "忠": 1157,
      "忧": 1158,
      "念": 1159,
      "性": 1160,
      "总": 1161,
      "恆": 1162,
      "恋": 1163,
      "恐": 1164,
      "恩": 1165,
      "恭": 1166,
      "恺": 1167,
      "情": 1168,
      "惑": 1169,
      "惠": 1170,
      "惡": 1171,
      "惧": 1172,
      "惯": 1173,
      "想": 1174,
      "愈": 1175,
      "愛": 1176,
      "慶": 1177,
      "應": 1178,
      "懿": 1179,
      "成": 1180,
      "我": 1181,
      "戦": 1182,
      "戰": 1183,
      "戶": 1184,
      "戸": 1185,
      "房": 1186,
      "托": 1187,
      "技": 1188,
      "折": 1189,
      "护": 1190,
      "报": 1191,
      "拒": 1192,
      "拓": 1193,
      "振": 1194,
      "排": 1195,
      "接": 1196,
      "摩": 1197,
      "撃": 1198,
      "擊": 1199,
      "支": 1200,
      "政": 1201,
      "教": 1202,
      "敦": 1203,
      "敵": 1204,
      "文": 1205,
      "斎": 1206,
      "斗": 1207,
      "新": 1208,
      "施": 1209,
      "旅": 1210,
      "旗": 1211,
      "日": 1212,
      "旭": 1213,
      "明": 1214,
      "易": 1215,
      "星": 1216,
      "春": 1217,
      "時": 1218,
      "晚": 1219,
      "智": 1220,
      "暢": 1221,
      "暦": 1222,
      "暨": 1223,
      "暮": 1224,
      "書": 1225,
      "最": 1226,
      "會": 1227,
      "月": 1228,
      "有": 1229,
      "朝": 1230,
      "期": 1231,
      "木": 1232,
      "本": 1233,
      "朱": 1234,
      "机": 1235,
      "杉": 1236,
      "李": 1237,
      "村": 1238,
      "束": 1239,
      "条": 1240,
      "東": 1241,
      "松": 1242,
      "林": 1243,
      "枚": 1244,
      "枝": 1245,
      "校": 1246,
      "株": 1247,
      "栾": 1248,
      "桂": 1249,
      "桐": 1250,
      "桑": 1251,
      "桓": 1252,
      "档": 1253,
      "桧": 1254,
      "梓": 1255,
      "棋": 1256,
      "棒": 1257,
      "森": 1258,
      "棺": 1259,
      "楊": 1260,
      "業": 1261,
      "極": 1262,
      "楽": 1263,
      "榜": 1264,
      "槍": 1265,
      "様": 1266,
      "樂": 1267,
      "横": 1268,
      "樹": 1269,
      "橋": 1270,
      "機": 1271,
      "檜": 1272,
      "權": 1273,
      "次": 1274,
      "欢": 1275,
      "正": 1276,
      "步": 1277,
      "武": 1278,
      "死": 1279,
      "歼": 1280,
      "段": 1281,
      "殺": 1282,
      "殿": 1283,
      "毛": 1284,
      "氏": 1285,
      "民": 1286,
      "氢": 1287,
      "水": 1288,
      "永": 1289,
      "汗": 1290,
      "池": 1291,
      "污": 1292,
      "決": 1293,
      "沖": 1294,
      "沙": 1295,
      "河": 1296,
      "治": 1297,
      "泉": 1298,
      "法": 1299,
      "波": 1300,
      "泰": 1301,
      "洋": 1302,
      "洗": 1303,
      "洛": 1304,
      "洞": 1305,
      "津": 1306,
      "活": 1307,
      "派": 1308,
      "流": 1309,
      "浅": 1310,
      "浜": 1311,
      "海": 1312,
      "浸": 1313,
      "涙": 1314,
      "涯": 1315,
      "涼": 1316,
      "淑": 1317,
      "深": 1318,
      "淳": 1319,
      "混": 1320,
      "清": 1321,
      "渡": 1322,
      "港": 1323,
      "湖": 1324,
      "湯": 1325,
      "源": 1326,
      "溪": 1327,
      "滅": 1328,
      "满": 1329,
      "演": 1330,
      "漢": 1331,
      "澄": 1332,
      "澤": 1333,
      "濯": 1334,
      "瀬": 1335,
      "灣": 1336,
      "火": 1337,
      "炭": 1338,
      "無": 1339,
      "焼": 1340,
      "煎": 1341,
      "照": 1342,
      "煮": 1343,
      "熊": 1344,
      "熹": 1345,
      "燁": 1346,
      "營": 1347,
      "爱": 1348,
      "爵": 1349,
      "父": 1350,
      "爾": 1351,
      "牛": 1352,
      "牢": 1353,
      "物": 1354,
      "特": 1355,
      "犭": 1356,
      "狂": 1357,
      "狩": 1358,
      "猫": 1359,
      "猿": 1360,
      "獞": 1361,
      "玄": 1362,
      "玉": 1363,
      "王": 1364,
      "珈": 1365,
      "珎": 1366,
      "班": 1367,
      "球": 1368,
      "理": 1369,
      "琲": 1370,
      "瑟": 1371,
      "璠": 1372,
      "環": 1373,
      "璽": 1374,
      "瓦": 1375,
      "甘": 1376,
      "甜": 1377,
      "生": 1378,
      "産": 1379,
      "田": 1380,
      "申": 1381,
      "男": 1382,
      "町": 1383,
      "畅": 1384,
      "留": 1385,
      "畠": 1386,
      "略": 1387,
      "痕": 1388,
      "発": 1389,
      "白": 1390,
      "的": 1391,
      "皇": 1392,
      "皮": 1393,
      "盆": 1394,
      "益": 1395,
      "盖": 1396,
      "盛": 1397,
      "目": 1398,
      "相": 1399,
      "省": 1400,
      "県": 1401,
      "真": 1402,
      "着": 1403,
      "矢": 1404,
      "知": 1405,
      "短": 1406,
      "石": 1407,
      "碗": 1408,
      "磁": 1409,
      "社": 1410,
      "祐": 1411,
      "祖": 1412,
      "祝": 1413,
      "神": 1414,
      "祥": 1415,
      "祿": 1416,
      "福": 1417,
      "禛": 1418,
      "秀": 1419,
      "秋": 1420,
      "科": 1421,
      "秘": 1422,
      "税": 1423,
      "種": 1424,
      "稲": 1425,
      "積": 1426,
      "穴": 1427,
      "空": 1428,
      "突": 1429,
      "章": 1430,
      "童": 1431,
      "竹": 1432,
      "笔": 1433,
      "第": 1434,
      "筆": 1435,
      "筑": 1436,
      "策": 1437,
      "箕": 1438,
      "節": 1439,
      "篮": 1440,
      "粉": 1441,
      "系": 1442,
      "紀": 1443,
      "約": 1444,
      "納": 1445,
      "紛": 1446,
      "素": 1447,
      "索": 1448,
      "紫": 1449,
      "細": 1450,
      "組": 1451,
      "統": 1452,
      "絵": 1453,
      "經": 1454,
      "継": 1455,
      "綱": 1456,
      "編": 1457,
      "練": 1458,
      "縄": 1459,
      "縦": 1460,
      "繁": 1461,
      "繇": 1462,
      "繍": 1463,
      "織": 1464,
      "繼": 1465,
      "纪": 1466,
      "纯": 1467,
      "纸": 1468,
      "绝": 1469,
      "罄": 1470,
      "罩": 1471,
      "美": 1472,
      "群": 1473,
      "義": 1474,
      "羲": 1475,
      "羽": 1476,
      "習": 1477,
      "翔": 1478,
      "翱": 1479,
      "老": 1480,
      "者": 1481,
      "耕": 1482,
      "联": 1483,
      "聖": 1484,
      "聡": 1485,
      "職": 1486,
      "肉": 1487,
      "肖": 1488,
      "股": 1489,
      "育": 1490,
      "背": 1491,
      "能": 1492,
      "脱": 1493,
      "膝": 1494,
      "膺": 1495,
      "臣": 1496,
      "臨": 1497,
      "致": 1498,
      "與": 1499,
      "興": 1500,
      "舊": 1501,
      "舞": 1502,
      "航": 1503,
      "船": 1504,
      "艦": 1505,
      "良": 1506,
      "艾": 1507,
      "花": 1508,
      "芳": 1509,
      "芸": 1510,
      "苏": 1511,
      "若": 1512,
      "英": 1513,
      "茶": 1514,
      "草": 1515,
      "荒": 1516,
      "莫": 1517,
      "菓": 1518,
      "華": 1519,
      "葉": 1520,
      "蒙": 1521,
      "蒟": 1522,
      "蒲": 1523,
      "蒻": 1524,
      "蒼": 1525,
      "蓋": 1526,
      "蔽": 1527,
      "薛": 1528,
      "薬": 1529,
      "薯": 1530,
      "藤": 1531,
      "虎": 1532,
      "處": 1533,
      "號": 1534,
      "虾": 1535,
      "血": 1536,
      "行": 1537,
      "術": 1538,
      "街": 1539,
      "衛": 1540,
      "衞": 1541,
      "衫": 1542,
      "裁": 1543,
      "装": 1544,
      "裕": 1545,
      "補": 1546,
      "裳": 1547,
      "製": 1548,
      "西": 1549,
      "要": 1550,
      "見": 1551,
      "親": 1552,
      "言": 1553,
      "託": 1554,
      "記": 1555,
      "訪": 1556,
      "詩": 1557,
      "話": 1558,
      "誉": 1559,
      "語": 1560,
      "説": 1561,
      "諏": 1562,
      "諡": 1563,
      "议": 1564,
      "语": 1565,
      "谷": 1566,
      "豐": 1567,
      "貌": 1568,
      "貓": 1569,
      "貝": 1570,
      "貫": 1571,
      "貴": 1572,
      "賀": 1573,
      "賞": 1574,
      "賢": 1575,
      "賴": 1576,
      "贴": 1577,
      "赤": 1578,
      "赵": 1579,
      "超": 1580,
      "越": 1581,
      "足": 1582,
      "跡": 1583,
      "路": 1584,
      "踊": 1585,
      "踩": 1586,
      "身": 1587,
      "軍": 1588,
      "軒": 1589,
      "載": 1590,
      "輔": 1591,
      "輝": 1592,
      "轅": 1593,
      "软": 1594,
      "载": 1595,
      "边": 1596,
      "辻": 1597,
      "込": 1598,
      "辿": 1599,
      "运": 1600,
      "近": 1601,
      "迪": 1602,
      "迷": 1603,
      "追": 1604,
      "造": 1605,
      "連": 1606,
      "週": 1607,
      "進": 1608,
      "遊": 1609,
      "運": 1610,
      "道": 1611,
      "遠": 1612,
      "選": 1613,
      "遺": 1614,
      "避": 1615,
      "邑": 1616,
      "那": 1617,
      "邪": 1618,
      "郁": 1619,
      "郎": 1620,
      "郗": 1621,
      "部": 1622,
      "郭": 1623,
      "都": 1624,
      "里": 1625,
      "重": 1626,
      "野": 1627,
      "金": 1628,
      "釣": 1629,
      "鈞": 1630,
      "鈴": 1631,
      "鉄": 1632,
      "銀": 1633,
      "銃": 1634,
      "鋼": 1635,
      "錬": 1636,
      "鍛": 1637,
      "鍾": 1638,
      "钦": 1639,
      "钰": 1640,
      "锋": 1641,
      "锦": 1642,
      "長": 1643,
      "門": 1644,
      "開": 1645,
      "間": 1646,
      "関": 1647,
      "门": 1648,
      "阪": 1649,
      "阳": 1650,
      "阿": 1651,
      "陁": 1652,
      "限": 1653,
      "院": 1654,
      "陵": 1655,
      "陷": 1656,
      "陸": 1657,
      "陽": 1658,
      "隆": 1659,
      "隊": 1660,
      "雀": 1661,
      "雄": 1662,
      "雅": 1663,
      "集": 1664,
      "雪": 1665,
      "雲": 1666,
      "電": 1667,
      "霊": 1668,
      "霖": 1669,
      "霞": 1670,
      "青": 1671,
      "靖": 1672,
      "面": 1673,
      "革": 1674,
      "鞑": 1675,
      "韓": 1676,
      "音": 1677,
      "韶": 1678,
      "順": 1679,
      "領": 1680,
      "顶": 1681,
      "風": 1682,
      "飛": 1683,
      "飞": 1684,
      "食": 1685,
      "飴": 1686,
      "餅": 1687,
      "館": 1688,
      "馆": 1689,
      "香": 1690,
      "馬": 1691,
      "馮": 1692,
      "駅": 1693,
      "騎": 1694,
      "马": 1695,
      "體": 1696,
      "高": 1697,
      "髪": 1698,
      "魔": 1699,
      "鱼": 1700,
      "鳥": 1701,
      "鴎": 1702,
      "鴨": 1703,
      "鹰": 1704,
      "麻": 1705,
      "黄": 1706,
      "黑": 1707,
      "黒": 1708,
      "齋": 1709,
      "龍": 1710,
      "龙": 1711,
      "ꠍ": 1712,
      "ꠐ": 1713,
      "ꠟ": 1714,
      "ꠤ": 1715,
      "가": 1716,
      "강": 1717,
      "개": 1718,
      "건": 1719,
      "검": 1720,
      "것": 1721,
      "게": 1722,
      "고": 1723,
      "곱": 1724,
      "공": 1725,
      "곶": 1726,
      "과": 1727,
      "관": 1728,
      "교": 1729,
      "구": 1730,
      "국": 1731,
      "군": 1732,
      "궁": 1733,
      "권": 1734,
      "규": 1735,
      "그": 1736,
      "근": 1737,
      "금": 1738,
      "기": 1739,
      "김": 1740,
      "꽃": 1741,
      "나": 1742,
      "날": 1743,
      "남": 1744,
      "내": 1745,
      "너": 1746,
      "넌": 1747,
      "네": 1748,
      "년": 1749,
      "노": 1750,
      "녹": 1751,
      "눈": 1752,
      "는": 1753,
      "늘": 1754,
      "니": 1755,
      "다": 1756,
      "당": 1757,
      "대": 1758,
      "데": 1759,
      "도": 1760,
      "동": 1761,
      "두": 1762,
      "드": 1763,
      "등": 1764,
      "땀": 1765,
      "땡": 1766,
      "뛰": 1767,
      "라": 1768,
      "람": 1769,
      "랑": 1770,
      "략": 1771,
      "량": 1772,
      "레": 1773,
      "령": 1774,
      "로": 1775,
      "료": 1776,
      "류": 1777,
      "르": 1778,
      "륵": 1779,
      "를": 1780,
      "릉": 1781,
      "리": 1782,
      "린": 1783,
      "림": 1784,
      "립": 1785,
      "마": 1786,
      "말": 1787,
      "맛": 1788,
      "매": 1789,
      "맨": 1790,
      "먼": 1791,
      "며": 1792,
      "명": 1793,
      "목": 1794,
      "몽": 1795,
      "무": 1796,
      "문": 1797,
      "물": 1798,
      "미": 1799,
      "민": 1800,
      "밀": 1801,
      "바": 1802,
      "박": 1803,
      "밖": 1804,
      "반": 1805,
      "발": 1806,
      "방": 1807,
      "배": 1808,
      "백": 1809,
      "버": 1810,
      "번": 1811,
      "베": 1812,
      "벽": 1813,
      "별": 1814,
      "복": 1815,
      "본": 1816,
      "봉": 1817,
      "부": 1818,
      "불": 1819,
      "뷰": 1820,
      "블": 1821,
      "비": 1822,
      "빼": 1823,
      "사": 1824,
      "산": 1825,
      "삼": 1826,
      "상": 1827,
      "색": 1828,
      "서": 1829,
      "석": 1830,
      "선": 1831,
      "설": 1832,
      "성": 1833,
      "세": 1834,
      "센": 1835,
      "소": 1836,
      "송": 1837,
      "쇼": 1838,
      "수": 1839,
      "숙": 1840,
      "술": 1841,
      "스": 1842,
      "승": 1843,
      "시": 1844,
      "식": 1845,
      "신": 1846,
      "심": 1847,
      "씨": 1848,
      "아": 1849,
      "안": 1850,
      "않": 1851,
      "애": 1852,
      "야": 1853,
      "약": 1854,
      "양": 1855,
      "어": 1856,
      "없": 1857,
      "엌": 1858,
      "에": 1859,
      "엔": 1860,
      "여": 1861,
      "역": 1862,
      "연": 1863,
      "영": 1864,
      "오": 1865,
      "옥": 1866,
      "온": 1867,
      "올": 1868,
      "완": 1869,
      "왕": 1870,
      "요": 1871,
      "용": 1872,
      "우": 1873,
      "운": 1874,
      "울": 1875,
      "웃": 1876,
      "원": 1877,
      "유": 1878,
      "육": 1879,
      "융": 1880,
      "으": 1881,
      "은": 1882,
      "을": 1883,
      "음": 1884,
      "읍": 1885,
      "의": 1886,
      "이": 1887,
      "인": 1888,
      "일": 1889,
      "있": 1890,
      "자": 1891,
      "장": 1892,
      "전": 1893,
      "정": 1894,
      "제": 1895,
      "종": 1896,
      "주": 1897,
      "지": 1898,
      "직": 1899,
      "진": 1900,
      "집": 1901,
      "차": 1902,
      "창": 1903,
      "천": 1904,
      "첨": 1905,
      "쳐": 1906,
      "초": 1907,
      "촌": 1908,
      "최": 1909,
      "추": 1910,
      "축": 1911,
      "출": 1912,
      "춤": 1913,
      "치": 1914,
      "친": 1915,
      "침": 1916,
      "켓": 1917,
      "큰": 1918,
      "타": 1919,
      "탄": 1920,
      "태": 1921,
      "터": 1922,
      "테": 1923,
      "템": 1924,
      "토": 1925,
      "통": 1926,
      "트": 1927,
      "티": 1928,
      "파": 1929,
      "페": 1930,
      "평": 1931,
      "표": 1932,
      "풀": 1933,
      "프": 1934,
      "피": 1935,
      "픽": 1936,
      "하": 1937,
      "학": 1938,
      "한": 1939,
      "핵": 1940,
      "행": 1941,
      "향": 1942,
      "현": 1943,
      "혈": 1944,
      "형": 1945,
      "혜": 1946,
      "호": 1947,
      "홍": 1948,
      "화": 1949,
      "환": 1950,
      "황": 1951,
      "회": 1952,
      "후": 1953,
      "훈": 1954,
      "훔": 1955,
      "희": 1956,
      "！": 1957,
      "％": 1958,
      "＆": 1959,
      "，": 1960,
      "／": 1961,
      "１": 1962,
      "６": 1963,
      "～": 1964,
      "･": 1965,
      "￡": 1966,
      "ng": 1967,
      "nh": 1968,
      "eo": 1969,
      "eos": 1970,
      "th": 1971,
      "ch": 1972,
      "tr": 1973,
      "kh": 1974,
      "và": 1975,
      "ph": 1976,
      "ông": 1977,
      "là": 1978,
      "gi": 1979,
      "củ": 1980,
      "của": 1981,
      "ên": 1982,
      "cá": 1983,
      "ột": 1984,
      "ượ": 1985,
      "ôi": 1986,
      "một": 1987,
      "có": 1988,
      "iệ": 1989,
      "qu": 1990,
      "iế": 1991,
      "ườ": 1992,
      "ới": 1993,
      "tôi": 1994,
      "an": 1995,
      "ược": 1996,
      "được": 1997,
      "không": 1998,
      "ong": 1999,
      "ại": 2000,
      "anh": 2001,
      "ất": 2002,
      "ta": 2003,
      "ày": 2004,
      "trong": 2005,
      "các": 2006,
      "đã": 2007,
      "uy": 2008,
      "ười": 2009,
      "nă": 2010,
      "on": 2011,
      "người": 2012,
      "nó": 2013,
      "cho": 2014,
      "ra": 2015,
      "như": 2016,
      "ti": 2017,
      "năm": 2018,
      "chú": 2019,
      "với": 2020,
      "đó": 2021,
      "sa": 2022,
      "đi": 2023,
      "ân": 2024,
      "ình": 2025,
      "ngh": 2026,
      "ải": 2027,
      "ững": 2028,
      "ều": 2029,
      "những": 2030,
      "ành": 2031,
      "ần": 2032,
      "ấy": 2033,
      "ai": 2034,
      "chúng": 2035,
      "ây": 2036,
      "này": 2037,
      "họ": 2038,
      "ay": 2039,
      "thể": 2040,
      "ho": 2041,
      "vào": 2042,
      "iên": 2043,
      "er": 2044,
      "ến": 2045,
      "ầu": 2046,
      "khi": 2047,
      "ướ": 2048,
      "ang": 2049,
      "sẽ": 2050,
      "áng": 2051,
      "từ": 2052,
      "iết": 2053,
      "ác": 2054,
      "độ": 2055,
      "ươ": 2056,
      "đến": 2057,
      "ết": 2058,
      "để": 2059,
      "uố": 2060,
      "in": 2061,
      "ật": 2062,
      "làm": 2063,
      "iện": 2064,
      "ar": 2065,
      "cả": 2066,
      "ực": 2067,
      "ài": 2068,
      "sự": 2069,
      "em": 2070,
      "ính": 2071,
      "ản": 2072,
      "số": 2073,
      "ước": 2074,
      "am": 2075,
      "cô": 2076,
      "ạn": 2077,
      "en": 2078,
      "ận": 2079,
      "ời": 2080,
      "ằng": 2081,
      "ường": 2082,
      "ương": 2083,
      "phải": 2084,
      "con": 2085,
      "ức": 2086,
      "iến": 2087,
      "thành": 2088,
      "ao": 2089,
      "ơn": 2090,
      "về": 2091,
      "phá": 2092,
      "inh": 2093,
      "lo": 2094,
      "19": 2095,
      "âu": 2096,
      "20": 2097,
      "đầu": 2098,
      "al": 2099,
      "ung": 2100,
      "ùng": 2101,
      "thế": 2102,
      "àn": 2103,
      "ền": 2104,
      "ập": 2105,
      "tại": 2106,
      "iể": 2107,
      "tháng": 2108,
      "to": 2109,
      "mà": 2110,
      "việ": 2111,
      "đây": 2112,
      "cũ": 2113,
      "gì": 2114,
      "nói": 2115,
      "ốc": 2116,
      "chuy": 2117,
      "ngày": 2118,
      "nhưng": 2119,
      "ối": 2120,
      "lại": 2121,
      "bị": 2122,
      "ộc": 2123,
      "công": 2124,
      "việc": 2125,
      "do": 2126,
      "àng": 2127,
      "cũng": 2128,
      "biết": 2129,
      "sau": 2130,
      "chỉ": 2131,
      "iều": 2132,
      "ào": 2133,
      "trên": 2134,
      "es": 2135,
      "nhà": 2136,
      "uộc": 2137,
      "điều": 2138,
      "ia": 2139,
      "tiế": 2140,
      "ồi": 2141,
      "ống": 2142,
      "el": 2143,
      "ặc": 2144,
      "ổi": 2145,
      "chính": 2146,
      "đị": 2147,
      "hơn": 2148,
      "di": 2149,
      "ơi": 2150,
      "bạn": 2151,
      "học": 2152,
      "ục": 2153,
      "bắ": 2154,
      "nhất": 2155,
      "khác": 2156,
      "đang": 2157,
      "ọi": 2158,
      "co": 2159,
      "ậu": 2160,
      "nhiều": 2161,
      "nghĩ": 2162,
      "òn": 2163,
      "ích": 2164,
      "gia": 2165,
      "uốn": 2166,
      "ái": 2167,
      "ữa": 2168,
      "ăn": 2169,
      "ếu": 2170,
      "ưa": 2171,
      "vì": 2172,
      "thứ": 2173,
      "ri": 2174,
      "thấy": 2175,
      "ện": 2176,
      "ậy": 2177,
      "ro": 2178,
      "iệu": 2179,
      "quốc": 2180,
      "cách": 2181,
      "úc": 2182,
      "sao": 2183,
      "mình": 2184,
      "la": 2185,
      "rằng": 2186,
      "động": 2187,
      "dụ": 2188,
      "áo": 2189,
      "lu": 2190,
      "còn": 2191,
      "êu": 2192,
      "ạo": 2193,
      "án": 2194,
      "muốn": 2195,
      "ảo": 2196,
      "hiện": 2197,
      "ội": 2198,
      "00": 2199,
      "quan": 2200,
      "theo": 2201,
      "nào": 2202,
      "thu": 2203,
      "ởi": 2204,
      "cái": 2205,
      "cậu": 2206,
      "au": 2207,
      "âm": 2208,
      "quy": 2209,
      "vậy": 2210,
      "vi": 2211,
      "hai": 2212,
      "ồng": 2213,
      "ba": 2214,
      "bản": 2215,
      "rồi": 2216,
      "ặt": 2217,
      "ẫn": 2218,
      "bộ": 2219,
      "im": 2220,
      "or": 2221,
      "ôn": 2222,
      "tu": 2223,
      "phát": 2224,
      "ượng": 2225,
      "cuộc": 2226,
      "ấn": 2227,
      "ứng": 2228,
      "thời": 2229,
      "sử": 2230,
      "ởng": 2231,
      "ưởng": 2232,
      "cùng": 2233,
      "kho": 2234,
      "li": 2235,
      "nhân": 2236,
      "ảng": 2237,
      "le": 2238,
      "nếu": 2239,
      "trước": 2240,
      "thực": 2241,
      "dụng": 2242,
      "át": 2243,
      "giờ": 2244,
      "bởi": 2245,
      "òng": 2246,
      "rất": 2247,
      "thì": 2248,
      "ạt": 2249,
      "tin": 2250,
      "ắn": 2251,
      "hành": 2252,
      "ánh": 2253,
      "ấp": 2254,
      "xu": 2255,
      "chuyện": 2256,
      "tuy": 2257,
      "ấu": 2258,
      "đại": 2259,
      "tới": 2260,
      "tự": 2261,
      "ma": 2262,
      "định": 2263,
      "mi": 2264,
      "bao": 2265,
      "trung": 2266,
      "sinh": 2267,
      "chiến": 2268,
      "hình": 2269,
      "bằng": 2270,
      "ca": 2271,
      "us": 2272,
      "nhận": 2273,
      "lớ": 2274,
      "ách": 2275,
      "201": 2276,
      "ịch": 2277,
      "cứ": 2278,
      "nước": 2279,
      "ắc": 2280,
      "ăng": 2281,
      "giới": 2282,
      "iệt": 2283,
      "tên": 2284,
      "ển": 2285,
      "bắt": 2286,
      "bu": 2287,
      "nên": 2288,
      "ạc": 2289,
      "ợp": 2290,
      "hợp": 2291,
      "phần": 2292,
      "tổ": 2293,
      "qua": 2294,
      "tiên": 2295,
      "xuất": 2296,
      "ngo": 2297,
      "trở": 2298,
      "ìm": 2299,
      "cần": 2300,
      "viên": 2301,
      "ạng": 2302,
      "te": 2303,
      "lớn": 2304,
      "ỏi": 2305,
      "is": 2306,
      "liên": 2307,
      "200": 2308,
      "cơ": 2309,
      "kết": 2310,
      "đo": 2311,
      "tiếng": 2312,
      "dự": 2313,
      "giải": 2314,
      "đồng": 2315,
      "re": 2316,
      "iển": 2317,
      "lên": 2318,
      "vị": 2319,
      "iểu": 2320,
      "lý": 2321,
      "bà": 2322,
      "má": 2323,
      "tiếp": 2324,
      "hoặc": 2325,
      "so": 2326,
      "tìm": 2327,
      "hi": 2328,
      "phí": 2329,
      "khu": 2330,
      "iệm": 2331,
      "tố": 2332,
      "trường": 2333,
      "ọng": 2334,
      "hay": 2335,
      "quân": 2336,
      "ne": 2337,
      "chủ": 2338,
      "sống": 2339,
      "thường": 2340,
      "ễn": 2341,
      "hàng": 2342,
      "hội": 2343,
      "da": 2344,
      "trình": 2345,
      "lần": 2346,
      "mới": 2347,
      "kỳ": 2348,
      "ộng": 2349,
      "tất": 2350,
      "mọi": 2351,
      "gọi": 2352,
      "ỗi": 2353,
      "êm": 2354,
      "dân": 2355,
      "thông": 2356,
      "tính": 2357,
      "nữa": 2358,
      "thống": 2359,
      "đề": 2360,
      "tế": 2361,
      "tạo": 2362,
      "đối": 2363,
      "mặt": 2364,
      "ọn": 2365,
      "ừng": 2366,
      "bố": 2367,
      "ồn": 2368,
      "hệ": 2369,
      "vật": 2370,
      "pháp": 2371,
      "lập": 2372,
      "iệp": 2373,
      "vụ": 2374,
      "bo": 2375,
      "thật": 2376,
      "and": 2377,
      "lượng": 2378,
      "nơi": 2379,
      "si": 2380,
      "chiế": 2381,
      "bảo": 2382,
      "nhau": 2383,
      "máy": 2384,
      "nam": 2385,
      "gian": 2386,
      "óa": 2387,
      "nhiên": 2388,
      "đâu": 2389,
      "toàn": 2390,
      "óng": 2391,
      "phía": 2392,
      "cao": 2393,
      "ạnh": 2394,
      "đường": 2395,
      "vẫn": 2396,
      "sản": 2397,
      "na": 2398,
      "ua": 2399,
      "đội": 2400,
      "năng": 2401,
      "giá": 2402,
      "ắng": 2403,
      "truy": 2404,
      "thay": 2405,
      "ban": 2406,
      "se": 2407,
      "uối": 2408,
      "ảnh": 2409,
      "de": 2410,
      "đổi": 2411,
      "úng": 2412,
      "ảy": 2413,
      "quá": 2414,
      "lực": 2415,
      "tốt": 2416,
      "ệnh": 2417,
      "chi": 2418,
      "diễn": 2419,
      "nguy": 2420,
      "trị": 2421,
      "ter": 2422,
      "cầu": 2423,
      "loại": 2424,
      "tác": 2425,
      "un": 2426,
      "hã": 2427,
      "thủ": 2428,
      "hắn": 2429,
      "bất": 2430,
      "ty": 2431,
      "ngoài": 2432,
      "tâm": 2433,
      "10": 2434,
      "chuyển": 2435,
      "ồm": 2436,
      "thị": 2437,
      "cảm": 2438,
      "ắt": 2439,
      "18": 2440,
      "giáo": 2441,
      "chu": 2442,
      "hóa": 2443,
      "chưa": 2444,
      "thức": 2445,
      "ểm": 2446,
      "gồm": 2447,
      "thiết": 2448,
      "cuối": 2449,
      "đưa": 2450,
      "chức": 2451,
      "điểm": 2452,
      "thích": 2453,
      "câu": 2454,
      "ưới": 2455,
      "quyền": 2456,
      "sĩ": 2457,
      "đấy": 2458,
      "ặp": 2459,
      "nay": 2460,
      "lúc": 2461,
      "giả": 2462,
      "ìn": 2463,
      "ửa": 2464,
      "khoảng": 2465,
      "su": 2466,
      "chứ": 2467,
      "trọng": 2468,
      "tập": 2469,
      "cứu": 2470,
      "bay": 2471,
      "phi": 2472,
      "úp": 2473,
      "tranh": 2474,
      "phố": 2475,
      "cấp": 2476,
      "sh": 2477,
      "ướng": 2478,
      "ẳng": 2479,
      "bên": 2480,
      "nghe": 2481,
      "chết": 2482,
      "me": 2483,
      "mẹ": 2484,
      "àu": 2485,
      "bỏ": 2486,
      "ẩn": 2487,
      "giữa": 2488,
      "phim": 2489,
      "báo": 2490,
      "tình": 2491,
      "ép": 2492,
      "biệt": 2493,
      "ki": 2494,
      "chơi": 2495,
      "địa": 2496,
      "nữ": 2497,
      "nghĩa": 2498,
      "yêu": 2499,
      "tay": 2500,
      "hoa": 2501,
      "tây": 2502,
      "vực": 2503,
      "nhìn": 2504,
      "bi": 2505,
      "sáng": 2506,
      "đất": 2507,
      "tho": 2508,
      "xem": 2509,
      "ạm": 2510,
      "ẩm": 2511,
      "phương": 2512,
      "phân": 2513,
      "giống": 2514,
      "thôi": 2515,
      "tiền": 2516,
      "cha": 2517,
      "triển": 2518,
      "phòng": 2519,
      "po": 2520,
      "kinh": 2521,
      "hoạt": 2522,
      "đông": 2523,
      "gần": 2524,
      "dù": 2525,
      "kế": 2526,
      "đều": 2527,
      "ạch": 2528,
      "ce": 2529,
      "bình": 2530,
      "ầm": 2531,
      "ni": 2532,
      "vấn": 2533,
      "thuật": 2534,
      "chất": 2535,
      "tham": 2536,
      "tương": 2537,
      "giúp": 2538,
      "ằm": 2539,
      "ka": 2540,
      "mar": 2541,
      "chị": 2542,
      "biến": 2543,
      "tư": 2544,
      "nghiệp": 2545,
      "hiệu": 2546,
      "uống": 2547,
      "đánh": 2548,
      "mỹ": 2549,
      "tàu": 2550,
      "bắc": 2551,
      "áu": 2552,
      "ám": 2553,
      "mo": 2554,
      "gh": 2555,
      "mất": 2556,
      "đặc": 2557,
      "hết": 2558,
      "lan": 2559,
      "ko": 2560,
      "òa": 2561,
      "liệu": 2562,
      "phụ": 2563,
      "as": 2564,
      "bài": 2565,
      "gặp": 2566,
      "cộng": 2567,
      "từng": 2568,
      "ngay": 2569,
      "tổng": 2570,
      "hãy": 2571,
      "truyền": 2572,
      "út": 2573,
      "điện": 2574,
      "văn": 2575,
      "hoàn": 2576,
      "cố": 2577,
      "đơn": 2578,
      "199": 2579,
      "khỏi": 2580,
      "ưu": 2581,
      "ợi": 2582,
      "dưới": 2583,
      "đúng": 2584,
      "thuộc": 2585,
      "đạo": 2586,
      "chiếc": 2587,
      "nhỏ": 2588,
      "vài": 2589,
      "go": 2590,
      "lời": 2591,
      "the": 2592,
      "dẫn": 2593,
      "dịch": 2594,
      "ly": 2595,
      "trí": 2596,
      "nhó": 2597,
      "xe": 2598,
      "sát": 2599,
      "ton": 2600,
      "12": 2601,
      "vùng": 2602,
      "quả": 2603,
      "bệnh": 2604,
      "kể": 2605,
      "lã": 2606,
      "ét": 2607,
      "nhạc": 2608,
      "thi": 2609,
      "minh": 2610,
      "tưởng": 2611,
      "pe": 2612,
      "tử": 2613,
      "iểm": 2614,
      "đấu": 2615,
      "xác": 2616,
      "sách": 2617,
      "tăng": 2618,
      "no": 2619,
      "dùng": 2620,
      "châu": 2621,
      "thương": 2622,
      "chế": 2623,
      "ắm": 2624,
      "ít": 2625,
      "ạy": 2626,
      "man": 2627,
      "tiến": 2628,
      "loài": 2629,
      "mù": 2630,
      "ur": 2631,
      "va": 2632,
      "tan": 2633,
      "mang": 2634,
      "viết": 2635,
      "be": 2636,
      "tớ": 2637,
      "quyết": 2638,
      "áp": 2639,
      "tài": 2640,
      "đặt": 2641,
      "tiêu": 2642,
      "vô": 2643,
      "mô": 2644,
      "cảnh": 2645,
      "trẻ": 2646,
      "il": 2647,
      "khí": 2648,
      "nhật": 2649,
      "11": 2650,
      "danh": 2651,
      "ga": 2652,
      "lấy": 2653,
      "nhóm": 2654,
      "thuy": 2655,
      "ừa": 2656,
      "nhiệm": 2657,
      "cu": 2658,
      "tra": 2659,
      "mỗi": 2660,
      "ber": 2661,
      "phẩm": 2662,
      "hoàng": 2663,
      "nguyên": 2664,
      "đảo": 2665,
      "mặc": 2666,
      "xảy": 2667,
      "ha": 2668,
      "ngu": 2669,
      "pi": 2670,
      "000": 2671,
      "phục": 2672,
      "thân": 2673,
      "trang": 2674,
      "bán": 2675,
      "hỏi": 2676,
      "chứng": 2677,
      "giết": 2678,
      "viện": 2679,
      "phép": 2680,
      "jo": 2681,
      "ắp": 2682,
      "gái": 2683,
      "tục": 2684,
      "nghệ": 2685,
      "trò": 2686,
      "tuổi": 2687,
      "hiểu": 2688,
      "kỷ": 2689,
      "nổi": 2690,
      "giữ": 2691,
      "duy": 2692,
      "pa": 2693,
      "thần": 2694,
      "đức": 2695,
      "đáng": 2696,
      "cổ": 2697,
      "ọc": 2698,
      "du": 2699,
      "vệ": 2700,
      "tinh": 2701,
      "xin": 2702,
      "phủ": 2703,
      "nằm": 2704,
      "ệt": 2705,
      "mở": 2706,
      "chắc": 2707,
      "trưởng": 2708,
      "huy": 2709,
      "trận": 2710,
      "nghiên": 2711,
      "tối": 2712,
      "biển": 2713,
      "15": 2714,
      "chương": 2715,
      "ăm": 2716,
      "óc": 2717,
      "đô": 2718,
      "trai": 2719,
      "luôn": 2720,
      "luật": 2721,
      "mạnh": 2722,
      "giao": 2723,
      "thái": 2724,
      "chí": 2725,
      "tượng": 2726,
      "bé": 2727,
      "dài": 2728,
      "đời": 2729,
      "đồ": 2730,
      "hy": 2731,
      "mùa": 2732,
      "tích": 2733,
      "ỉnh": 2734,
      "cung": 2735,
      "cháu": 2736,
      "hướng": 2737,
      "mục": 2738,
      "ạp": 2739,
      "thêm": 2740,
      "mày": 2741,
      ".\"": 2742,
      "sở": 2743,
      "lin": 2744,
      "gu": 2745,
      "bóng": 2746,
      "iếm": 2747,
      "ci": 2748,
      "hộ": 2749,
      "mã": 2750,
      "ầy": 2751,
      "triệu": 2752,
      "lịch": 2753,
      "đình": 2754,
      "ấm": 2755,
      "trả": 2756,
      "bọn": 2757,
      "bây": 2758,
      "car": 2759,
      "nhập": 2760,
      "ứa": 2761,
      "yếu": 2762,
      "chọn": 2763,
      "chẳng": 2764,
      "hô": 2765,
      "cư": 2766,
      "rộng": 2767,
      "sư": 2768,
      "hạn": 2769,
      "gây": 2770,
      "17": 2771,
      "nhi": 2772,
      "biểu": 2773,
      "198": 2774,
      "thư": 2775,
      "xuống": 2776,
      "đừng": 2777,
      "diện": 2778,
      "ke": 2779,
      "nghiệm": 2780,
      "lẽ": 2781,
      "nguồn": 2782,
      "khả": 2783,
      "ry": 2784,
      "dựng": 2785,
      "xây": 2786,
      "ge": 2787,
      "vũ": 2788,
      "ran": 2789,
      "lạc": 2790,
      "khoa": 2791,
      "đoàn": 2792,
      "phản": 2793,
      "ngữ": 2794,
      "ngươ": 2795,
      "trái": 2796,
      "êng": 2797,
      "ẫu": 2798,
      "xa": 2799,
      "trợ": 2800,
      "ựa": 2801,
      "can": 2802,
      "194": 2803,
      "độc": 2804,
      "nghi": 2805,
      "vận": 2806,
      "lãnh": 2807,
      "ve": 2808,
      "khó": 2809,
      "đóng": 2810,
      "thuyết": 2811,
      "kẻ": 2812,
      "hu": 2813,
      "tuần": 2814,
      "giảm": 2815,
      "lâu": 2816,
      "tao": 2817,
      "yo": 2818,
      "hưởng": 2819,
      "vu": 2820,
      "cập": 2821,
      "vai": 2822,
      "thiên": 2823,
      "đa": 2824,
      "đủ": 2825,
      "đôi": 2826,
      "chia": 2827,
      "mạng": 2828,
      "cửa": 2829,
      "thắng": 2830,
      "nhớ": 2831,
      "rõ": 2832,
      "đá": 2833,
      "xi": 2834,
      "xã": 2835,
      "hòa": 2836,
      "ard": 2837,
      "sức": 2838,
      "chung": 2839,
      "ru": 2840,
      "ngài": 2841,
      "30": 2842,
      "hát": 2843,
      "sân": 2844,
      "ngôi": 2845,
      "cử": 2846,
      "bang": 2847,
      "dạng": 2848,
      "ký": 2849,
      "lưu": 2850,
      "ủy": 2851,
      "fi": 2852,
      "new": 2853,
      "son": 2854,
      "cây": 2855,
      "wa": 2856,
      "ậm": 2857,
      "for": 2858,
      "we": 2859,
      "kiến": 2860,
      "hôm": 2861,
      "ẹp": 2862,
      "tuyệt": 2863,
      "đoạn": 2864,
      "ver": 2865,
      "ii": 2866,
      "mắt": 2867,
      "vòng": 2868,
      "kiện": 2869,
      "kiểm": 2870,
      "16": 2871,
      "uốc": 2872,
      "khiến": 2873,
      "of": 2874,
      "per": 2875,
      "ghi": 2876,
      "quản": 2877,
      "chống": 2878,
      "st": 2879,
      "hải": 2880,
      "chỗ": 2881,
      "ine": 2882,
      "197": 2883,
      "ểu": 2884,
      "50": 2885,
      "ặng": 2886,
      "lỗi": 2887,
      "trời": 2888,
      "chịu": 2889,
      "chuẩn": 2890,
      "24": 2891,
      "thử": 2892,
      "úi": 2893,
      "mu": 2894,
      "tiểu": 2895,
      "thúc": 2896,
      "thuốc": 2897,
      "ủng": 2898,
      "vương": 2899,
      "196": 2900,
      "vua": 2901,
      "mức": 2902,
      "lệ": 2903,
      "chạy": 2904,
      "chúa": 2905,
      "14": 2906,
      "--": 2907,
      "dương": 2908,
      "ếp": 2909,
      "nga": 2910,
      "hầu": 2911,
      "riêng": 2912,
      "đàn": 2913,
      "chút": 2914,
      "thanh": 2915,
      "màu": 2916,
      "ngươi": 2917,
      "gen": 2918,
      "ngoại": 2919,
      "cụ": 2920,
      "nội": 2921,
      "quay": 2922,
      "ké": 2923,
      "lợi": 2924,
      "mua": 2925,
      "kiếm": 2926,
      "khách": 2927,
      "nha": 2928,
      "cáo": 2929,
      "iếu": 2930,
      "kích": 2931,
      "don": 2932,
      "ví": 2933,
      "ượt": 2934,
      "kia": 2935,
      "ềm": 2936,
      "hồi": 2937,
      "mon": 2938,
      "bức": 2939,
      "hôn": 2940,
      "san": 2941,
      "sông": 2942,
      "mấy": 2943,
      "tiết": 2944,
      "đứa": 2945,
      "ll": 2946,
      "tồn": 2947,
      "đứng": 2948,
      "ữu": 2949,
      "hữu": 2950,
      "vọng": 2951,
      "tion": 2952,
      "đế": 2953,
      "quanh": 2954,
      "ốn": 2955,
      "nghị": 2956,
      "os": 2957,
      "vừa": 2958,
      "par": 2959,
      "sang": 2960,
      "luận": 2961,
      "he": 2962,
      "ão": 2963,
      "đêm": 2964,
      "ts": 2965,
      "ĩnh": 2966,
      "phong": 2967,
      "phổ": 2968,
      "cực": 2969,
      "dễ": 2970,
      "tỉnh": 2971,
      "hậu": 2972,
      "sta": 2973,
      "khai": 2974,
      "vui": 2975,
      "tội": 2976,
      "vid": 2977,
      "dành": 2978,
      "ế": 2979,
      "coi": 2980,
      "ja": 2981,
      "hạng": 2982,
      "dục": 2983,
      "gốc": 2984,
      "vẻ": 2985,
      "lai": 2986,
      "phiên": 2987,
      "mẫu": 2988,
      "kỹ": 2989,
      "ali": 2990,
      "nhanh": 2991,
      "ya": 2992,
      "13": 2993,
      "bác": 2994,
      "đẹp": 2995,
      "trực": 2996,
      "hỗ": 2997,
      "ãi": 2998,
      "tù": 2999,
      "tòa": 3000,
      "doanh": 3001,
      "đài": 3002,
      "nền": 3003,
      "chân": 3004,
      "tri": 3005,
      "đạt": 3006,
      "ngôn": 3007,
      "tả": 3008,
      "bầu": 3009,
      "bàn": 3010,
      "buổi": 3011,
      "lắm": 3012,
      "tuyên": 3013,
      "mối": 3014,
      "suy": 3015,
      "xử": 3016,
      "ad": 3017,
      "núi": 3018,
      "wi": 3019,
      "uốt": 3020,
      "ed": 3021,
      "thú": 3022,
      "at": 3023,
      "nhiệt": 3024,
      "sai": 3025,
      "toán": 3026,
      "sợ": 3027,
      "25": 3028,
      "vo": 3029,
      "hoạch": 3030,
      "ku": 3031,
      "pro": 3032,
      "phạm": 3033,
      "lòng": 3034,
      "hà": 3035,
      "cười": 3036,
      "chuyên": 3037,
      "ld": 3038,
      "cánh": 3039,
      "bắn": 3040,
      "vợ": 3041,
      "chiếm": 3042,
      "kim": 3043,
      "rời": 3044,
      "dựa": 3045,
      "chấp": 3046,
      "bar": 3047,
      "bum": 3048,
      "thoại": 3049,
      "căn": 3050,
      "um": 3051,
      "ỏa": 3052,
      "eri": 3053,
      "les": 3054,
      "âng": 3055,
      "za": 3056,
      "album": 3057,
      "dòng": 3058,
      "đầy": 3059,
      "ưng": 3060,
      "binh": 3061,
      "ón": 3062,
      "thổ": 3063,
      "giành": 3064,
      "tuyến": 3065,
      "dữ": 3066,
      "lễ": 3067,
      "hạ": 3068,
      "đảng": 3069,
      "tí": 3070,
      "ảm": 3071,
      "cạnh": 3072,
      "ẵn": 3073,
      "fa": 3074,
      "lộ": 3075,
      "hồ": 3076,
      "tộc": 3077,
      "trừ": 3078,
      "ale": 3079,
      "kiểu": 3080,
      "sắc": 3081,
      "phút": 3082,
      "tim": 3083,
      "bại": 3084,
      "ỏng": 3085,
      "chuyến": 3086,
      "xếp": 3087,
      "thất": 3088,
      "thấp": 3089,
      "quần": 3090,
      "suốt": 3091,
      "miền": 3092,
      "giám": 3093,
      "cam": 3094,
      "ell": 3095,
      "trụ": 3096,
      "et": 3097,
      "hiểm": 3098,
      "195": 3099,
      "nu": 3100,
      "thập": 3101,
      "gam": 3102,
      "men": 3103,
      "cải": 3104,
      "triều": 3105,
      "thụ": 3106,
      "băng": 3107,
      "hiệp": 3108,
      "kéo": 3109,
      "uyên": 3110,
      "bước": 3111,
      "lệnh": 3112,
      "cuốn": 3113,
      "ấ": 3114,
      "́i": 3115,
      "trúc": 3116,
      "khá": 3117,
      "tức": 3118,
      "sẵn": 3119,
      "ina": 3120,
      "niên": 3121,
      "biên": 3122,
      "cấu": 3123,
      "land": 3124,
      "là": 3125,
      "buộc": 3126,
      "sy": 3127,
      "xét": 3128,
      "giác": 3129,
      "gắng": 3130,
      "hạt": 3131,
      "bốn": 3132,
      "đoán": 3133,
      "dấu": 3134,
      "kì": 3135,
      "tạp": 3136,
      "tor": 3137,
      "bra": 3138,
      "luy": 3139,
      "hại": 3140,
      "ven": 3141,
      "máu": 3142,
      "sắp": 3143,
      "ana": 3144,
      "càng": 3145,
      "bào": 3146,
      "fran": 3147,
      "hơi": 3148,
      "tt": 3149,
      "hn": 3150,
      "đổ": 3151,
      "soát": 3152,
      "27": 3153,
      "har": 3154,
      "mật": 3155,
      "tướng": 3156,
      "ẩu": 3157,
      "nhé": 3158,
      "trách": 3159,
      "trạng": 3160,
      "̀i": 3161,
      "giai": 3162,
      "môi": 3163,
      "bổ": 3164,
      "tỷ": 3165,
      "thậm": 3166,
      "sp": 3167,
      "all": 3168,
      "ửi": 3169,
      "luyện": 3170,
      "đốc": 3171,
      "mer": 3172,
      "pha": 3173,
      "cận": 3174,
      "ok": 3175,
      "ưỡ": 3176,
      "súng": 3177,
      "xung": 3178,
      "che": 3179,
      "lục": 3180,
      "nối": 3181,
      "ổn": 3182,
      "ớm": 3183,
      "chữ": 3184,
      "nhiễ": 3185,
      "23": 3186,
      "thằng": 3187,
      "tái": 3188,
      "trải": 3189,
      "giản": 3190,
      "78": 3191,
      "21": 3192,
      "gan": 3193,
      "ràng": 3194,
      "bảng": 3195,
      "tro": 3196,
      "dan": 3197,
      "rus": 3198,
      "193": 3199,
      "hủy": 3200,
      "tôn": 3201,
      "thủy": 3202,
      "thưa": 3203,
      "pp": 3204,
      "mai": 3205,
      "my": 3206,
      "sóng": 3207,
      "chứa": 3208,
      "der": 3209,
      "phóng": 3210,
      "thuận": 3211,
      "ốt": 3212,
      "việt": 3213,
      "ẩy": 3214,
      "vàng": 3215,
      "đào": 3216,
      "ngủ": 3217,
      "kê": 3218,
      "trao": 3219,
      "22": 3220,
      "chờ": 3221,
      "nạn": 3222,
      "ork": 3223,
      "ic": 3224,
      "́ng": 3225,
      "wo": 3226,
      "fo": 3227,
      "đau": 3228,
      "100": 3229,
      "gửi": 3230,
      "sâu": 3231,
      "wil": 3232,
      "dy": 3233,
      "van": 3234,
      "chắn": 3235,
      "by": 3236,
      "ngắn": 3237,
      "bia": 3238,
      "dạy": 3239,
      "hả": 3240,
      "đọc": 3241,
      "ngựa": 3242,
      "bờ": 3243,
      "ger": 3244,
      "nông": 3245,
      "shi": 3246,
      "đu": 3247,
      "john": 3248,
      "ju": 3249,
      "res": 3250,
      "địch": 3251,
      "tệ": 3252,
      "tốc": 3253,
      "pu": 3254,
      "xô": 3255,
      "ĩa": 3256,
      "đột": 3257,
      "ngồi": 3258,
      "quý": 3259,
      "nhiễm": 3260,
      "km": 3261,
      "trông": 3262,
      "ff": 3263,
      "ft": 3264,
      "mong": 3265,
      "sớm": 3266,
      "cor": 3267,
      "ngăn": 3268,
      "tai": 3269,
      "ris": 3270,
      "ama": 3271,
      "niệm": 3272,
      "ste": 3273,
      "lửa": 3274,
      "xúc": 3275,
      "̣c": 3276,
      "̣t": 3277,
      "chiều": 3278,
      "sơ": 3279,
      "ổng": 3280,
      "thơ": 3281,
      "lựa": 3282,
      "́c": 3283,
      "xuyên": 3284,
      "khởi": 3285,
      "2010": 3286,
      "bur": 3287,
      "thưởng": 3288,
      "trấn": 3289,
      "bí": 3290,
      "nặng": 3291,
      "ngành": 3292,
      "khẩu": 3293,
      "com": 3294,
      "2008": 3295,
      "tụ": 3296,
      "2014": 3297,
      "dung": 3298,
      "tín": 3299,
      "khủng": 3300,
      "bon": 3301,
      "2013": 3302,
      "video": 3303,
      "mại": 3304,
      "vời": 3305,
      "vượt": 3306,
      "thiếu": 3307,
      "tha": 3308,
      "2011": 3309,
      "nổ": 3310,
      "ặn": 3311,
      "ky": 3312,
      "đích": 3313,
      "̀ng": 3314,
      "khắp": 3315,
      "char": 3316,
      "sàng": 3317,
      "đĩa": 3318,
      "nhờ": 3319,
      "2007": 3320,
      "40": 3321,
      "sửa": 3322,
      "min": 3323,
      "thờ": 3324,
      "cy": 3325,
      "2015": 3326,
      "del": 3327,
      "ren": 3328,
      "đợi": 3329,
      "ley": 3330,
      "èo": 3331,
      "lũ": 3332,
      "war": 3333,
      "uni": 3334,
      "thoát": 3335,
      "des": 3336,
      "tấn": 3337,
      "nghỉ": 3338,
      "ộn": 3339,
      "one": 3340,
      "linh": 3341,
      "nửa": 3342,
      "thẳng": 3343,
      "làng": 3344,
      "gra": 3345,
      "sáu": 3346,
      "ze": 3347,
      "2006": 3348,
      "win": 3349,
      "cro": 3350,
      "hàn": 3351,
      "ụp": 3352,
      "rừng": 3353,
      "gó": 3354,
      "̀n": 3355,
      "tịch": 3356,
      "ngân": 3357,
      "2009": 3358,
      "lay": 3359,
      "não": 3360,
      "thăm": 3361,
      "loạt": 3362,
      "2012": 3363,
      "chó": 3364,
      "kịch": 3365,
      "nhằm": 3366,
      "fe": 3367,
      "ườn": 3368,
      "cắt": 3369,
      "đám": 3370,
      "28": 3371,
      "trì": 3372,
      "ben": 3373,
      "áy": 3374,
      "đảm": 3375,
      "mal": 3376,
      "26": 3377,
      "tầm": 3378,
      "lon": 3379,
      "thiện": 3380,
      "lĩnh": 3381,
      "nhu": 3382,
      "ưỡng": 3383,
      "gã": 3384,
      "han": 3385,
      "trắng": 3386,
      "29": 3387,
      "2016": 3388,
      "wal": 3389,
      "chồng": 3390,
      "phối": 3391,
      "suất": 3392,
      "york": 3393,
      "eu": 3394,
      "ham": 3395,
      "nhiêu": 3396,
      "bri": 3397,
      "mạch": 3398,
      "song": 3399,
      "trại": 3400,
      "leo": 3401,
      "xấu": 3402,
      "ss": 3403,
      "thánh": 3404,
      "họa": 3405,
      "có": 3406,
      "id": 3407,
      "ten": 3408,
      "bel": 3409,
      "thượng": 3410,
      "web": 3411,
      "dị": 3412,
      "quên": 3413,
      "giấy": 3414,
      "je": 3415,
      "phận": 3416,
      "net": 3417,
      "rập": 3418,
      "khắc": 3419,
      "phê": 3420,
      "gar": 3421,
      "đỏ": 3422,
      "trùng": 3423,
      "và": 3424,
      "huấn": 3425,
      "thí": 3426,
      "món": 3427,
      "pan": 3428,
      "tiện": 3429,
      "khăn": 3430,
      "lá": 3431,
      "đẩy": 3432,
      "lính": 3433,
      "cai": 3434,
      "mời": 3435,
      "tránh": 3436,
      "ul": 3437,
      "lớp": 3438,
      "od": 3439,
      "tô": 3440,
      "ria": 3441,
      "bánh": 3442,
      "bro": 3443,
      "ler": 3444,
      "dần": 3445,
      "̣n": 3446,
      "ượu": 3447,
      "nuôi": 3448,
      "nor": 3449,
      "rượu": 3450,
      "khám": 3451,
      "sco": 3452,
      "ji": 3453,
      "inter": 3454,
      "nghiêm": 3455,
      "por": 3456,
      "nia": 3457,
      "trục": 3458,
      "lao": 3459,
      "quảng": 3460,
      "dã": 3461,
      "60": 3462,
      "cơn": 3463,
      "thù": 3464,
      "ir": 3465,
      "sen": 3466,
      "nhỉ": 3467,
      "game": 3468,
      "rút": 3469,
      "điển": 3470,
      "ót": 3471,
      "ầng": 3472,
      "dầu": 3473,
      "ngờ": 3474,
      "rối": 3475,
      "quận": 3476,
      "xo": 3477,
      "est": 3478,
      "hiến": 3479,
      "ser": 3480,
      "chiếu": 3481,
      "ể": 3482,
      "tải": 3483,
      "phức": 3484,
      "mơ": 3485,
      "phù": 3486,
      "ọa": 3487,
      "khỏ": 3488,
      "geo": 3489,
      "ken": 3490,
      "jam": 3491,
      "tầng": 3492,
      "rơi": 3493,
      "thuyền": 3494,
      "kính": 3495,
      "môn": 3496,
      "đăng": 3497,
      "ala": 3498,
      "khỏe": 3499,
      "hồng": 3500,
      "eli": 3501,
      "bom": 3502,
      "lược": 3503,
      "thừa": 3504,
      "gue": 3505,
      "quang": 3506,
      "2017": 3507,
      "bày": 3508,
      "den": 3509,
      "tận": 3510,
      "thảo": 3511,
      "tia": 3512,
      "tuyển": 3513,
      "lạ": 3514,
      "mười": 3515,
      "may": 3516,
      "quen": 3517,
      "hề": 3518,
      "lạp": 3519,
      "chăm": 3520,
      "thiệu": 3521,
      "loạn": 3522,
      "trốn": 3523,
      "quỹ": 3524,
      "góp": 3525,
      "dậy": 3526,
      "xanh": 3527,
      "né": 3528,
      "̣i": 3529,
      "mũ": 3530,
      "hấp": 3531,
      "ẹn": 3532,
      "wor": 3533,
      "chữa": 3534,
      "cự": 3535,
      "dừng": 3536,
      "ron": 3537,
      "òi": 3538,
      "khoản": 3539,
      "90": 3540,
      "2005": 3541,
      "siêu": 3542,
      "tách": 3543,
      "cen": 3544,
      "chim": 3545,
      "tre": 3546,
      "chủng": 3547,
      "hạnh": 3548,
      "wn": 3549,
      "pen": 3550,
      "tờ": 3551,
      "phúc": 3552,
      "ah": 3553,
      "đỡ": 3554,
      "ted": 3555,
      "trăm": 3556,
      "khuy": 3557,
      "que": 3558,
      "bal": 3559,
      "ngược": 3560,
      "nhắc": 3561,
      "trữ": 3562,
      "nóng": 3563,
      "điên": 3564,
      "ãn": 3565,
      "lái": 3566,
      "ele": 3567,
      "ws": 3568,
      "?\"": 3569,
      "hạm": 3570,
      "̉i": 3571,
      "phó": 3572,
      "sung": 3573,
      "chào": 3574,
      "vườn": 3575,
      "phán": 3576,
      "hãng": 3577,
      "dây": 3578,
      "ol": 3579,
      "ọt": 3580,
      "ker": 3581,
      "vốn": 3582,
      "chảy": 3583,
      "vâng": 3584,
      "iếp": 3585,
      "lea": 3586,
      "thịt": 3587,
      "khiển": 3588,
      "gre": 3589,
      "nes": 3590,
      "trưng": 3591,
      "ada": 3592,
      "cal": 3593,
      "ds": 3594,
      "sóc": 3595,
      "xâm": 3596,
      "hè": 3597,
      "her": 3598,
      "ot": 3599,
      "it": 3600,
      "chàng": 3601,
      "mộ": 3602,
      "vẽ": 3603,
      "đương": 3604,
      "nhảy": 3605,
      "̉a": 3606,
      "ề": 3607,
      "cân": 3608,
      "săn": 3609,
      "80": 3610,
      "lắng": 3611,
      "ther": 3612,
      "pháo": 3613,
      "miễn": 3614,
      "val": 3615,
      "thỏa": 3616,
      "tắc": 3617,
      "hút": 3618,
      "tal": 3619,
      "màn": 3620,
      "zi": 3621,
      "mor": 3622,
      "tước": 3623,
      "tỉ": 3624,
      "mềm": 3625,
      "nắm": 3626,
      "dàng": 3627,
      "ứt": 3628,
      "geor": 3629,
      "ny": 3630,
      "sẻ": 3631,
      "xy": 3632,
      "đỉnh": 3633,
      "las": 3634,
      "nỗ": 3635,
      "mừng": 3636,
      "õi": 3637,
      "đáp": 3638,
      "bữa": 3639,
      "dar": 3640,
      "ino": 3641,
      "tic": 3642,
      "thụy": 3643,
      "bão": 3644,
      "tes": 3645,
      "xong": 3646,
      "hứng": 3647,
      "đuổi": 3648,
      "cn": 3649,
      "cường": 3650,
      "lạnh": 3651,
      "500": 3652,
      "chối": 3653,
      "2004": 3654,
      "bert": 3655,
      "bảy": 3656,
      "tán": 3657,
      "than": 3658,
      "tàng": 3659,
      "chỉnh": 3660,
      "pal": 3661,
      "đem": 3662,
      "tar": 3663,
      "tấm": 3664,
      "chụp": 3665,
      "tạm": 3666,
      "pho": 3667,
      "của": 3668,
      "sắt": 3669,
      "chuỗi": 3670,
      "ết": 3671,
      "cặp": 3672,
      "2000": 3673,
      "cali": 3674,
      "hứa": 3675,
      "lí": 3676,
      "thẩm": 3677,
      "kháng": 3678,
      "tv": 3679,
      "dọc": 3680,
      "lt": 3681,
      "zo": 3682,
      "viễn": 3683,
      "ac": 3684,
      "tường": 3685,
      "thầy": 3686,
      "zu": 3687,
      "èn": 3688,
      "thao": 3689,
      "kar": 3690,
      "xứ": 3691,
      "col": 3692,
      "bề": 3693,
      "stan": 3694,
      "yên": 3695,
      "rich": 3696,
      "len": 3697,
      "istan": 3698,
      "canada": 3699,
      "xit": 3700,
      "ngừng": 3701,
      "sho": 3702,
      "đe": 3703,
      "cầm": 3704,
      "fu": 3705,
      "fer": 3706,
      "nâng": 3707,
      "ụng": 3708,
      "trào": 3709,
      "dio": 3710,
      "truyện": 3711,
      "ấy": 3712,
      "70": 3713,
      "dọa": 3714,
      "̀y": 3715,
      "chạm": 3716,
      "hen": 3717,
      "sót": 3718,
      "dia": 3719,
      "hài": 3720,
      "mắc": 3721,
      "mét": 3722,
      "ward": 3723,
      "ima": 3724,
      "nguyện": 3725,
      "phỏng": 3726,
      "ght": 3727,
      "lẫn": 3728,
      "khối": 3729,
      "kan": 3730,
      "mẽ": 3731,
      "{\\": 3732,
      "thai": 3733,
      "buồn": 3734,
      "you": 3735,
      "br": 3736,
      "mái": 3737,
      "tỏ": 3738,
      "ner": 3739,
      "oh": 3740,
      "ps": 3741,
      "vin": 3742,
      "khúc": 3743,
      "cưới": 3744,
      "190": 3745,
      "kênh": 3746,
      "lar": 3747,
      "già": 3748,
      "hùng": 3749,
      "cảng": 3750,
      "xương": 3751,
      "phe": 3752,
      "tàn": 3753,
      "bạo": 3754,
      "ms": 3755,
      "xạ": 3756,
      "thuê": 3757,
      "huyện": 3758,
      "diệt": 3759,
      "chặn": 3760,
      "thuế": 3761,
      "\")": 3762,
      "hỏa": 3763,
      "thước": 3764,
      "lou": 3765,
      "niềm": 3766,
      "hàm": 3767,
      "bật": 3768,
      "́n": 3769,
      "ói": 3770,
      "ona": 3771,
      "gió": 3772,
      "mas": 3773,
      "ano": 3774,
      "ướp": 3775,
      "lối": 3776,
      "tá": 3777,
      "giây": 3778,
      "quyển": 3779,
      "cục": 3780,
      "cựu": 3781,
      "hẹn": 3782,
      "nỗi": 3783,
      "thận": 3784,
      "chậm": 3785,
      "ela": 3786,
      "dro": 3787,
      "góc": 3788,
      "liệt": 3789,
      "pr": 3790,
      "̃ng": 3791,
      "sha": 3792,
      "43": 3793,
      "lâm": 3794,
      "tắt": 3795,
      "ùa": 3796,
      "phiếu": 3797,
      "vịnh": 3798,
      "ney": 3799,
      "phili": 3800,
      "mưa": 3801,
      "ngton": 3802,
      "cháy": 3803,
      "sal": 3804,
      "los": 3805,
      "2001": 3806,
      "bạc": 3807,
      "dối": 3808,
      "vết": 3809,
      "đệ": 3810,
      "họp": 3811,
      "2018": 3812,
      "ab": 3813,
      "af": 3814,
      "bãi": 3815,
      "cấm": 3816,
      "mũi": 3817,
      "sk": 3818,
      "tĩnh": 3819,
      "vĩ": 3820,
      "ậ": 3821,
      "lis": 3822,
      "league": 3823,
      "2003": 3824,
      "trống": 3825,
      "ini": 3826,
      "tùy": 3827,
      "fre": 3828,
      "tống": 3829,
      "way": 3830,
      "ye": 3831,
      "flo": 3832,
      "thiệt": 3833,
      "air": 3834,
      "califor": 3835,
      "nàng": 3836,
      "tháp": 3837,
      "ami": 3838,
      "eland": 3839,
      "giáp": 3840,
      "chúng": 3841,
      "cờ": 3842,
      "thách": 3843,
      "bồ": 3844,
      "gon": 3845,
      "kra": 3846,
      "khảo": 3847,
      "quán": 3848,
      "ặm": 3849,
      "california": 3850,
      "cis": 3851,
      "một": 3852,
      "cà": 3853,
      "kí": 3854,
      "nhẹ": 3855,
      "giỏi": 3856,
      "giọng": 3857,
      "ất": 3858,
      "cia": 3859,
      "gắn": 3860,
      "vong": 3861,
      "̀nh": 3862,
      "mãi": 3863,
      "xico": 3864,
      "ậc": 3865,
      "1990": 3866,
      "ngàn": 3867,
      "emi": 3868,
      "phái": 3869,
      "paris": 3870,
      "bậc": 3871,
      "vỡ": 3872,
      "ngọn": 3873,
      "tiêm": 3874,
      "tổn": 3875,
      "45": 3876,
      "bò": 3877,
      "hung": 3878,
      "lầm": 3879,
      "thăng": 3880,
      "trích": 3881,
      "dor": 3882,
      "mus": 3883,
      "dãy": 3884,
      "31": 3885,
      "king": 3886,
      "zy": 3887,
      "ộm": 3888,
      "ngầm": 3889,
      "tina": 3890,
      "ném": 3891,
      "jan": 3892,
      "rãi": 3893,
      "đạn": 3894,
      "giàu": 3895,
      "hoang": 3896,
      "liam": 3897,
      "ble": 3898,
      "ashi": 3899,
      "str": 3900,
      "thua": 3901,
      "ford": 3902,
      "pri": 3903,
      "sạch": 3904,
      "tz": 3905,
      "world": 3906,
      "gy": 3907,
      "hiếm": 3908,
      "lượt": 3909,
      "đươ": 3910,
      "iệng": 3911,
      "vil": 3912,
      "đó": 3913,
      "hộp": 3914,
      "miệng": 3915,
      "thang": 3916,
      "lưới": 3917,
      "đốt": 3918,
      "ịp": 3919,
      "cướp": 3920,
      "đua": 3921,
      "phạt": 3922,
      "cứng": 3923,
      "hòn": 3924,
      "pau": 3925,
      "tặng": 3926,
      "well": 3927,
      "tam": 3928,
      "ới": 3929,
      "hoá": 3930,
      "james": 3931,
      "ctor": 3932,
      "mạc": 3933,
      "ngạc": 3934,
      "thác": 3935,
      "khổ": 3936,
      "sam": 3937,
      "gal": 3938,
      "tân": 3939,
      "giảng": 3940,
      "nghề": 3941,
      "tur": 3942,
      "tụi": 3943,
      "úy": 3944,
      "william": 3945,
      "́t": 3946,
      "chặt": 3947,
      "ươi": 3948,
      "tus": 3949,
      "35": 3950,
      "lương": 3951,
      "nô": 3952,
      "tám": 3953,
      "ut": 3954,
      "ìa": 3955,
      "đòi": 3956,
      "ẳn": 3957,
      "khích": 3958,
      "khóa": 3959,
      "iệc": 3960,
      "ens": 3961,
      "gro": 3962,
      "ie": 3963,
      "sion": 3964,
      "cãi": 3965,
      "hồn": 3966,
      "đà": 3967,
      "1980": 3968,
      "star": 3969,
      "internet": 3970,
      "bin": 3971,
      "hương": 3972,
      "kêu": 3973,
      "sch": 3974,
      "tiệc": 3975,
      "miêu": 3976,
      "burg": 3977,
      "dặm": 3978,
      "gấp": 3979,
      "long": 3980,
      "trăng": 3981,
      "khái": 3982,
      "người": 3983,
      "bai": 3984,
      "bor": 3985,
      "dưỡng": 3986,
      "tồi": 3987,
      "quái": 3988,
      "dường": 3989,
      "đền": 3990,
      "chóng": 3991,
      "syria": 3992,
      "she": 3993,
      "cỡ": 3994,
      "sty": 3995,
      "tóc": 3996,
      "vinh": 3997,
      "cas": 3998,
      "hẳn": 3999,
      "ers": 4000,
      "tom": 4001,
      "mc": 4002,
      "ninh": 4003,
      "sổ": 4004,
      "int": 4005,
      "bus": 4006,
      "khuôn": 4007,
      "dra": 4008,
      "lam": 4009,
      "ấc": 4010,
      "ngốc": 4011,
      "nhánh": 4012,
      "chấm": 4013,
      "lor": 4014,
      "bá": 4015,
      "cel": 4016,
      "hư": 4017,
      "george": 4018,
      "ớt": 4019,
      "sẽ": 4020,
      "nghèo": 4021,
      "ines": 4022,
      "virus": 4023,
      "ston": 4024,
      "chris": 4025,
      "ester": 4026,
      "nhĩ": 4027,
      "thám": 4028,
      "tron": 4029,
      "khuyến": 4030,
      "axit": 4031,
      "mỏ": 4032,
      "thải": 4033,
      "ari": 4034,
      "gor": 4035,
      "rô": 4036,
      "vỗ": 4037,
      "jer": 4038,
      "điệu": 4039,
      "rael": 4040,
      "hoảng": 4041,
      "ling": 4042,
      "đã": 4043,
      "tung": 4044,
      "lão": 4045,
      "èm": 4046,
      "thả": 4047,
      "israel": 4048,
      "cus": 4049,
      "giận": 4050,
      "charles": 4051,
      "mê": 4052,
      "cản": 4053,
      "mes": 4054,
      "thạch": 4055,
      "189": 4056,
      "ghét": 4057,
      "mảnh": 4058,
      "ster": 4059,
      "đập": 4060,
      "cám": 4061,
      "ing": 4062,
      "lẻ": 4063,
      "lỗ": 4064,
      "đẳng": 4065,
      "und": 4066,
      "frank": 4067,
      "75": 4068,
      "79": 4069,
      "ngang": 4070,
      "khán": 4071,
      "alex": 4072,
      "era": 4073,
      "lang": 4074,
      "nợ": 4075,
      "khuẩn": 4076,
      "mau": 4077,
      "đới": 4078,
      "thảm": 4079,
      "giam": 4080,
      "tine": 4081,
      "iii": 4082,
      "hỗn": 4083,
      "kyo": 4084,
      "sil": 4085,
      "kém": 4086,
      "dõi": 4087,
      "phiền": 4088,
      "1998": 4089,
      "244": 4090,
      "tảng": 4091,
      "lie": 4092,
      "2002": 4093,
      "london": 4094,
      "được": 4095,
      "hào": 4096,
      "300": 4097,
      "biện": 4098,
      "kin": 4099,
      "mệnh": 4100,
      "trạm": 4101,
      "ey": 4102,
      "stu": 4103,
      "trú": 4104,
      "lee": 4105,
      "micro": 4106,
      "bs": 4107,
      "tsu": 4108,
      "vel": 4109,
      "yu": 4110,
      "thở": 4111,
      "liền": 4112,
      "pic": 4113,
      "io": 4114,
      "tter": 4115,
      "dows": 4116,
      "sou": 4117,
      "prote": 4118,
      "ều": 4119,
      "py": 4120,
      "wood": 4121,
      "dám": 4122,
      "kỉ": 4123,
      "xứng": 4124,
      "ở": 4125,
      "trồng": 4126,
      "trộm": 4127,
      "giấc": 4128,
      "ani": 4129,
      "peter": 4130,
      "style": 4131,
      "bre": 4132,
      "ek": 4133,
      "gỗ": 4134,
      "ct": 4135,
      "cất": 4136,
      "cer": 4137,
      "mát": 4138,
      "sia": 4139,
      "seri": 4140,
      "iếng": 4141,
      "ary": 4142,
      "top": 4143,
      "gr": 4144,
      "lly": 4145,
      "mm": 4146,
      "phẫu": 4147,
      "giấu": 4148,
      "cin": 4149,
      "đón": 4150,
      "ến": 4151,
      "hảo": 4152,
      "pin": 4153,
      "sánh": 4154,
      "cup": 4155,
      "phu": 4156,
      "sar": 4157,
      "chuột": 4158,
      "ghế": 4159,
      "ngũ": 4160,
      "1999": 4161,
      "căng": 4162,
      "tcn": 4163,
      "zil": 4164,
      "use": 4165,
      "francis": 4166,
      "bối": 4167,
      "lông": 4168,
      "sim": 4169,
      "khứ": 4170,
      "khấu": 4171,
      "tuyết": 4172,
      "splay": 4173,
      "hiển": 4174,
      "đèn": 4175,
      "ựng": 4176,
      "thiểu": 4177,
      "berg": 4178,
      "gus": 4179,
      "gas": 4180,
      "dis": 4181,
      "này": 4182,
      "mary": 4183,
      "dứt": 4184,
      "non": 4185,
      "ợt": 4186,
      "trứng": 4187,
      "display": 4188,
      "1994": 4189,
      "voi": 4190,
      "bè": 4191,
      "ex": 4192,
      "ủi": 4193,
      "bot": 4194,
      "ae": 4195,
      "lành": 4196,
      "mexico": 4197,
      ";#": 4198,
      "cú": 4199,
      "lôi": 4200,
      "sin": 4201,
      "điệp": 4202,
      "tròn": 4203,
      "khô": 4204,
      "ans": 4205,
      "windows": 4206,
      "displaystyle": 4207,
      "cẩn": 4208,
      "đằng": 4209,
      "thiệp": 4210,
      "chả": 4211,
      "khổng": 4212,
      "nhóc": 4213,
      "1970": 4214,
      "cham": 4215,
      "sara": 4216,
      "lau": 4217,
      "lym": 4218,
      "1960": 4219,
      "ara": 4220,
      "thy": 4221,
      "thợ": 4222,
      "tựa": 4223,
      "cra": 4224,
      "op": 4225,
      "zer": 4226,
      "đồn": 4227,
      "die": 4228,
      "david": 4229,
      "dư": 4230,
      "rắc": 4231,
      "sơn": 4232,
      "up": 4233,
      "eld": 4234,
      "colo": 4235,
      "mad": 4236,
      "186": 4237,
      "mưu": 4238,
      "răng": 4239,
      "tland": 4240,
      "ireland": 4241,
      "philipp": 4242,
      "mbia": 4243,
      "nis": 4244,
      "ýt": 4245,
      "thẻ": 4246,
      "triết": 4247,
      "những": 4248,
      "usd": 4249,
      "chín": 4250,
      "36": 4251,
      "gua": 4252,
      "ian": 4253,
      "wan": 4254,
      "nhầm": 4255,
      "ting": 4256,
      "đói": 4257,
      "ena": 4258,
      "huyết": 4259,
      "city": 4260,
      "gt": 4261,
      "og": 4262,
      "tain": 4263,
      "cre": 4264,
      "hỏng": 4265,
      "ira": 4266,
      "ngại": 4267,
      "ore": 4268,
      "dao": 4269,
      "sếp": 4270,
      "óm": 4271,
      "ander": 4272,
      "cong": 4273,
      "hel": 4274,
      "sạn": 4275,
      "chìm": 4276,
      "are": 4277,
      "lừa": 4278,
      "vây": 4279,
      "khơi": 4280,
      "say": 4281,
      "188": 4282,
      "phải": 4283,
      "protein": 4284,
      "38": 4285,
      "55": 4286,
      "lồ": 4287,
      "đen": 4288,
      "eon": 4289,
      "chinh": 4290,
      "chép": 4291,
      "tiềm": 4292,
      "cl": 4293,
      "dal": 4294,
      "fc": 4295,
      "liều": 4296,
      "wer": 4297,
      "zan": 4298,
      "rắn": 4299,
      "dĩ": 4300,
      "play": 4301,
      "vững": 4302,
      "đựng": 4303,
      "ngon": 4304,
      "48": 4305,
      "ak": 4306,
      "sky": 4307,
      "washi": 4308,
      "ần": 4309,
      "úa": 4310,
      "1945": 4311,
      ",\"": 4312,
      "32": 4313,
      "ũng": 4314,
      "town": 4315,
      "luân": 4316,
      "1991": 4317,
      "line": 4318,
      "nan": 4319,
      "soft": 4320,
      "với": 4321,
      "nation": 4322,
      "làm": 4323,
      "washington": 4324,
      "hầm": 4325,
      "chôn": 4326,
      "ath": 4327,
      "cột": 4328,
      "ep": 4329,
      "treo": 4330,
      "ượn": 4331,
      "quê": 4332,
      "argen": 4333,
      "loan": 4334,
      "esia": 4335,
      "louis": 4336,
      "thể": 4337,
      "angel": 4338,
      "1992": 4339,
      "richard": 4340,
      "paul": 4341,
      "day": 4342,
      "mực": 4343,
      "mèo": 4344,
      "ụt": 4345,
      "thung": 4346,
      "hit": 4347,
      "(\"": 4348,
      "mel": 4349,
      "sel": 4350,
      "vở": 4351,
      "chừng": 4352,
      "ray": 4353,
      "1996": 4354,
      "cổng": 4355,
      "oli": 4356,
      "túc": 4357,
      "éo": 4358,
      "chel": 4359,
      "mùi": 4360,
      "mãn": 4361,
      "dai": 4362,
      "kĩ": 4363,
      "đai": 4364,
      "bill": 4365,
      "vầ": 4366,
      "ent": 4367,
      "tiếc": 4368,
      "tốn": 4369,
      "nó": 4370,
      "lũng": 4371,
      "ag": 4372,
      "hang": 4373,
      "lãng": 4374,
      "hydro": 4375,
      "cm": 4376,
      "sữa": 4377,
      "var": 4378,
      "nhấn": 4379,
      "hãi": 4380,
      "pol": 4381,
      "tel": 4382,
      "túi": 4383,
      "wai": 4384,
      "đồi": 4385,
      "đống": 4386,
      "bour": 4387,
      "euro": 4388,
      "lf": 4389,
      "lọc": 4390,
      "tần": 4391,
      "đùa": 4392,
      "giường": 4393,
      "quà": 4394,
      "kìa": 4395,
      "nhuận": 4396,
      "37": 4397,
      "blo": 4398,
      "dd": 4399,
      "òm": 4400,
      "nhắn": 4401,
      "kha": 4402,
      "1997": 4403,
      "dge": 4404,
      "lui": 4405,
      "ime": 4406,
      "47": 4407,
      "gn": 4408,
      "sto": 4409,
      "sụp": 4410,
      "đợt": 4411,
      "rom": 4412,
      "buôn": 4413,
      "tex": 4414,
      "biết": 4415,
      "philippines": 4416,
      "bơi": 4417,
      "von": 4418,
      "nhẫn": 4419,
      "sốt": 4420,
      "muộn": 4421,
      "33": 4422,
      "tem": 4423,
      "xưa": 4424,
      "đậu": 4425,
      "dae": 4426,
      "1995": 4427,
      "jose": 4428,
      "lỏng": 4429,
      "west": 4430,
      "chán": 4431,
      "gì": 4432,
      "robert": 4433,
      "max": 4434,
      "fri": 4435,
      "lô": 4436,
      "oxy": 4437,
      "võ": 4438,
      "xóa": 4439,
      "quỷ": 4440,
      "tang": 4441,
      "vir": 4442,
      "park": 4443,
      "ib": 4444,
      "ori": 4445,
      "uh": 4446,
      "ves": 4447,
      "zon": 4448,
      "cả": 4449,
      "argentina": 4450,
      "lặp": 4451,
      "vân": 4452,
      "micha": 4453,
      "stein": 4454,
      "bru": 4455,
      "sợi": 4456,
      "via": 4457,
      "chan": 4458,
      "cher": 4459,
      "khung": 4460,
      "ment": 4461,
      "brazil": 4462,
      "đàm": 4463,
      "rửa": 4464,
      "ệ": 4465,
      "chúc": 4466,
      "1993": 4467,
      "hổ": 4468,
      "kg": 4469,
      "tte": 4470,
      "mà": 4471,
      "elec": 4472,
      "ces": 4473,
      "dàn": 4474,
      "chở": 4475,
      "cuba": 4476,
      "400": 4477,
      "bùng": 4478,
      "bạch": 4479,
      "gương": 4480,
      "pla": 4481,
      "ẫy": 4482,
      "super": 4483,
      "duyệt": 4484,
      "273": 4485,
      "dược": 4486,
      "his": 4487,
      "huống": 4488,
      "oc": 4489,
      "seo": 4490,
      "sun": 4491,
      "ngọt": 4492,
      "khuyên": 4493,
      "1950": 4494,
      "soạn": 4495,
      "39": 4496,
      "bb": 4497,
      "dính": 4498,
      "ợn": 4499,
      "cát": 4500,
      "para": 4501,
      "bụng": 4502,
      "nin": 4503,
      "inch": 4504,
      "tour": 4505,
      "224": 4506,
      "sti": 4507,
      "ện": 4508,
      "ùm": 4509,
      "nói": 4510,
      "46": 4511,
      "cừ": 4512,
      "gợi": 4513,
      "jim": 4514,
      "gián": 4515,
      "hor": 4516,
      "rio": 4517,
      "robot": 4518,
      "cụm": 4519,
      "michael": 4520,
      "bội": 4521,
      "kông": 4522,
      "ski": 4523,
      "sing": 4524,
      "maria": 4525,
      "ghan": 4526,
      "71": 4527,
      "bận": 4528,
      "ion": 4529,
      "ngư": 4530,
      "indon": 4531,
      "shin": 4532,
      "scotland": 4533,
      "national": 4534,
      "cúp": 4535,
      "ks": 4536,
      "sưu": 4537,
      "tắm": 4538,
      "̣ng": 4539,
      "nho": 4540,
      "1942": 4541,
      "ưỡi": 4542,
      "indonesia": 4543,
      "bỉ": 4544,
      "fan": 4545,
      "sáp": 4546,
      "đan": 4547,
      "́ch": 4548,
      "ụi": 4549,
      "chấn": 4550,
      "huynh": 4551,
      "99": 4552,
      "pres": 4553,
      "spe": 4554,
      "thề": 4555,
      "bul": 4556,
      "ville": 4557,
      "microsoft": 4558,
      "cs": 4559,
      "xưởng": 4560,
      "ộp": 4561,
      "nghìn": 4562,
      "vision": 4563,
      "vuông": 4564,
      "85": 4565,
      "bó": 4566,
      "cắp": 4567,
      "lặng": 4568,
      "rủi": 4569,
      "ùn": 4570,
      "​​": 4571,
      "trầm": 4572,
      "cốt": 4573,
      "iran": 4574,
      "ằn": 4575,
      "nhịp": 4576,
      "thỉnh": 4577,
      "pore": 4578,
      "dam": 4579,
      "dọn": 4580,
      "ec": 4581,
      "nấu": 4582,
      "khóc": 4583,
      "gin": 4584,
      "singa": 4585,
      "huyền": 4586,
      "1940": 4587,
      "united": 4588,
      "lò": 4589,
      "lân": 4590,
      "để": 4591,
      "1989": 4592,
      "1944": 4593,
      "field": 4594,
      "xoay": 4595,
      "kai": 4596,
      "olym": 4597,
      "trà": 4598,
      "trượt": 4599,
      "hoan": 4600,
      "enter": 4601,
      "ding": 4602,
      "cừu": 4603,
      "singapore": 4604,
      "bền": 4605,
      "dem": 4606,
      "dâm": 4607,
      "ngẫu": 4608,
      "tokyo": 4609,
      "đuôi": 4610,
      "cương": 4611,
      "hon": 4612,
      "}}": 4613,
      "chai": 4614,
      "trộn": 4615,
      "khiêu": 4616,
      "mag": 4617,
      "malay": 4618,
      "eng": 4619,
      "phy": 4620,
      "phun": 4621,
      "viêm": 4622,
      "pop": 4623,
      "henry": 4624,
      "42": 4625,
      "dre": 4626,
      "ei": 4627,
      "kistan": 4628,
      "ãng": 4629,
      "thô": 4630,
      "ram": 4631,
      "xuân": 4632,
      "150": 4633,
      "iv": 4634,
      "vỏ": 4635,
      "trần": 4636,
      "phổi": 4637,
      "lus": 4638,
      "khoan": 4639,
      "thoải": 4640,
      "ast": 4641,
      "bơ": 4642,
      "kèm": 4643,
      "lem": 4644,
      "muối": 4645,
      "vĩnh": 4646,
      "đeo": 4647,
      "rau": 4648,
      "ros": 4649,
      "180": 4650,
      "41": 4651,
      "dna": 4652,
      "lia": 4653,
      "ukra": 4654,
      "trúng": 4655,
      "edward": 4656,
      "76": 4657,
      "dò": 4658,
      "dinh": 4659,
      "hối": 4660,
      "tị": 4661,
      "̉ng": 4662,
      "khẩn": 4663,
      "ameri": 4664,
      "victor": 4665,
      "canh": 4666,
      "kẹ": 4667,
      "kam": 4668,
      "mây": 4669,
      "mạo": 4670,
      "mươi": 4671,
      "nhắm": 4672,
      "thùng": 4673,
      "hoà": 4674,
      "mac": 4675,
      "far": 4676,
      "gai": 4677,
      "ngón": 4678,
      "tis": 4679,
      "185": 4680,
      "geria": 4681,
      "!\"": 4682,
      "hưu": 4683,
      "mé": 4684,
      "ple": 4685,
      "radio": 4686,
      "lãm": 4687,
      "gs": 4688,
      "ls": 4689,
      "sô": 4690,
      "túy": 4691,
      "ôm": 4692,
      "trừng": 4693,
      "khỉ": 4694,
      "thuần": 4695,
      "andre": 4696,
      "cri": 4697,
      "mạn": 4698,
      "pra": 4699,
      "phú": 4700,
      "1930": 4701,
      "aland": 4702,
      "red": 4703,
      "martin": 4704,
      "beth": 4705,
      "1943": 4706,
      "kín": 4707,
      "65": 4708,
      "?)": 4709,
      "lợn": 4710,
      "mông": 4711,
      "ranh": 4712,
      "thôn": 4713,
      "giày": 4714,
      "art": 4715,
      "sey": 4716,
      "thịnh": 4717,
      "ogle": 4718,
      "bột": 4719,
      "lim": 4720,
      "rã": 4721,
      "vang": 4722,
      "anna": 4723,
      "hoại": 4724,
      "covid": 4725,
      "72": 4726,
      "gỡ": 4727,
      "hal": 4728,
      "jor": 4729,
      "kon": 4730,
      "mì": 4731,
      "rồng": 4732,
      "ngập": 4733,
      "ene": 4734,
      "boy": 4735,
      "zealand": 4736,
      "jean": 4737,
      "250": 4738,
      "ue": 4739,
      "chester": 4740,
      "giáng": 4741,
      "vene": 4742,
      "34": 4743,
      "lây": 4744,
      "sé": 4745,
      "xinh": 4746,
      "ish": 4747,
      "đoạt": 4748,
      "thoái": 4749,
      "google": 4750,
      "1986": 4751,
      "texas": 4752,
      "mượn": 4753,
      "phấn": 4754,
      "quét": 4755,
      "anti": 4756,
      "chile": 4757,
      "cưỡ": 4758,
      "jon": 4759,
      "ật": 4760,
      "đực": 4761,
      "ngã": 4762,
      "trễ": 4763,
      "rac": 4764,
      "alia": 4765,
      "rome": 4766,
      "tuân": 4767,
      "cac": 4768,
      "dad": 4769,
      "leon": 4770,
      "rồi": 4771,
      "hâm": 4772,
      "lli": 4773,
      "móc": 4774,
      "om": 4775,
      "pon": 4776,
      "ớp": 4777,
      "nhãn": 4778,
      "2019": 4779,
      "1985": 4780,
      "hungary": 4781,
      "mệt": 4782,
      "1920": 4783,
      "3d": 4784,
      "lưỡng": 4785,
      "tật": 4786,
      "house": 4787,
      "austr": 4788,
      "thoảng": 4789,
      "mark": 4790,
      "dì": 4791,
      "đến": 4792,
      "qui": 4793,
      "ral": 4794,
      "saint": 4795,
      "dou": 4796,
      "ring": 4797,
      "rou": 4798,
      "poly": 4799,
      "1988": 4800,
      "lộn": 4801,
      "600": 4802,
      "dong": 4803,
      "din": 4804,
      "hò": 4805,
      "kiên": 4806,
      "mồi": 4807,
      "stre": 4808,
      "́nh": 4809,
      "1941": 4810,
      "campu": 4811,
      "afghan": 4812,
      "campuchia": 4813,
      "44": 4814,
      "blu": 4815,
      "phật": 4816,
      "roman": 4817,
      "ghép": 4818,
      "grand": 4819,
      "angeles": 4820,
      "49": 4821,
      "cil": 4822,
      "chợ": 4823,
      "khẳng": 4824,
      "họ": 4825,
      "otto": 4826,
      "jes": 4827,
      "nai": 4828,
      "táo": 4829,
      "én": 4830,
      "ớn": 4831,
      "khiếp": 4832,
      "cóc": 4833,
      "hoãn": 4834,
      "book": 4835,
      "off": 4836,
      "đếm": 4837,
      "bụi": 4838,
      "cd": 4839,
      "hán": 4840,
      "xích": 4841,
      "đạp": 4842,
      "đụng": 4843,
      "̀o": 4844,
      "trương": 4845,
      "màng": 4846,
      "let": 4847,
      "bob": 4848,
      "thomas": 4849,
      "mari": 4850,
      "pera": 4851,
      "khía": 4852,
      "berlin": 4853,
      "iraq": 4854,
      "electron": 4855,
      "afghanistan": 4856,
      "53": 4857,
      "cậy": 4858,
      "fin": 4859,
      "lật": 4860,
      "spi": 4861,
      "nhạy": 4862,
      "chìa": 4863,
      "tràn": 4864,
      "rang": 4865,
      "ero": 4866,
      "roy": 4867,
      "buýt": 4868,
      "lyn": 4869,
      "francisco": 4870,
      "bồi": 4871,
      "gấu": 4872,
      "lạm": 4873,
      "nel": 4874,
      "uk": 4875,
      "ữ": 4876,
      "tian": 4877,
      "andy": 4878,
      "gui": 4879,
      "1975": 4880,
      "wales": 4881,
      "malaysia": 4882,
      "%)": 4883,
      "app": 4884,
      "bông": 4885,
      "ball": 4886,
      "clo": 4887,
      "nấm": 4888,
      "rác": 4889,
      "ằng": 4890,
      "chà": 4891,
      "khen": 4892,
      "hol": 4893,
      "love": 4894,
      "rie": 4895,
      "solo": 4896,
      "nie": 4897,
      "tóm": 4898,
      "anime": 4899,
      "aya": 4900,
      "vie": 4901,
      "1987": 4902,
      "gram": 4903,
      "ậu": 4904,
      "music": 4905,
      "south": 4906,
      "69": 4907,
      "cỏ": 4908,
      "dải": 4909,
      "dri": 4910,
      "hun": 4911,
      "kem": 4912,
      "nồng": 4913,
      "tơ": 4914,
      "tháo": 4915,
      "thế": 4916,
      "ướt": 4917,
      "rida": 4918,
      "béo": 4919,
      "cưng": 4920,
      "yeah": 4921,
      "ction": 4922,
      "smi": 4923,
      "ùi": 4924,
      "ella": 4925,
      "bạn": 4926,
      "neu": 4927,
      "joseph": 4928,
      "dáng": 4929,
      "wis": 4930,
      "xỉ": 4931,
      "ốn": 4932,
      "đâm": 4933,
      "nhượng": 4934,
      "chẩn": 4935,
      "trưa": 4936,
      "time": 4937,
      "điều": 4938,
      "bat": 4939,
      "rey": 4940,
      "sea": 4941,
      "nigeria": 4942,
      "young": 4943,
      "colombia": 4944,
      "dũng": 4945,
      "glo": 4946,
      "kes": 4947,
      "lê": 4948,
      "lỡ": 4949,
      "sứ": 4950,
      "tươi": 4951,
      "whi": 4952,
      "ếch": 4953,
      "ễu": 4954,
      "giơ": 4955,
      "mat": 4956,
      "các": 4957,
      "poli": 4958,
      "dubai": 4959,
      "sự": 4960,
      "show": 4961,
      "hằng": 4962,
      "kỵ": 4963,
      "kịp": 4964,
      "lắp": 4965,
      "móng": 4966,
      "rin": 4967,
      "́p": 4968,
      "ngưỡng": 4969,
      "chen": 4970,
      "trinh": 4971,
      "vis": 4972,
      "bit": 4973,
      "1939": 4974,
      "):": 4975,
      "73": 4976,
      "89": 4977,
      "lơ": 4978,
      "mò": 4979,
      "manh": 4980,
      "zam": 4981,
      "ốm": 4982,
      "thép": 4983,
      "elli": 4984,
      "bou": 4985,
      "1982": 4986,
      "đáy": 4987,
      "1962": 4988,
      "port": 4989,
      "green": 4990,
      "bọc": 4991,
      "cậu": 4992,
      "nút": 4993,
      "ầ": 4994,
      "đáo": 4995,
      "ngụ": 4996,
      "ngợi": 4997,
      "phẳng": 4998,
      "tas": 4999,
      "mill": 5000,
      "1979": 5001,
      "lệch": 5002,
      "bê": 5003,
      "tông": 5004,
      "ẫm": 5005,
      "thổi": 5006,
      "roma": 5007,
      "set": 5008,
      "mb": 5009,
      "chẽ": 5010,
      "ema": 5011,
      "côn": 5012,
      "colu": 5013,
      "rid": 5014,
      "thur": 5015,
      "chỉ": 5016,
      "1963": 5017,
      "brasil": 5018,
      ");": 5019,
      ".)": 5020,
      "64": 5021,
      "cli": 5022,
      "fla": 5023,
      "mòn": 5024,
      "sàn": 5025,
      "ía": 5026,
      "khôi": 5027,
      "gio": 5028,
      "nghiện": 5029,
      "ậy": 5030,
      "bách": 5031,
      "pre": 5032,
      "rẻ": 5033,
      "1984": 5034,
      "nghĩ": 5035,
      "88": 5036,
      "cc": 5037,
      "cài": 5038,
      "isa": 5039,
      "ica": 5040,
      "đẻ": 5041,
      "đớn": 5042,
      "ỗng": 5043,
      "phen": 5044,
      "mid": 5045,
      "big": 5046,
      "ning": 5047,
      "ghé": 5048,
      "kor": 5049,
      "lla": 5050,
      "ns": 5051,
      "ob": 5052,
      "sand": 5053,
      "sói": 5054,
      "về": 5055,
      "eong": 5056,
      "saw": 5057,
      "dian": 5058,
      "khoảnh": 5059,
      "cap": 5060,
      "hara": 5061,
      "peru": 5062,
      "times": 5063,
      "cởi": 5064,
      "gọn": 5065,
      "xít": 5066,
      "gic": 5067,
      "còn": 5068,
      "kara": 5069,
      "kov": 5070,
      "beria": 5071,
      "pion": 5072,
      "dịp": 5073,
      "cacbon": 5074,
      "dr": 5075,
      "diệu": 5076,
      "ea": 5077,
      "ges": 5078,
      "lùng": 5079,
      "nè": 5080,
      "vay": 5081,
      "khát": 5082,
      "vành": 5083,
      "lại": 5084,
      "gold": 5085,
      "now": 5086,
      "gene": 5087,
      "dani": 5088,
      "prin": 5089,
      "olympic": 5090,
      "clu": 5091,
      "dời": 5092,
      "gà": 5093,
      "gri": 5094,
      "hin": 5095,
      "đôn": 5096,
      "ngưng": 5097,
      "augus": 5098,
      "cái": 5099,
      "tech": 5100,
      "key": 5101,
      "ap": 5102,
      "dày": 5103,
      "hẹp": 5104,
      "kur": 5105,
      "nộp": 5106,
      "won": 5107,
      "̉n": 5108,
      "chốt": 5109,
      "giãn": 5110,
      "enzy": 5111,
      "1981": 5112,
      "1958": 5113,
      "games": 5114,
      "menia": 5115,
      "95": 5116,
      "edi": 5117,
      "lõi": 5118,
      "mr": 5119,
      "neo": 5120,
      "ov": 5121,
      "ox": 5122,
      "tọa": 5123,
      "gir": 5124,
      "anton": 5125,
      "ngoan": 5126,
      "gos": 5127,
      "mann": 5128,
      "carbon": 5129,
      "serie": 5130,
      "miếng": 5131,
      "slo": 5132,
      "ses": 5133,
      "vậy": 5134,
      "zz": 5135,
      "chư": 5136,
      "pakistan": 5137,
      "1983": 5138,
      "1946": 5139,
      "1972": 5140,
      "muốn": 5141,
      "ttle": 5142,
      "tendo": 5143,
      "nintendo": 5144,
      "australia": 5145,
      "gran": 5146,
      "kal": 5147,
      "sus": 5148,
      "vé": 5149,
      "zia": 5150,
      "quãng": 5151,
      "armenia": 5152,
      "mình": 5153,
      "tana": 5154,
      "caro": 5155,
      "1976": 5156,
      "ếu": 5157,
      "cống": 5158,
      "ear": 5159,
      "mp": 5160,
      "nát": 5161,
      "nét": 5162,
      "nhựa": 5163,
      "chăn": 5164,
      "tru": 5165,
      "khan": 5166,
      "làn": 5167,
      "toà": 5168,
      "latinh": 5169,
      "cara": 5170,
      "board": 5171,
      "hat": 5172,
      "harry": 5173,
      "vào": 5174,
      "ukraina": 5175,
      "ầu": 5176,
      "1000": 5177,
      "bes": 5178,
      "bis": 5179,
      "bút": 5180,
      "cốc": 5181,
      "lăng": 5182,
      "mọc": 5183,
      "̣p": 5184,
      "rad": 5185,
      "ross": 5186,
      "lib": 5187,
      "mis": 5188,
      "cast": 5189,
      "ters": 5190,
      "cuộn": 5191,
      "1974": 5192,
      "1961": 5193,
      "foot": 5194,
      "juli": 5195,
      "zuela": 5196,
      "colle": 5197,
      "bell": 5198,
      "dắt": 5199,
      "nhiếp": 5200,
      "lit": 5201,
      "kitô": 5202,
      "1969": 5203,
      "77": 5204,
      "790": 5205,
      "bô": 5206,
      "bli": 5207,
      "opera": 5208,
      "rạp": 5209,
      "sỹ": 5210,
      "vượng": 5211,
      "ald": 5212,
      "division": 5213,
      "cape": 5214,
      "bos": 5215,
      "site": 5216,
      "bir": 5217,
      "santa": 5218,
      "fred": 5219,
      "68": 5220,
      "ash": 5221,
      "gau": 5222,
      "kiệm": 5223,
      "old": 5224,
      "vú": 5225,
      "wen": 5226,
      "nhị": 5227,
      "coun": 5228,
      "ruột": 5229,
      "1973": 5230,
      "kenya": 5231,
      "800": 5232,
      "ig": 5233,
      "jin": 5234,
      "lặn": 5235,
      "nướng": 5236,
      "rồ": 5237,
      "tạng": 5238,
      "viếng": 5239,
      "try": 5240,
      "trôi": 5241,
      "củng": 5242,
      "alas": 5243,
      "01": 5244,
      "cur": 5245,
      "mộc": 5246,
      "rung": 5247,
      "tùng": 5248,
      "ngực": 5249,
      "thấy": 5250,
      "gil": 5251,
      "rat": 5252,
      "law": 5253,
      "recor": 5254,
      "1968": 5255,
      "adam": 5256,
      "tainment": 5257,
      "entertainment": 5258,
      "66": 5259,
      "ach": 5260,
      "jus": 5261,
      "stra": 5262,
      "tiệm": 5263,
      "vd": 5264,
      "work": 5265,
      "̃n": 5266,
      "ngọc": 5267,
      "thon": 5268,
      "thâm": 5269,
      "điêu": 5270,
      "hawai": 5271,
      "lina": 5272,
      "432": 5273,
      "champion": 5274,
      "seoul": 5275,
      "ottoman": 5276,
      "daniel": 5277,
      "52": 5278,
      "ras": 5279,
      "ence": 5280,
      "tos": 5281,
      "dos": 5282,
      "mike": 5283,
      "hệt": 5284,
      "nào": 5285,
      "night": 5286,
      "manga": 5287,
      "1947": 5288,
      "okay": 5289,
      "florida": 5290,
      "disney": 5291,
      "venezuela": 5292,
      "dp": 5293,
      "múa": 5294,
      "nở": 5295,
      "rẽ": 5296,
      "trật": 5297,
      "ern": 5298,
      "face": 5299,
      "smith": 5300,
      "clar": 5301,
      "dốc": 5302,
      "lk": 5303,
      "lọt": 5304,
      "pus": 5305,
      "pas": 5306,
      "sc": 5307,
      "ux": 5308,
      "vắng": 5309,
      "ước": 5310,
      "constan": 5311,
      "aus": 5312,
      "khoáng": 5313,
      "lei": 5314,
      "bun": 5315,
      "hill": 5316,
      "box": 5317,
      "offi": 5318,
      "yah": 5319,
      "51": 5320,
      "bốc": 5321,
      "cz": 5322,
      "gru": 5323,
      "lưỡi": 5324,
      "mảng": 5325,
      "mur": 5326,
      "sắm": 5327,
      "khử": 5328,
      "amo": 5329,
      "baby": 5330,
      "life": 5331,
      "cago": 5332,
      "nico": 5333,
      "cũng": 5334,
      "1953": 5335,
      "1954": 5336,
      "eliza": 5337,
      "bám": 5338,
      "bớt": 5339,
      "ev": 5340,
      "him": 5341,
      "ice": 5342,
      "xá": 5343,
      "yl": 5344,
      "ngô": 5345,
      "thọ": 5346,
      "bah": 5347,
      "sur": 5348,
      "med": 5349,
      "1978": 5350,
      "univer": 5351,
      "120": 5352,
      "96": 5353,
      "dạ": 5354,
      "ez": 5355,
      "ever": 5356,
      "gay": 5357,
      "hét": 5358,
      "kel": 5359,
      "kiệt": 5360,
      "tò": 5361,
      "tẩy": 5362,
      "rap": 5363,
      "tuệ": 5364,
      "iso": 5365,
      "see": 5366,
      "chicago": 5367,
      "az": 5368,
      "cr": 5369,
      "nề": 5370,
      "sla": 5371,
      "ênh": 5372,
      "đắt": 5373,
      "thor": 5374,
      "low": 5375,
      "cos": 5376,
      "ngoái": 5377,
      "1964": 5378,
      "1965": 5379,
      "1959": 5380,
      "syl": 5381,
      "spor": 5382,
      "ữa": 5383,
      "cau": 5384,
      "ius": 5385,
      "lường": 5386,
      "mồ": 5387,
      "sườn": 5388,
      "tứ": 5389,
      "yama": 5390,
      "zen": 5391,
      "ắn": 5392,
      "̀m": 5393,
      "anne": 5394,
      "latin": 5395,
      "andro": 5396,
      "american": 5397,
      "victoria": 5398,
      "225": 5399,
      "98": 5400,
      "bả": 5401,
      "bla": 5402,
      "bẩn": 5403,
      "cỗ": 5404,
      "cấy": 5405,
      "dẹp": 5406,
      "rào": 5407,
      "trân": 5408,
      "quát": 5409,
      "ese": 5410,
      "tube": 5411,
      "light": 5412,
      "hip": 5413,
      "ceae": 5414,
      "1971": 5415,
      "mura": 5416,
      "vol": 5417,
      "cưỡng": 5418,
      "bẫy": 5419,
      "ein": 5420,
      "fr": 5421,
      "gala": 5422,
      "tủ": 5423,
      "ugan": 5424,
      "vắc": 5425,
      "́m": 5426,
      "thỏ": 5427,
      "chòm": 5428,
      "lào": 5429,
      "eman": 5430,
      "quyến": 5431,
      "mont": 5432,
      "hey": 5433,
      "north": 5434,
      "cent": 5435,
      "alexander": 5436,
      "oliver": 5437,
      "virgi": 5438,
      "dus": 5439,
      "fon": 5440,
      "fil": 5441,
      "gun": 5442,
      "phia": 5443,
      "emen": 5444,
      "2020": 5445,
      "bol": 5446,
      "bio": 5447,
      "marsh": 5448,
      "warsaw": 5449,
      "billboard": 5450,
      "hawaii": 5451,
      "ck": 5452,
      "cla": 5453,
      "cle": 5454,
      "cắn": 5455,
      "fbi": 5456,
      "llo": 5457,
      "mến": 5458,
      "mập": 5459,
      "mỏi": 5460,
      "nêu": 5461,
      "pur": 5462,
      "wall": 5463,
      "đứt": 5464,
      "ngừa": 5465,
      "thèm": 5466,
      "gie": 5467,
      "ess": 5468,
      "real": 5469,
      "media": 5470,
      "1938": 5471,
      "mini": 5472,
      "58": 5473,
      "700": 5474,
      "ita": 5475,
      "nếu": 5476,
      "rũ": 5477,
      "tle": 5478,
      "ów": 5479,
      "́a": 5480,
      "chang": 5481,
      "phan": 5482,
      "rah": 5483,
      "điền": 5484,
      "nghịch": 5485,
      "hot": 5486,
      "alban": 5487,
      "bắp": 5488,
      "mara": 5489,
      "cata": 5490,
      "sili": 5491,
      "sul": 5492,
      "ghê": 5493,
      "1949": 5494,
      "1956": 5495,
      "corona": 5496,
      "youtube": 5497,
      "alaska": 5498,
      "records": 5499,
      "dâu": 5500,
      "gác": 5501,
      "heo": 5502,
      "lụt": 5503,
      "ngục": 5504,
      "quật": 5505,
      "sas": 5506,
      "chuyện": 5507,
      "vì": 5508,
      "bara": 5509,
      "kir": 5510,
      "mou": 5511,
      "243": 5512,
      "bridge": 5513,
      "philip": 5514,
      "series": 5515,
      "diego": 5516,
      "enzyme": 5517,
      "virginia": 5518,
      "bong": 5519,
      "dh": 5520,
      "gánh": 5521,
      "jen": 5522,
      "sét": 5523,
      "vải": 5524,
      "ngc": 5525,
      "thấu": 5526,
      "giật": 5527,
      "quin": 5528,
      "arthur": 5529,
      "log": 5530,
      "mani": 5531,
      "manchester": 5532,
      "haw": 5533,
      "ryan": 5534,
      "ump": 5535,
      "columbia": 5536,
      "elizabeth": 5537,
      "bệ": 5538,
      "cắm": 5539,
      "dội": 5540,
      "hưng": 5541,
      "mờ": 5542,
      "nã": 5543,
      "spa": 5544,
      "tti": 5545,
      "xen": 5546,
      "đư": 5547,
      "toa": 5548,
      "tum": 5549,
      "mic": 5550,
      "shu": 5551,
      "cio": 5552,
      "khói": 5553,
      "1966": 5554,
      "camera": 5555,
      "uganda": 5556,
      "cleo": 5557,
      "hr": 5558,
      "lát": 5559,
      "nâu": 5560,
      "qa": 5561,
      "vờ": 5562,
      "xướng": 5563,
      "ła": 5564,
      "thắt": 5565,
      "chua": 5566,
      "tory": 5567,
      "live": 5568,
      "mil": 5569,
      "ise": 5570,
      "rea": 5571,
      "1948": 5572,
      "1957": 5573,
      "rence": 5574,
      "stone": 5575,
      "méxico": 5576,
      "giờ": 5577,
      "56": 5578,
      "báu": 5579,
      "cay": 5580,
      "cru": 5581,
      "dun": 5582,
      "ix": 5583,
      "nar": 5584,
      "nắng": 5585,
      "đấm": 5586,
      "thói": 5587,
      "khôn": 5588,
      "giang": 5589,
      "joe": 5590,
      "donia": 5591,
      "mond": 5592,
      "alice": 5593,
      "camp": 5594,
      "gãy": 5595,
      "jeff": 5596,
      "international": 5597,
      "dạo": 5598,
      "mắn": 5599,
      "pc": 5600,
      "xé": 5601,
      "yn": 5602,
      "ận": 5603,
      "khớp": 5604,
      "phiến": 5605,
      "phone": 5606,
      "aman": 5607,
      "enos": 5608,
      "vich": 5609,
      "liban": 5610,
      "tựu": 5611,
      "1967": 5612,
      "shire": 5613,
      "brook": 5614,
      "xoắn": 5615,
      "08": 5616,
      "74": 5617,
      "award": 5618,
      "fal": 5619,
      "glu": 5620,
      "nạ": 5621,
      "pton": 5622,
      "sọ": 5623,
      "who": 5624,
      "xê": 5625,
      "đc": 5626,
      "đắn": 5627,
      "ũi": 5628,
      "ngộ": 5629,
      "nhục": 5630,
      "albert": 5631,
      "cou": 5632,
      "ture": 5633,
      "cation": 5634,
      "sian": 5635,
      "beau": 5636,
      "file": 5637,
      "wat": 5638,
      "1977": 5639,
      "barry": 5640,
      "eric": 5641,
      "white": 5642,
      "54": 5643,
      "63": 5644,
      "91": 5645,
      "97": 5646,
      "clai": 5647,
      "fra": 5648,
      "fen": 5649,
      "lấp": 5650,
      "ou": 5651,
      "pto": 5652,
      "ván": 5653,
      "wang": 5654,
      "chục": 5655,
      "trùm": 5656,
      "dom": 5657,
      "thuẫn": 5658,
      "bas": 5659,
      "1937": 5660,
      "will": 5661,
      "scott": 5662,
      "serbia": 5663,
      "madrid": 5664,
      "bruce": 5665,
      "bulgar": 5666,
      "kẹt": 5667,
      "87": 5668,
      "bù": 5669,
      "bau": 5670,
      "dỡ": 5671,
      "gũi": 5672,
      "hước": 5673,
      "lùn": 5674,
      "ola": 5675,
      "over": 5676,
      "pia": 5677,
      "pun": 5678,
      "plan": 5679,
      "vẹn": 5680,
      "đấy": 5681,
      "khe": 5682,
      "ration": 5683,
      "erre": 5684,
      "amy": 5685,
      "dol": 5686,
      "rica": 5687,
      "thiêu": 5688,
      "atlan": 5689,
      "queen": 5690,
      "cạn": 5691,
      "kis": 5692,
      "muni": 5693,
      "run": 5694,
      "xăng": 5695,
      "thia": 5696,
      "chọc": 5697,
      "alpha": 5698,
      "tori": 5699,
      "sudan": 5700,
      "uru": 5701,
      "huân": 5702,
      "news": 5703,
      "1936": 5704,
      "nén": 5705,
      "free": 5706,
      "lb": 5707,
      "tê": 5708,
      "ền": 5709,
      "phô": 5710,
      "row": 5711,
      "viê": 5712,
      "hãm": 5713,
      "bie": 5714,
      "thì": 5715,
      "nobel": 5716,
      "wiki": 5717,
      "khuyết": 5718,
      "apple": 5719,
      "ace": 5720,
      "band": 5721,
      "bếp": 5722,
      "dc": 5723,
      "gg": 5724,
      "hận": 5725,
      "mộng": 5726,
      "mina": 5727,
      "rem": 5728,
      "sci": 5729,
      "spar": 5730,
      "tō": 5731,
      "vội": 5732,
      "váy": 5733,
      "đầu": 5734,
      "nhe": 5735,
      "châm": 5736,
      "đãi": 5737,
      "ere": 5738,
      "ame": 5739,
      "vii": 5740,
      "mir": 5741,
      "rei": 5742,
      "hiv": 5743,
      "sie": 5744,
      "shar": 5745,
      "mega": 5746,
      "bị": 5747,
      "nik": 5748,
      "thiêng": 5749,
      "urt": 5750,
      "gate": 5751,
      "lines": 5752,
      "guay": 5753,
      "fir": 5754,
      "hei": 5755,
      "brown": 5756,
      "06": 5757,
      "07": 5758,
      "59": 5759,
      "83": 5760,
      "df": 5761,
      "dâng": 5762,
      "dvd": 5763,
      "tạ": 5764,
      "twi": 5765,
      "tỏa": 5766,
      "xí": 5767,
      "xon": 5768,
      "xưng": 5769,
      "yi": 5770,
      "chă": 5771,
      "khốn": 5772,
      "tive": 5773,
      "1918": 5774,
      "1921": 5775,
      "math": 5776,
      "hiro": 5777,
      "chuông": 5778,
      "shima": 5779,
      "polis": 5780,
      "lãi": 5781,
      "cuồng": 5782,
      "genera": 5783,
      "1951": 5784,
      "amazon": 5785,
      "wars": 5786,
      "mauri": 5787,
      "club": 5788,
      "bc": 5789,
      "bướ": 5790,
      "dê": 5791,
      "flu": 5792,
      "gel": 5793,
      "mâu": 5794,
      "nal": 5795,
      "rất": 5796,
      "sôi": 5797,
      "sor": 5798,
      "xóm": 5799,
      "̣nh": 5800,
      "chăng": 5801,
      "amin": 5802,
      "high": 5803,
      "sier": 5804,
      "sei": 5805,
      "phiêu": 5806,
      "god": 5807,
      "carl": 5808,
      "oscar": 5809,
      "with": 5810,
      "premi": 5811,
      "09": 5812,
      "62": 5813,
      "bìa": 5814,
      "gạo": 5815,
      "gard": 5816,
      "hem": 5817,
      "hall": 5818,
      "lưng": 5819,
      "nữa": 5820,
      "pt": 5821,
      "vy": 5822,
      "đòn": 5823,
      "ẻo": 5824,
      "nge": 5825,
      "tráng": 5826,
      "khmer": 5827,
      "iếc": 5828,
      "tol": 5829,
      "rico": 5830,
      "đoan": 5831,
      "bỏng": 5832,
      "cial": 5833,
      "inea": 5834,
      "1952": 5835,
      "feet": 5836,
      "xoáy": 5837,
      "penn": 5838,
      "bbc": 5839,
      "gne": 5840,
      "mand": 5841,
      "mầm": 5842,
      "mỏng": 5843,
      "open": 5844,
      "ré": 5845,
      "sz": 5846,
      "tta": 5847,
      "ngơi": 5848,
      "nhì": 5849,
      "khánh": 5850,
      "phos": 5851,
      "inc": 5852,
      "quyên": 5853,
      "cae": 5854,
      "thoả": 5855,
      "kawa": 5856,
      "tony": 5857,
      "manu": 5858,
      "beta": 5859,
      "nghiêng": 5860,
      "water": 5861,
      "stalin": 5862,
      "website": 5863,
      "hitler": 5864,
      "press": 5865,
      "bấy": 5866,
      "glas": 5867,
      "mụ": 5868,
      "mem": 5869,
      "nảy": 5870,
      "nạp": 5871,
      "súc": 5872,
      "vòm": 5873,
      "ail": 5874,
      "hoài": 5875,
      "down": 5876,
      "eston": 5877,
      "0000": 5878,
      "lian": 5879,
      "shan": 5880,
      "piano": 5881,
      "nhiều": 5882,
      "stem": 5883,
      "samsung": 5884,
      "bơm": 5885,
      "bulgaria": 5886,
      "57": 5887,
      "93": 5888,
      "atia": 5889,
      "dale": 5890,
      "hiếp": 5891,
      "nger": 5892,
      "chì": 5893,
      "oni": 5894,
      "holly": 5895,
      "1922": 5896,
      "tou": 5897,
      "imi": 5898,
      "boston": 5899,
      "met": 5900,
      "pat": 5901,
      "fire": 5902,
      "tím": 5903,
      "wilson": 5904,
      "vania": 5905,
      "hanna": 5906,
      "hero": 5907,
      "brand": 5908,
      "thyl": 5909,
      "jones": 5910,
      "marshall": 5911,
      "gởi": 5912,
      "hama": 5913,
      "jong": 5914,
      "lót": 5915,
      "lúa": 5916,
      "mg": 5917,
      "mun": 5918,
      "sri": 5919,
      "sừng": 5920,
      "xx": 5921,
      "chal": 5922,
      "trans": 5923,
      "rachel": 5924,
      "robin": 5925,
      "mace": 5926,
      "buồng": 5927,
      "sir": 5928,
      "side": 5929,
      "nato": 5930,
      "chip": 5931,
      "phila": 5932,
      "mọi": 5933,
      "thứ": 5934,
      "1955": 5935,
      "fox": 5936,
      "ship": 5937,
      "valen": 5938,
      "alexand": 5939,
      "blog": 5940,
      "86": 5941,
      "900": 5942,
      "east": 5943,
      "fes": 5944,
      "kẽ": 5945,
      "mĩ": 5946,
      "nốt": 5947,
      "vạch": 5948,
      "zar": 5949,
      "̃i": 5950,
      "triệt": 5951,
      "khiếu": 5952,
      "nghiệt": 5953,
      "rosa": 5954,
      "nguyền": 5955,
      "under": 5956,
      "sum": 5957,
      "ason": 5958,
      "bet": 5959,
      "linux": 5960,
      "guinea": 5961,
      "nhà": 5962,
      "dance": 5963,
      "charlie": 5964,
      "georgia": 5965,
      "blue": 5966,
      "android": 5967,
      "bể": 5968,
      "bàng": 5969,
      "dney": 5970,
      "ichi": 5971,
      "nang": 5972,
      "pl": 5973,
      "xám": 5974,
      "thính": 5975,
      "trini": 5976,
      "phế": 5977,
      "rain": 5978,
      "indi": 5979,
      "loa": 5980,
      "cola": 5981,
      "khoẻ": 5982,
      "tino": 5983,
      "dex": 5984,
      "point": 5985,
      "marie": 5986,
      "từ": 5987,
      "station": 5988,
      "bổng": 5989,
      "puer": 5990,
      "steve": 5991,
      "norman": 5992,
      "salem": 5993,
      "studio": 5994,
      "andrew": 5995,
      "oxford": 5996,
      "football": 5997,
      "việc": 5998,
      "05": 5999,
      "92": 6000,
      "gối": 6001,
      "hl": 6002,
      "hms": 6003,
      "jar": 6004,
      "mốc": 6005,
      "mtv": 6006,
      "sis": 6007,
      "xấp": 6008,
      "yan": 6009,
      "đầm": 6010,
      "̀a": 6011,
      "ừm": 6012,
      "nhàng": 6013,
      "nhất": 6014,
      "thự": 6015,
      "ain": 6016,
      "aires": 6017,
      "toi": 6018,
      "bad": 6019,
      "liga": 6020,
      "shō": 6021,
      "duyên": 6022,
      "wei": 6023,
      "nhiễu": 6024,
      "lũy": 6025,
      "jersey": 6026,
      "kẹo": 6027,
      "litva": 6028,
      "94": 6029,
      "bhu": 6030,
      "elo": 6031,
      "mổ": 6032,
      "rưỡi": 6033,
      "rằng": 6034,
      "suối": 6035,
      "uz": 6036,
      "ắt": 6037,
      "đàng": 6038,
      "ngột": 6039,
      "ngắm": 6040,
      "chand": 6041,
      "saka": 6042,
      "hop": 6043,
      "hous": 6044,
      "eron": 6045,
      "end": 6046,
      "1900": 6047,
      "rison": 6048,
      "lah": 6049,
      "vita": 6050,
      "ist": 6051,
      "sex": 6052,
      "chiêu": 6053,
      "model": 6054,
      "trừu": 6055,
      "folk": 6056,
      "pales": 6057,
      "christian": 6058,
      "uefa": 6059,
      "bọ": 6060,
      "cần": 6061,
      "ethi": 6062,
      "mìn": 6063,
      "pti": 6064,
      "sm": 6065,
      "scho": 6066,
      "yon": 6067,
      "đuối": 6068,
      "thạc": 6069,
      "ường": 6070,
      "email": 6071,
      "roger": 6072,
      "bow": 6073,
      "mol": 6074,
      "moun": 6075,
      "mosk": 6076,
      "java": 6077,
      "thành": 6078,
      "facebook": 6079,
      "albania": 6080,
      "estonia": 6081,
      "hố": 6082,
      "ip": 6083,
      "kong": 6084,
      "nụ": 6085,
      "nương": 6086,
      "nôn": 6087,
      "ois": 6088,
      "rd": 6089,
      "nhũng": 6090,
      "khao": 6091,
      "aica": 6092,
      "ars": 6093,
      "alan": 6094,
      "dow": 6095,
      "miss": 6096,
      "island": 6097,
      "medi": 6098,
      "gawa": 6099,
      "yoshi": 6100,
      "fifa": 6101,
      "cụt": 6102,
      "panama": 6103,
      "wski": 6104,
      "great": 6105,
      "solomon": 6106,
      "abu": 6107,
      "bưu": 6108,
      "hôi": 6109,
      "mỡ": 6110,
      "ose": 6111,
      "rt": 6112,
      "rỗng": 6113,
      "vả": 6114,
      "vard": 6115,
      "xà": 6116,
      "đun": 6117,
      "that": 6118,
      "chước": 6119,
      "radar": 6120,
      "tìm": 6121,
      "đinh": 6122,
      "ươn": 6123,
      "cole": 6124,
      "rist": 6125,
      "rose": 6126,
      "ving": 6127,
      "cách": 6128,
      "som": 6129,
      "pie": 6130,
      "1934": 6131,
      "woo": 6132,
      "publi": 6133,
      "croatia": 6134,
      "kenne": 6135,
      "group": 6136,
      "simon": 6137,
      "congo": 6138,
      "ecua": 6139,
      "street": 6140,
      "college": 6141,
      "moskva": 6142,
      "blan": 6143,
      "bóc": 6144,
      "dj": 6145,
      "dur": 6146,
      "gang": 6147,
      "gdp": 6148,
      "pala": 6149,
      "tản": 6150,
      "tele": 6151,
      "đính": 6152,
      "nhện": 6153,
      "nhạt": 6154,
      "then": 6155,
      "chớ": 6156,
      "cán": 6157,
      "cáp": 6158,
      "ant": 6159,
      "tak": 6160,
      "taka": 6161,
      "titan": 6162,
      "1914": 6163,
      "elia": 6164,
      "right": 6165,
      "laur": 6166,
      "tunis": 6167,
      "khoang": 6168,
      "ming": 6169,
      "bury": 6170,
      "buenos": 6171,
      "cơm": 6172,
      "uno": 6173,
      "mei": 6174,
      "good": 6175,
      "bec": 6176,
      "beat": 6177,
      "illin": 6178,
      "cie": 6179,
      "gera": 6180,
      "mono": 6181,
      "chev": 6182,
      "1933": 6183,
      "1935": 6184,
      "ware": 6185,
      "zero": 6186,
      "sylvania": 6187,
      "claire": 6188,
      "ecuador": 6189,
      "67": 6190,
      "hạch": 6191,
      "lấn": 6192,
      "miến": 6193,
      "sương": 6194,
      "tủy": 6195,
      "vần": 6196,
      "xơ": 6197,
      "zza": 6198,
      "đỗ": 6199,
      "đúc": 6200,
      "ủa": 6201,
      "ngai": 6202,
      "tish": 6203,
      "lotte": 6204,
      "1917": 6205,
      "dora": 6206,
      "esco": 6207,
      "cob": 6208,
      "ric": 6209,
      "vic": 6210,
      "bach": 6211,
      "mah": 6212,
      "natri": 6213,
      "mos": 6214,
      "kos": 6215,
      "pedia": 6216,
      "johan": 6217,
      "duệ": 6218,
      "lincol": 6219,
      "cari": 6220,
      "japan": 6221,
      "johnson": 6222,
      "stephen": 6223,
      "delphia": 6224,
      "gói": 6225,
      "bella": 6226,
      "jane": 6227,
      "kins": 6228,
      "jordan": 6229,
      "séc": 6230,
      "prince": 6231,
      "castle": 6232,
      "houston": 6233,
      "palestine": 6234,
      "lincoln": 6235,
      "81": 6236,
      "84": 6237,
      "bến": 6238,
      "bồn": 6239,
      "eta": 6240,
      "hong": 6241,
      "has": 6242,
      "hụt": 6243,
      "pes": 6244,
      "rỉ": 6245,
      "zine": 6246,
      "thật": 6247,
      "chlo": 6248,
      "take": 6249,
      "1929": 6250,
      "nasa": 6251,
      "suýt": 6252,
      "meta": 6253,
      "kiềm": 6254,
      "kilô": 6255,
      "taylor": 6256,
      "ghen": 6257,
      "joey": 6258,
      "rum": 6259,
      "juan": 6260,
      "jamaica": 6261,
      "oregon": 6262,
      "bướm": 6263,
      "premier": 6264,
      "puerto": 6265,
      "bầy": 6266,
      "ful": 6267,
      "from": 6268,
      "kus": 6269,
      "out": 6270,
      "pam": 6271,
      "đậm": 6272,
      "ấng": 6273,
      "chổi": 6274,
      "pher": 6275,
      "tau": 6276,
      "tius": 6277,
      "logic": 6278,
      "river": 6279,
      "bab": 6280,
      "khuất": 6281,
      "beng": 6282,
      "donna": 6283,
      "ller": 6284,
      "hea": 6285,
      "allen": 6286,
      "1932": 6287,
      "desh": 6288,
      "brian": 6289,
      "dịu": 6290,
      "wayne": 6291,
      "jeru": 6292,
      "sarah": 6293,
      "bourg": 6294,
      "rough": 6295,
      "royal": 6296,
      "office": 6297,
      "babylon": 6298,
      "philadelphia": 6299,
      "82": 6300,
      "cược": 6301,
      "ddy": 6302,
      "hd": 6303,
      "hus": 6304,
      "hít": 6305,
      "lăn": 6306,
      "nd": 6307,
      "xôi": 6308,
      "yang": 6309,
      "zona": 6310,
      "ẫn": 6311,
      "đắm": 6312,
      "nhát": 6313,
      "diễu": 6314,
      "vio": 6315,
      "mit": 6316,
      "nepal": 6317,
      "nguyễn": 6318,
      "system": 6319,
      "bóp": 6320,
      "pennsylvania": 6321,
      ".”": 6322,
      "gạt": 6323,
      "hân": 6324,
      "hươ": 6325,
      "ide": 6326,
      "lg": 6327,
      "lé": 6328,
      "lữ": 6329,
      "lle": 6330,
      "ora": 6331,
      "pler": 6332,
      "plas": 6333,
      "rét": 6334,
      "ska": 6335,
      "ống": 6336,
      "điếm": 6337,
      "̉o": 6338,
      "ngự": 6339,
      "nhường": 6340,
      "chay": 6341,
      "chéo": 6342,
      "tran": 6343,
      "tral": 6344,
      "trump": 6345,
      "sala": 6346,
      "ngham": 6347,
      "chuyền": 6348,
      "saurus": 6349,
      "visi": 6350,
      "base": 6351,
      "khoái": 6352,
      "lio": 6353,
      "milan": 6354,
      "child": 6355,
      "bian": 6356,
      "get": 6357,
      "hein": 6358,
      "head": 6359,
      "7871": 6360,
      "corpo": 6361,
      "khuynh": 6362,
      "ness": 6363,
      "airlines": 6364,
      "jimmy": 6365,
      "einstein": 6366,
      "cối": 6367,
      "cry": 6368,
      "dập": 6369,
      "dệt": 6370,
      "feli": 6371,
      "gali": 6372,
      "jung": 6373,
      "lầu": 6374,
      "lận": 6375,
      "mẻ": 6376,
      "rốt": 6377,
      "sq": 6378,
      "sảnh": 6379,
      "vor": 6380,
      "vầy": 6381,
      "wel": 6382,
      "was": 6383,
      "ẹt": 6384,
      "nham": 6385,
      "thầm": 6386,
      "dies": 6387,
      "hio": 6388,
      "data": 6389,
      "mobi": 6390,
      "pec": 6391,
      "cứ": 6392,
      "fort": 6393,
      "donald": 6394,
      "zakh": 6395,
      "darwin": 6396,
      "cilia": 6397,
      "ław": 6398,
      "trinidad": 6399,
      "aca": 6400,
      "fos": 6401,
      "hắn": 6402,
      "jay": 6403,
      "lánh": 6404,
      "nt": 6405,
      "oper": 6406,
      "rìa": 6407,
      "sem": 6408,
      "tể": 6409,
      "ura": 6410,
      "wy": 6411,
      "ches": 6412,
      "chùa": 6413,
      "phar": 6414,
      "giê": 6415,
      "tie": 6416,
      "tiễn": 6417,
      "1925": 6418,
      "roc": 6419,
      "vik": 6420,
      "khoai": 6421,
      "lion": 6422,
      "mày": 6423,
      "tec": 6424,
      "phím": 6425,
      "davis": 6426,
      "sig": 6427,
      "phụng": 6428,
      "byzan": 6429,
      "km2": 6430,
      "compan": 6431,
      "tiago": 6432,
      "therine": 6433,
      "phoe": 6434,
      "abdu": 6435,
      "bourne": 6436,
      "dream": 6437,
      "batman": 6438,
      "hollywood": 6439,
      "jerusalem": 6440,
      "130": 6441,
      "360": 6442,
      "bùn": 6443,
      "hua": 6444,
      "kiếp": 6445,
      "lầy": 6446,
      "rộn": 6447,
      "uta": 6448,
      "uli": 6449,
      "ệt": 6450,
      "́o": 6451,
      "thầu": 6452,
      "cht": 6453,
      "ché": 6454,
      "chiết": 6455,
      "chằm": 6456,
      "trước": 6457,
      "phơi": 6458,
      "quar": 6459,
      "ann": 6460,
      "aria": 6461,
      "logy": 6462,
      "1919": 6463,
      "1926": 6464,
      "dios": 6465,
      "auto": 6466,
      "miya": 6467,
      "sol": 6468,
      "boe": 6469,
      "berto": 6470,
      "kepler": 6471,
      "vegas": 6472,
      "yoko": 6473,
      "your": 6474,
      "week": 6475,
      "llar": 6476,
      "proton": 6477,
      "talia": 6478,
      "tics": 6479,
      "ập": 6480,
      "williams": 6481,
      "miller": 6482,
      "sierra": 6483,
      "/&": 6484,
      "04": 6485,
      "av": 6486,
      "aki": 6487,
      "bát": 6488,
      "blin": 6489,
      "cồn": 6490,
      "clau": 6491,
      "fia": 6492,
      "gé": 6493,
      "hiếu": 6494,
      "mao": 6495,
      "nen": 6496,
      "ud": 6497,
      "zh": 6498,
      "đố": 6499,
      "chớp": 6500,
      "trá": 6501,
      "ono": 6502,
      "1910": 6503,
      "gìn": 6504,
      "laus": 6505,
      "last": 6506,
      "lip": 6507,
      "masa": 6508,
      "michi": 6509,
      "khuếch": 6510,
      "nami": 6511,
      "chap": 6512,
      "bee": 6513,
      "cuô": 6514,
      "cid": 6515,
      "huỷ": 6516,
      "santiago": 6517,
      "wich": 6518,
      "vợt": 6519,
      "france": 6520,
      "british": 6521,
      "worth": 6522,
      "villa": 6523,
      "craft": 6524,
      "fried": 6525,
      "guitar": 6526,
      "carolina": 6527,
      "nãy": 6528,
      "wikipedia": 6529,
      "macedonia": 6530,
      "chandler": 6531,
      "110": 6532,
      "ase": 6533,
      "bt": 6534,
      "clin": 6535,
      "cớm": 6536,
      "dơi": 6537,
      "gla": 6538,
      "ium": 6539,
      "kép": 6540,
      "nàn": 6541,
      "rho": 6542,
      "tp": 6543,
      "vas": 6544,
      "vòi": 6545,
      "̃y": 6546,
      "chày": 6547,
      "giặt": 6548,
      "tari": 6549,
      "taxi": 6550,
      "1924": 6551,
      "1913": 6552,
      "1923": 6553,
      "thuỷ": 6554,
      "matt": 6555,
      "lanka": 6556,
      "tone": 6557,
      "card": 6558,
      "mone": 6559,
      "jac": 6560,
      "adn": 6561,
      "thơm": 6562,
      "mala": 6563,
      "queens": 6564,
      "more": 6565,
      "vincent": 6566,
      "emily": 6567,
      "gordon": 6568,
      "chứ": 6569,
      "grant": 6570,
      "universi": 6571,
      "mouth": 6572,
      "manuel": 6573,
      "kilômét": 6574,
      "company": 6575,
      ")\"": 6576,
      "350": 6577,
      "dở": 6578,
      "ef": 6579,
      "gly": 6580,
      "mali": 6581,
      "ota": 6582,
      "oid": 6583,
      "plu": 6584,
      "rna": 6585,
      "rèn": 6586,
      "wester": 6587,
      "xel": 6588,
      "yer": 6589,
      "zim": 6590,
      "ời": 6591,
      "ếm": 6592,
      "thiếp": 6593,
      "trói": 6594,
      "phra": 6595,
      "home": 6596,
      "ery": 6597,
      "als": 6598,
      "little": 6599,
      "mada": 6600,
      "soi": 6601,
      "soái": 6602,
      "nei": 6603,
      "boo": 6604,
      "boli": 6605,
      "chur": 6606,
      "moon": 6607,
      "gara": 6608,
      "josh": 6609,
      "tions": 6610,
      "jazz": 6611,
      "tric": 6612,
      "kura": 6613,
      "harvard": 6614,
      "okina": 6615,
      "1931": 6616,
      "turk": 6617,
      "opia": 6618,
      "first": 6619,
      "ethiopia": 6620,
      "kennedy": 6621,
      "cta": 6622,
      "fel": 6623,
      "heli": 6624,
      "miện": 6625,
      "râu": 6626,
      "swi": 6627,
      "whit": 6628,
      "zel": 6629,
      "đắp": 6630,
      "ẹo": 6631,
      "nhốt": 6632,
      "chóc": 6633,
      "alis": 6634,
      "luồng": 6635,
      "mae": 6636,
      "mira": 6637,
      "cat": 6638,
      "uss": 6639,
      "pool": 6640,
      "kazakh": 6641,
      "thing": 6642,
      "pedro": 6643,
      "bern": 6644,
      "vey": 6645,
      "zawa": 6646,
      "spring": 6647,
      "mail": 6648,
      "myan": 6649,
      "steven": 6650,
      "walter": 6651,
      "đệm": 6652,
      "arizona": 6653,
      "studios": 6654,
      "guatem": 6655,
      "playstation": 6656,
      "athens": 6657,
      "flash": 6658,
      "twitter": 6659,
      "))": 6660,
      "02": 6661,
      "abra": 6662,
      "apol": 6663,
      "câm": 6664,
      "fai": 6665,
      "guy": 6666,
      "gục": 6667,
      "if": 6668,
      "ivan": 6669,
      "láng": 6670,
      "lội": 6671,
      "mt": 6672,
      "nọ": 6673,
      "nản": 6674,
      "rh": 6675,
      "rs": 6676,
      "sn": 6677,
      "tăm": 6678,
      "uỷ": 6679,
      "wes": 6680,
      "ín": 6681,
      "õm": 6682,
      "đắc": 6683,
      "đạc": 6684,
      "ngắt": 6685,
      "nhậm": 6686,
      "thắc": 6687,
      "chiên": 6688,
      "tara": 6689,
      "raf": 6690,
      "rado": 6691,
      "saki": 6692,
      "họng": 6693,
      "hoành": 6694,
      "ươm": 6695,
      "arsen": 6696,
      "lov": 6697,
      "1911": 6698,
      "costa": 6699,
      "laser": 6700,
      "luci": 6701,
      "imer": 6702,
      "isto": 6703,
      "chính": 6704,
      "type": 6705,
      "billy": 6706,
      "marke": 6707,
      "mori": 6708,
      "ghana": 6709,
      "thea": 6710,
      "nova": 6711,
      "josé": 6712,
      "hum": 6713,
      "produ": 6714,
      "sydney": 6715,
      "main": 6716,
      "center": 6717,
      "single": 6718,
      "gruzia": 6719,
      "tunisia": 6720,
      "bengal": 6721,
      "hươu": 6722,
      "guatemala": 6723,
      "avi": 6724,
      "bf": 6725,
      "clor": 6726,
      "dé": 6727,
      "kri": 6728,
      "lạy": 6729,
      "mam": 6730,
      "nung": 6731,
      "ohio": 6732,
      "ppi": 6733,
      "rổ": 6734,
      "rụng": 6735,
      "tới": 6736,
      "vất": 6737,
      "ềng": 6738,
      "chy": 6739,
      "khiết": 6740,
      "ania": 6741,
      "anus": 6742,
      "tae": 6743,
      "tại": 6744,
      "tiế": 6745,
      "eno": 6746,
      "1927": 6747,
      "digi": 6748,
      "lucas": 6749,
      "liver": 6750,
      "siles": 6751,
      "sicilia": 6752,
      "napo": 6753,
      "unesco": 6754,
      "bil": 6755,
      "pot": 6756,
      "power": 6757,
      "kok": 6758,
      "kei": 6759,
      "cửu": 6760,
      "sony": 6761,
      "cameron": 6762,
      "wolf": 6763,
      "leyte": 6764,
      "belle": 6765,
      "guadal": 6766,
      "clb": 6767,
      "engine": 6768,
      "cưỡi": 6769,
      "girls": 6770,
      "lawrence": 6771,
      "caribe": 6772,
      "corporation": 6773,
      "okinawa": 6774,
      "bã": 6775,
      "dỗ": 6776,
      "dán": 6777,
      "jima": 6778,
      "kề": 6779,
      "lọ": 6780,
      "mị": 6781,
      "mồm": 6782,
      "oro": 6783,
      "pel": 6784,
      "rải": 6785,
      "rực": 6786,
      "té": 6787,
      "tú": 6788,
      "tở": 6789,
      "vớ": 6790,
      "vau": 6791,
      "vươn": 6792,
      "xả": 6793,
      "xbox": 6794,
      "ý": 6795,
      "ỳnh": 6796,
      "ques": 6797,
      "ins": 6798,
      "ello": 6799,
      "baker": 6800,
      "lewis": 6801,
      "team": 6802,
      "seung": 6803,
      "post": 6804,
      "kaz": 6805,
      "margar": 6806,
      "vati": 6807,
      "pierre": 6808,
      "peri": 6809,
      "monte": 6810,
      "monica": 6811,
      "part": 6812,
      "236": 6813,
      "7843": 6814,
      "danny": 6815,
      "german": 6816,
      "tệp": 6817,
      "benjam": 6818,
      "broad": 6819,
      "hèn": 6820,
      "salva": 6821,
      "ensis": 6822,
      "stark": 6823,
      "america": 6824,
      "view": 6825,
      "coronavirus": 6826,
      "vitamin": 6827,
      "michigan": 6828,
      "61": 6829,
      "à": 6830,
      "abo": 6831,
      "dt": 6832,
      "fed": 6833,
      "fair": 6834,
      "gli": 6835,
      "hand": 6836,
      "hard": 6837,
      "italia": 6838,
      "jun": 6839,
      "lều": 6840,
      "lung": 6841,
      "mk": 6842,
      "rò": 6843,
      "rễ": 6844,
      "tất": 6845,
      "vớt": 6846,
      "xì": 6847,
      "xông": 6848,
      "̣ch": 6849,
      "ẵng": 6850,
      "trội": 6851,
      "trọn": 6852,
      "phon": 6853,
      "hoạn": 6854,
      "amp": 6855,
      "logi": 6856,
      "ales": 6857,
      "toku": 6858,
      "vić": 6859,
      "tua": 6860,
      "miami": 6861,
      "tep": 6862,
      "dave": 6863,
      "sica": 6864,
      "bank": 6865,
      "nguyệt": 6866,
      "metro": 6867,
      "kit": 6868,
      "beach": 6869,
      "guil": 6870,
      "carlos": 6871,
      "state": 6872,
      "ellen": 6873,
      "charlotte": 6874,
      "malta": 6875,
      "walt": 6876,
      "tene": 6877,
      "ểu": 6878,
      "franklin": 6879,
      "số": 6880,
      "douglas": 6881,
      "romania": 6882,
      "sultan": 6883,
      "benjamin": 6884,
      "''": 6885,
      "aa": 6886,
      "fun": 6887,
      "iberia": 6888,
      "kt": 6889,
      "kō": 6890,
      "kang": 6891,
      "lụ": 6892,
      "lậu": 6893,
      "lắc": 6894,
      "mia": 6895,
      "pis": 6896,
      "pil": 6897,
      "pine": 6898,
      "xế": 6899,
      "xăm": 6900,
      "́y": 6901,
      "this": 6902,
      "chánh": 6903,
      "chén": 6904,
      "christ": 6905,
      "kham": 6906,
      "phao": 6907,
      "phàn": 6908,
      "nón": 6909,
      "hoạ": 6910,
      "amon": 6911,
      "1912": 6912,
      "tok": 6913,
      "road": 6914,
      "lady": 6915,
      "haiti": 6916,
      "madonna": 6917,
      "ishi": 6918,
      "sher": 6919,
      "kie": 6920,
      "kiêu": 6921,
      "marcus": 6922,
      "mosco": 6923,
      "urani": 6924,
      "hãy": 6925,
      "newton": 6926,
      "wak": 6927,
      "barcel": 6928,
      "7853": 6929,
      "226": 6930,
      "iceland": 6931,
      "burgh": 6932,
      "chart": 6933,
      "idlib": 6934,
      "dark": 6935,
      "kansas": 6936,
      "helm": 6937,
      "antio": 6938,
      "matthe": 6939,
      "slova": 6940,
      "atlanta": 6941,
      "caesar": 6942,
      "boeing": 6943,
      "apollo": 6944,
      "liverpool": 6945,
      "napoleon": 6946,
      "tởm": 6947,
      "barcelona": 6948,
      "dại": 6949,
      "dẻo": 6950,
      "esa": 6951,
      "fro": 6952,
      "fly": 6953,
      "jr": 6954,
      "lư": 6955,
      "lùi": 6956,
      "ml": 6957,
      "mẩu": 6958,
      "nau": 6959,
      "nano": 6960,
      "pé": 6961,
      "rể": 6962,
      "sùng": 6963,
      "sòng": 6964,
      "súp": 6965,
      "ال": 6966,
      "thra": 6967,
      "chuộc": 6968,
      "khùng": 6969,
      "quer": 6970,
      "samura": 6971,
      "aron": 6972,
      "lot": 6973,
      "viii": 6974,
      "bac": 6975,
      "khoác": 6976,
      "lic": 6977,
      "regi": 6978,
      "soo": 6979,
      "hil": 6980,
      "das": 6981,
      "naga": 6982,
      "101": 6983,
      "sub": 6984,
      "thoa": 6985,
      "pod": 6986,
      "theta": 6987,
      "huỳnh": 6988,
      "cambridge": 6989,
      "brad": 6990,
      "harrison": 6991,
      "ngủi": 6992,
      "ics": 6993,
      "đúng": 6994,
      "kent": 6995,
      "morgan": 6996,
      "tambon": 6997,
      "cruz": 6998,
      "awards": 6999,
      "ptolem": 7000,
      "bhutan": 7001,
      "byzantine": 7002,
      "clorua": 7003,
      "moscow": 7004,
      "samurai": 7005,
      "3000": 7006,
      "ado": 7007,
      "côi": 7008,
      "cris": 7009,
      "evan": 7010,
      "gö": 7011,
      "ios": 7012,
      "kore": 7013,
      "lột": 7014,
      "lướt": 7015,
      "nuốt": 7016,
      "oi": 7017,
      "obi": 7018,
      "sr": 7019,
      "schu": 7020,
      "são": 7021,
      "sburg": 7022,
      "vá": 7023,
      "vách": 7024,
      "éon": 7025,
      "đốm": 7026,
      "đấng": 7027,
      "thệ": 7028,
      "chèo": 7029,
      "khéo": 7030,
      "giu": 7031,
      "tit": 7032,
      "tide": 7033,
      "khiêm": 7034,
      "inte": 7035,
      "enna": 7036,
      "1928": 7037,
      "ory": 7038,
      "buda": 7039,
      "phil": 7040,
      "kata": 7041,
      "moto": 7042,
      "not": 7043,
      "cùng": 7044,
      "pad": 7045,
      "cir": 7046,
      "cion": 7047,
      "kee": 7048,
      "ette": 7049,
      "venice": 7050,
      "norfolk": 7051,
      "zig": 7052,
      "henri": 7053,
      "1909": 7054,
      "ukraine": 7055,
      "sống": 7056,
      "augustus": 7057,
      "earth": 7058,
      "libya": 7059,
      "space": 7060,
      "sparta": 7061,
      "uzbe": 7062,
      "arsenal": 7063,
      "^{": 7064,
      "bris": 7065,
      "ee": 7066,
      "hé": 7067,
      "kry": 7068,
      "lứa": 7069,
      "ppo": 7070,
      "tton": 7071,
      "vứt": 7072,
      "nhở": 7073,
      "trêu": 7074,
      "khỏa": 7075,
      "phì": 7076,
      "host": 7077,
      "howard": 7078,
      "dore": 7079,
      "rol": 7080,
      "lake": 7081,
      "ladesh": 7082,
      "liêng": 7083,
      "tera": 7084,
      "soc": 7085,
      "some": 7086,
      "dah": 7087,
      "bọn": 7088,
      "dean": 7089,
      "hãn": 7090,
      "1800": 7091,
      "shū": 7092,
      "hyper": 7093,
      "cartha": 7094,
      "cana": 7095,
      "hugh": 7096,
      "160": 7097,
      "stand": 7098,
      "jae": 7099,
      "phara": 7100,
      "bond": 7101,
      "benz": 7102,
      "network": 7103,
      "gary": 7104,
      "balkan": 7105,
      "khác": 7106,
      "ệu": 7107,
      "stitu": 7108,
      "neutron": 7109,
      "girl": 7110,
      "champions": 7111,
      "slav": 7112,
      "galaxy": 7113,
      "film": 7114,
      "namibia": 7115,
      "bực": 7116,
      "bắt": 7117,
      "fis": 7118,
      "hau": 7119,
      "iphone": 7120,
      "kö": 7121,
      "kau": 7122,
      "mw": 7123,
      "mü": 7124,
      "mine": 7125,
      "oo": 7126,
      "rỡ": 7127,
      "scar": 7128,
      "táng": 7129,
      "ww": 7130,
      "yam": 7131,
      "đè": 7132,
      "̉y": 7133,
      "ngửi": 7134,
      "nhơ": 7135,
      "rai": 7136,
      "tico": 7137,
      "tica": 7138,
      "aids": 7139,
      "ement": 7140,
      "code": 7141,
      "rob": 7142,
      "rov": 7143,
      "aux": 7144,
      "viet": 7145,
      "imo": 7146,
      "catherine": 7147,
      "chui": 7148,
      "shah": 7149,
      "metal": 7150,
      "methyl": 7151,
      "kiêm": 7152,
      "thoáng": 7153,
      "poké": 7154,
      "moham": 7155,
      "pet": 7156,
      "bea": 7157,
      "cul": 7158,
      "had": 7159,
      "hae": 7160,
      "jour": 7161,
      "link": 7162,
      "linda": 7163,
      "carter": 7164,
      "canal": 7165,
      "bangladesh": 7166,
      "ngày": 7167,
      "gamma": 7168,
      "rush": 7169,
      "johnny": 7170,
      "nhuộm": 7171,
      "central": 7172,
      "here": 7173,
      "tvia": 7174,
      "fuji": 7175,
      "zania": 7176,
      "chelsea": 7177,
      "wait": 7178,
      "cảm": 7179,
      "school": 7180,
      "mobile": 7181,
      "kazakhstan": 7182,
      "2o": 7183,
      "cọ": 7184,
      "eth": 7185,
      "ets": 7186,
      "fle": 7187,
      "gur": 7188,
      "jō": 7189,
      "kr": 7190,
      "kệ": 7191,
      "know": 7192,
      "lờ": 7193,
      "sí": 7194,
      "squ": 7195,
      "swa": 7196,
      "vặt": 7197,
      "yd": 7198,
      "ür": 7199,
      "ếng": 7200,
      "ửng": 7201,
      "chin": 7202,
      "trán": 7203,
      "giọt": 7204,
      "giềng": 7205,
      "tium": 7206,
      "nghênh": 7207,
      "erson": 7208,
      "indus": 7209,
      "archi": 7210,
      "concer": 7211,
      "1915": 7212,
      "1916": 7213,
      "dollar": 7214,
      "este": 7215,
      "co2": 7216,
      "rod": 7217,
      "latvia": 7218,
      "battle": 7219,
      "org": 7220,
      "tures": 7221,
      "list": 7222,
      "maga": 7223,
      "maha": 7224,
      "mig": 7225,
      "michel": 7226,
      "capi": 7227,
      "neva": 7228,
      "andal": 7229,
      "secon": 7230,
      "nicho": 7231,
      "mart": 7232,
      "kom": 7233,
      "nov": 7234,
      "ille": 7235,
      "berk": 7236,
      "joy": 7237,
      "hydra": 7238,
      "thực": 7239,
      "kevin": 7240,
      "weet": 7241,
      "mons": 7242,
      "tsky": 7243,
      "attan": 7244,
      "camero": 7245,
      "7845": 7246,
      "walker": 7247,
      "1908": 7248,
      "larry": 7249,
      "tommy": 7250,
      "gusta": 7251,
      "wanda": 7252,
      "maxim": 7253,
      "nelson": 7254,
      "manhattan": 7255,
      "ngụy": 7256,
      "justin": 7257,
      "lụa": 7258,
      "cameroon": 7259,
      ")}": 7260,
      "banh": 7261,
      "cớ": 7262,
      "clan": 7263,
      "dang": 7264,
      "fs": 7265,
      "fur": 7266,
      "finch": 7267,
      "gậy": 7268,
      "gươm": 7269,
      "ht": 7270,
      "juni": 7271,
      "lố": 7272,
      "mớ": 7273,
      "oxi": 7274,
      "pper": 7275,
      "rand": 7276,
      "sê": 7277,
      "usa": 7278,
      "una": 7279,
      "vẩn": 7280,
      "xáo": 7281,
      "xộn": 7282,
      "ło": 7283,
      "thắn": 7284,
      "chuối": 7285,
      "khar": 7286,
      "giếng": 7287,
      "quấy": 7288,
      "roi": 7289,
      "lad": 7290,
      "aur": 7291,
      "led": 7292,
      "ree": 7293,
      "nat": 7294,
      "chill": 7295,
      "shel": 7296,
      "nitơ": 7297,
      "maroc": 7298,
      "gol": 7299,
      "toni": 7300,
      "petro": 7301,
      "mana": 7302,
      "tanzania": 7303,
      "gabri": 7304,
      "pit": 7305,
      "guar": 7306,
      "ruồi": 7307,
      "140": 7308,
      "harold": 7309,
      "norm": 7310,
      "karl": 7311,
      "1905": 7312,
      "kings": 7313,
      "christo": 7314,
      "europa": 7315,
      "hormone": 7316,
      "7901": 7317,
      "bộ": 7318,
      "manila": 7319,
      "uruguay": 7320,
      "xíu": 7321,
      "clinton": 7322,
      "ata": 7323,
      "acid": 7324,
      "bran": 7325,
      "bọt": 7326,
      "cale": 7327,
      "dha": 7328,
      "gă": 7329,
      "gốm": 7330,
      "keo": 7331,
      "ków": 7332,
      "lỵ": 7333,
      "mỉ": 7334,
      "nơ": 7335,
      "nắp": 7336,
      "oz": 7337,
      "rong": 7338,
      "sáo": 7339,
      "vs": 7340,
      "what": 7341,
      "xách": 7342,
      "ys": 7343,
      "ẻm": 7344,
      "ngớ": 7345,
      "ngây": 7346,
      "ngào": 7347,
      "nhã": 7348,
      "nhúng": 7349,
      "trơn": 7350,
      "khiếm": 7351,
      "phà": 7352,
      "tate": 7353,
      "online": 7354,
      "hou": 7355,
      "khinh": 7356,
      "alfred": 7357,
      "dion": 7358,
      "rian": 7359,
      "roose": 7360,
      "vian": 7361,
      "liêu": 7362,
      "xuôi": 7363,
      "socie": 7364,
      "dav": 7365,
      "borough": 7366,
      "siberia": 7367,
      "napol": 7368,
      "1880": 7369,
      "sulf": 7370,
      "nica": 7371,
      "niêm": 7372,
      "ghts": 7373,
      "koso": 7374,
      "ping": 7375,
      "vera": 7376,
      "xix": 7377,
      "lland": 7378,
      "ering": 7379,
      "ấn": 7380,
      "wilhelm": 7381,
      "burn": 7382,
      "delta": 7383,
      "gray": 7384,
      "tôm": 7385,
      "tốt": 7386,
      "nancy": 7387,
      "melbourne": 7388,
      "story": 7389,
      "octa": 7390,
      "limi": 7391,
      "global": 7392,
      "constantin": 7393,
      "brooklyn": 7394,
      "munich": 7395,
      "phoebe": 7396,
      "chém": 7397,
      "weekly": 7398,
      "matthew": 7399,
      "napoléon": 7400,
      "asa": 7401,
      "aka": 7402,
      "cò": 7403,
      "dō": 7404,
      "edo": 7405,
      "eva": 7406,
      "even": 7407,
      "fron": 7408,
      "hao": 7409,
      "hur": 7410,
      "iu": 7411,
      "lề": 7412,
      "lần": 7413,
      "lượn": 7414,
      "lén": 7415,
      "mậu": 7416,
      "mba": 7417,
      "nao": 7418,
      "nya": 7419,
      "sell": 7420,
      "sche": 7421,
      "tầu": 7422,
      "vạn": 7423,
      "wana": 7424,
      "yar": 7425,
      "ặt": 7426,
      "ũa": 7427,
      "nhí": 7428,
      "thối": 7429,
      "thes": 7430,
      "chon": 7431,
      "trỗi": 7432,
      "khăng": 7433,
      "khali": 7434,
      "quạt": 7435,
      "ane": 7436,
      "any": 7437,
      "onto": 7438,
      "rate": 7439,
      "aiki": 7440,
      "holt": 7441,
      "insu": 7442,
      "institu": 7443,
      "ardo": 7444,
      "eme": 7445,
      "emma": 7446,
      "logo": 7447,
      "toba": 7448,
      "cooper": 7449,
      "luke": 7450,
      "khoe": 7451,
      "liu": 7452,
      "liber": 7453,
      "buông": 7454,
      "somal": 7455,
      "sual": 7456,
      "chad": 7457,
      "moi": 7458,
      "mora": 7459,
      "pid": 7460,
      "carib": 7461,
      "bangkok": 7462,
      "muội": 7463,
      "mona": 7464,
      "7889": 7465,
      "dent": 7466,
      "maya": 7467,
      "baltic": 7468,
      "prise": 7469,
      "velt": 7470,
      "maryland": 7471,
      "channel": 7472,
      "antonio": 7473,
      "kirk": 7474,
      "reich": 7475,
      "chẳng": 7476,
      "madagas": 7477,
      "slovakia": 7478,
      "carthage": 7479,
      "pokémon": 7480,
      "journal": 7481,
      "roosevelt": 7482,
      "450": 7483,
      "5000": 7484,
      "bẻ": 7485,
      "bự": 7486,
      "bẩm": 7487,
      "bấm": 7488,
      "bryan": 7489,
      "cạo": 7490,
      "cúng": 7491,
      "cằn": 7492,
      "dg": 7493,
      "eb": 7494,
      "fm": 7495,
      "góa": 7496,
      "gall": 7497,
      "gren": 7498,
      "hái": 7499,
      "hổng": 7500,
      "kana": 7501,
      "pai": 7502,
      "pse": 7503,
      "rỗi": 7504,
      "rớt": 7505,
      "sướng": 7506,
      "tà": 7507,
      "teo": 7508,
      "tết": 7509,
      "vẫn": 7510,
      "đê": 7511,
      "đày": 7512,
      "đậy": 7513,
      "ński": 7514,
      "ngẩn": 7515,
      "chặng": 7516,
      "chẵn": 7517,
      "tria": 7518,
      "trắc": 7519,
      "anima": 7520,
      "anthon": 7521,
      "chos": 7522,
      "til": 7523,
      "samu": 7524,
      "hỏi": 7525,
      "elle": 7526,
      "court": 7527,
      "lac": 7528,
      "liễu": 7529,
      "madi": 7530,
      "quá": 7531,
      "nefer": 7532,
      "thủng": 7533,
      "chuồng": 7534,
      "suma": 7535,
      "bayern": 7536,
      "niko": 7537,
      "mania": 7538,
      "patra": 7539,
      "guin": 7540,
      "cies": 7541,
      "mãnh": 7542,
      "party": 7543,
      "heart": 7544,
      "atp": 7545,
      "kuwait": 7546,
      "7879": 7547,
      "ppy": 7548,
      "ffe": 7549,
      "warner": 7550,
      "gregor": 7551,
      "dragon": 7552,
      "1898": 7553,
      "kyoto": 7554,
      "romeo": 7555,
      "român": 7556,
      "austin": 7557,
      "cleopatra": 7558,
      "qatar": 7559,
      "general": 7560,
      "guadalcanal": 7561,
      "margaret": 7562,
      "vatican": 7563,
      "madagascar": 7564,
      "bren": 7565,
      "bron": 7566,
      "ceo": 7567,
      "clay": 7568,
      "dwi": 7569,
      "gắt": 7570,
      "jona": 7571,
      "kle": 7572,
      "kina": 7573,
      "lốc": 7574,
      "mất": 7575,
      "ome": 7576,
      "our": 7577,
      "oxit": 7578,
      "pay": 7579,
      "rạc": 7580,
      "stri": 7581,
      "stor": 7582,
      "tát": 7583,
      "tell": 7584,
      "vác": 7585,
      "yes": 7586,
      "đẫm": 7587,
      "̉nh": 7588,
      "̣o": 7589,
      "thà": 7590,
      "chem": 7591,
      "chun": 7592,
      "chênh": 7593,
      "phần": 7594,
      "gieo": 7595,
      "table": 7596,
      "rames": 7597,
      "hood": 7598,
      "độn": 7599,
      "eni": 7600,
      "algé": 7601,
      "dire": 7602,
      "come": 7603,
      "late": 7604,
      "lily": 7605,
      "like": 7606,
      "tea": 7607,
      "ned": 7608,
      "sius": 7609,
      "nahi": 7610,
      "sean": 7611,
      "chiêm": 7612,
      "1890": 7613,
      "kiêng": 7614,
      "bili": 7615,
      "pound": 7616,
      "mod": 7617,
      "motor": 7618,
      "golf": 7619,
      "pete": 7620,
      "pizza": 7621,
      "fic": 7622,
      "muham": 7623,
      "gami": 7624,
      "ders": 7625,
      "wald": 7626,
      "cairo": 7627,
      "palmer": 7628,
      "zole": 7629,
      "shaw": 7630,
      "raymond": 7631,
      "ibm": 7632,
      "llah": 7633,
      "campbell": 7634,
      "gluco": 7635,
      "friedrich": 7636,
      "university": 7637,
      "salvador": 7638,
      "anthony": 7639,
      "românia": 7640,
      "cua": 7641,
      "cẩm": 7642,
      "edu": 7643,
      "fall": 7644,
      "gộp": 7645,
      "hở": 7646,
      "hông": 7647,
      "hết": 7648,
      "jeon": 7649,
      "nồi": 7650,
      "náu": 7651,
      "ova": 7652,
      "sụt": 7653,
      "tong": 7654,
      "tươ": 7655,
      "tấu": 7656,
      "túng": 7657,
      "tưới": 7658,
      "ui": 7659,
      "vuốt": 7660,
      "ẩn": 7661,
      "đam": 7662,
      "nhược": 7663,
      "china": 7664,
      "trở": 7665,
      "phác": 7666,
      "quí": 7667,
      "choàng": 7668,
      "định": 7669,
      "học": 7670,
      "tov": 7671,
      "ely": 7672,
      "elin": 7673,
      "dium": 7674,
      "lap": 7675,
      "bà": 7676,
      "tun": 7677,
      "but": 7678,
      "tei": 7679,
      "isha": 7680,
      "hãnh": 7681,
      "suka": 7682,
      "pomer": 7683,
      "cum": 7684,
      "đôla": 7685,
      "carey": 7686,
      "canxi": 7687,
      "hud": 7688,
      "wara": 7689,
      "ngài": 7690,
      "hee": 7691,
      "eddie": 7692,
      "ấu": 7693,
      "hart": 7694,
      "danu": 7695,
      "wol": 7696,
      "crom": 7697,
      "mới": 7698,
      "1901": 7699,
      "master": 7700,
      "abc": 7701,
      "ways": 7702,
      "kraków": 7703,
      "borneo": 7704,
      "mccar": 7705,
      "anderson": 7706,
      "virgin": 7707,
      "history": 7708,
      "range": 7709,
      "amoto": 7710,
      "silicon": 7711,
      "festi": 7712,
      "cuộc": 7713,
      "digital": 7714,
      "giúp": 7715,
      "nevada": 7716,
      "junior": 7717,
      "kosovo": 7718,
      ";/": 7719,
      "api": 7720,
      "best": 7721,
      "fat": 7722,
      "gna": 7723,
      "hz": 7724,
      "hơ": 7725,
      "hẻm": 7726,
      "jang": 7727,
      "jason": 7728,
      "lằn": 7729,
      "nộ": 7730,
      "plo": 7731,
      "pter": 7732,
      "psy": 7733,
      "sút": 7734,
      "tiệp": 7735,
      "two": 7736,
      "wu": 7737,
      "wright": 7738,
      "xị": 7739,
      "xói": 7740,
      "ún": 7741,
      "ắc": 7742,
      "ngà": 7743,
      "ngạo": 7744,
      "ngặt": 7745,
      "nhôm": 7746,
      "nhận": 7747,
      "chus": 7748,
      "chết": 7749,
      "chùm": 7750,
      "quầy": 7751,
      "enburg": 7752,
      "aldo": 7753,
      "toyo": 7754,
      "domin": 7755,
      "luxem": 7756,
      "luzon": 7757,
      "lix": 7758,
      "lev": 7759,
      "xus": 7760,
      "mata": 7761,
      "buri": 7762,
      "teen": 7763,
      "iss": 7764,
      "rez": 7765,
      "hide": 7766,
      "dea": 7767,
      "kita": 7768,
      "bing": 7769,
      "mare": 7770,
      "vài": 7771,
      "guel": 7772,
      "thức": 7773,
      "xiêm": 7774,
      "montene": 7775,
      "lls": 7776,
      "stal": 7777,
      "jacob": 7778,
      "timor": 7779,
      "toronto": 7780,
      "franz": 7781,
      "franç": 7782,
      "mery": 7783,
      "foun": 7784,
      "brit": 7785,
      "brother": 7786,
      "eley": 7787,
      "istanbul": 7788,
      "1906": 7789,
      "1907": 7790,
      "paulo": 7791,
      "lord": 7792,
      "express": 7793,
      "cúm": 7794,
      "daily": 7795,
      "store": 7796,
      "ibn": 7797,
      "horn": 7798,
      "leonard": 7799,
      "clip": 7800,
      "obama": 7801,
      "heinrich": 7802,
      "malawi": 7803,
      "limited": 7804,
      "algérie": 7805,
      "abi": 7806,
      "bì": 7807,
      "búp": 7808,
      "bali": 7809,
      "bón": 7810,
      "cẩu": 7811,
      "call": 7812,
      "db": 7813,
      "eus": 7814,
      "ilo": 7815,
      "kẹp": 7816,
      "lă": 7817,
      "léo": 7818,
      "mặn": 7819,
      "nòng": 7820,
      "nell": 7821,
      "ody": 7822,
      "pest": 7823,
      "rảnh": 7824,
      "sập": 7825,
      "tảo": 7826,
      "uri": 7827,
      "vơ": 7828,
      "vana": 7829,
      "wii": 7830,
      "zin": 7831,
      "ốc": 7832,
      "ặc": 7833,
      "đẽ": 7834,
      "đề": 7835,
      "́u": 7836,
      "ỡn": 7837,
      "thê": 7838,
      "thạo": 7839,
      "thấm": 7840,
      "chanh": 7841,
      "khiên": 7842,
      "giết": 7843,
      "giới": 7844,
      "emon": 7845,
      "dir": 7846,
      "luis": 7847,
      "lucy": 7848,
      "vienna": 7849,
      "visual": 7850,
      "baek": 7851,
      "mash": 7852,
      "mie": 7853,
      "teh": 7854,
      "sio": 7855,
      "nak": 7856,
      "nathan": 7857,
      "1870": 7858,
      "mẹ": 7859,
      "pos": 7860,
      "poz": 7861,
      "ced": 7862,
      "maru": 7863,
      "nou": 7864,
      "111": 7865,
      "gates": 7866,
      "nghiền": 7867,
      "240": 7868,
      "lester": 7869,
      "fax": 7870,
      "nucleo": 7871,
      "phate": 7872,
      "234": 7873,
      "wow": 7874,
      "shing": 7875,
      "rene": 7876,
      "hamil": 7877,
      "tennes": 7878,
      "grey": 7879,
      "valley": 7880,
      "tỉa": 7881,
      "kare": 7882,
      "bush": 7883,
      "souri": 7884,
      "distri": 7885,
      "seleu": 7886,
      "europe": 7887,
      "enterprise": 7888,
      "hunter": 7889,
      "ctions": 7890,
      "missouri": 7891,
      "just": 7892,
      "hannah": 7893,
      "illinois": 7894,
      "gerald": 7895,
      "swift": 7896,
      "myanmar": 7897,
      "uzbekistan": 7898,
      "síp": 7899,
      "festival": 7900,
      "montenegro": 7901,
      ".'": 7902,
      "cpu": 7903,
      "dặn": 7904,
      "ethan": 7905,
      "fl": 7906,
      "frac": 7907,
      "hăng": 7908,
      "hcm": 7909,
      "kun": 7910,
      "kami": 7911,
      "ló": 7912,
      "lẫy": 7913,
      "nến": 7914,
      "oe": 7915,
      "pd": 7916,
      "rell": 7917,
      "rủa": 7918,
      "tto": 7919,
      "vã": 7920,
      "vali": 7921,
      "whis": 7922,
      "xài": 7923,
      "yemen": 7924,
      "ña": 7925,
      "ẳm": 7926,
      "nhặt": 7927,
      "nhét": 7928,
      "nhấm": 7929,
      "nháy": 7930,
      "tràng": 7931,
      "khal": 7932,
      "khốc": 7933,
      "khống": 7934,
      "quỵ": 7935,
      "quăng": 7936,
      "rama": 7937,
      "tif": 7938,
      "hoi": 7939,
      "ango": 7940,
      "too": 7941,
      "els": 7942,
      "divisi": 7943,
      "rit": 7944,
      "basi": 7945,
      "bảo": 7946,
      "cafe": 7947,
      "soul": 7948,
      "nec": 7949,
      "seat": 7950,
      "chị": 7951,
      "1815": 7952,
      "sue": 7953,
      "posi": 7954,
      "dùm": 7955,
      "cera": 7956,
      "kash": 7957,
      "maría": 7958,
      "lane": 7959,
      "kota": 7960,
      "gom": 7961,
      "gọi": 7962,
      "novel": 7963,
      "tani": 7964,
      "bé": 7965,
      "hàng": 7966,
      "pio": 7967,
      "hyun": 7968,
      "guan": 7969,
      "sưởi": 7970,
      "nhìn": 7971,
      "ards": 7972,
      "ween": 7973,
      "vers": 7974,
      "yasu": 7975,
      "volu": 7976,
      "erie": 7977,
      "fac": 7978,
      "lands": 7979,
      "syn": 7980,
      "tten": 7981,
      "tụng": 7982,
      "thùy": 7983,
      "ểm": 7984,
      "ển": 7985,
      "alab": 7986,
      "gyeong": 7987,
      "đường": 7988,
      "wells": 7989,
      "paraguay": 7990,
      "maggie": 7991,
      "eiro": 7992,
      "mariana": 7993,
      "zambia": 7994,
      "caroline": 7995,
      "bố": 7996,
      "kelly": 7997,
      "indiana": 7998,
      "plasma": 7999,
      "society": 8000,
      "jonathan": 8001,
      "tennessee": 8002,
      "\";": 8003,
      "220": 8004,
      "750": 8005,
      "ave": 8006,
      "azer": 8007,
      "bằng": 8008,
      "căm": 8009,
      "fda": 8010,
      "fami": 8011,
      "gem": 8012,
      "gán": 8013,
      "gps": 8014,
      "ign": 8015,
      "jas": 8016,
      "kw": 8017,
      "kèn": 8018,
      "lít": 8019,
      "lima": 8020,
      "mấu": 8021,
      "oa": 8022,
      "omar": 8023,
      "ples": 8024,
      "rwanda": 8025,
      "uc": 8026,
      "vư": 8027,
      "xay": 8028,
      "ôxy": 8029,
      "thục": 8030,
      "chốn": 8031,
      "trù": 8032,
      "trâu": 8033,
      "phor": 8034,
      "giun": 8035,
      "giỡn": 8036,
      "tima": 8037,
      "how": 8038,
      "hoả": 8039,
      "hoán": 8040,
      "angola": 8041,
      "ark": 8042,
      "arts": 8043,
      "emo": 8044,
      "emy": 8045,
      "bịa": 8046,
      "dog": 8047,
      "doạ": 8048,
      "esi": 8049,
      "disco": 8050,
      "roth": 8051,
      "lav": 8052,
      "lace": 8053,
      "organ": 8054,
      "liz": 8055,
      "casa": 8056,
      "ism": 8057,
      "hir": 8058,
      "dee": 8059,
      "deu": 8060,
      "1830": 8061,
      "1850": 8062,
      "kas": 8063,
      "asia": 8064,
      "dum": 8065,
      "đồ": 8066,
      "cing": 8067,
      "mul": 8068,
      "muỗi": 8069,
      "wice": 8070,
      "baro": 8071,
      "russell": 8072,
      "found": 8073,
      "julia": 8074,
      "burger": 8075,
      "delhi": 8076,
      "chót": 8077,
      "loud": 8078,
      "born": 8079,
      "1896": 8080,
      "7911": 8081,
      "ctơ": 8082,
      "voivo": 8083,
      "brunei": 8084,
      "cess": 8085,
      "jesus": 8086,
      "lời": 8087,
      "lớn": 8088,
      "techno": 8089,
      "county": 8090,
      "thorn": 8091,
      "đừng": 8092,
      "nheim": 8093,
      "chắc": 8094,
      "maurice": 8095,
      "garden": 8096,
      "babwe": 8097,
      "jacques": 8098,
      "zimbabwe": 8099,
      "bolivia": 8100,
      "churchill": 8101,
      "tokugawa": 8102,
      "soccer": 8103,
      "nhớ": 8104,
      "magazine": 8105,
      "christopher": 8106,
      "somalia": 8107,
      "caribbe": 8108,
      "nahiyah": 8109,
      "danube": 8110,
      "03": 8111,
      "a3": 8112,
      "bỗng": 8113,
      "cúi": 8114,
      "cze": 8115,
      "dine": 8116,
      "eun": 8117,
      "furt": 8118,
      "gõ": 8119,
      "glen": 8120,
      "iz": 8121,
      "kị": 8122,
      "knight": 8123,
      "mv": 8124,
      "nại": 8125,
      "nếm": 8126,
      "oka": 8127,
      "oak": 8128,
      "rệt": 8129,
      "tặc": 8130,
      "ufo": 8131,
      "whe": 8132,
      "wers": 8133,
      "zai": 8134,
      "zir": 8135,
      "đần": 8136,
      "đũa": 8137,
      "ngõ": 8138,
      "thắp": 8139,
      "chô": 8140,
      "chĩa": 8141,
      "gid": 8142,
      "ties": 8143,
      "tiber": 8144,
      "sahara": 8145,
      "ais": 8146,
      "hoo": 8147,
      "holo": 8148,
      "amster": 8149,
      "lore": 8150,
      "doro": 8151,
      "cour": 8152,
      "rodri": 8153,
      "lata": 8154,
      "basti": 8155,
      "khoát": 8156,
      "tetra": 8157,
      "sophi": 8158,
      "hiện": 8159,
      "hiểu": 8160,
      "andr": 8161,
      "bane": 8162,
      "sein": 8163,
      "dez": 8164,
      "109": 8165,
      "1876": 8166,
      "chuồn": 8167,
      "sham": 8168,
      "marcel": 8169,
      "movie": 8170,
      "pez": 8171,
      "nom": 8172,
      "nokia": 8173,
      "nold": 8174,
      "bed": 8175,
      "cut": 8176,
      "berry": 8177,
      "pac": 8178,
      "lini": 8179,
      "guam": 8180,
      "ción": 8181,
      "yoo": 8182,
      "đại": 8183,
      "very": 8184,
      "wing": 8185,
      "toria": 8186,
      "spin": 8187,
      "7873": 8188,
      "dynam": 8189,
      "communi": 8190,
      "tụy": 8191,
      "oney": 8192,
      "hans": 8193,
      "hanni": 8194,
      "leone": 8195,
      "1902": 8196,
      "afri": 8197,
      "frey": 8198,
      "utc": 8199,
      "baijan": 8200,
      "casti": 8201,
      "chamber": 8202,
      "1889": 8203,
      "hydroxy": 8204,
      "ddle": 8205,
      "rãnh": 8206,
      "grande": 8207,
      "isaac": 8208,
      "golden": 8209,
      "mount": 8210,
      "missis": 8211,
      "johannes": 8212,
      "lgbt": 8213,
      "queensland": 8214,
      "bernard": 8215,
      "mịn": 8216,
      "christmas": 8217,
      "normandy": 8218,
      "gặp": 8219,
      "ramesses": 8220,
      "muhammad": 8221,
      "luxembourg": 8222,
      "azerbaijan": 8223,
      "amsterdam": 8224,
      "brus": 8225,
      "bùa": 8226,
      "cươ": 8227,
      "dru": 8228,
      "ether": 8229,
      "fau": 8230,
      "fast": 8231,
      "gặm": 8232,
      "kìm": 8233,
      "kno": 8234,
      "kru": 8235,
      "lự": 8236,
      "lanh": 8237,
      "owen": 8238,
      "peo": 8239,
      "psi": 8240,
      "pdf": 8241,
      "sấu": 8242,
      "snow": 8243,
      "wim": 8244,
      "xót": 8245,
      "ère": 8246,
      "đục": 8247,
      "ngòi": 8248,
      "nhũ": 8249,
      "thỉ": 8250,
      "chèn": 8251,
      "trèo": 8252,
      "khâu": 8253,
      "phanh": 8254,
      "phiện": 8255,
      "quỳ": 8256,
      "quặc": 8257,
      "quặng": 8258,
      "tario": 8259,
      "loo": 8260,
      "doc": 8261,
      "coast": 8262,
      "rip": 8263,
      "lae": 8264,
      "bag": 8265,
      "tura": 8266,
      "máy": 8267,
      "mitsu": 8268,
      "buil": 8269,
      "teur": 8270,
      "reg": 8271,
      "hiền": 8272,
      "nea": 8273,
      "dation": 8274,
      "body": 8275,
      "bohem": 8276,
      "sici": 8277,
      "nata": 8278,
      "dec": 8279,
      "tyl": 8280,
      "1860": 8281,
      "1871": 8282,
      "sumer": 8283,
      "philli": 8284,
      "shino": 8285,
      "mea": 8286,
      "kiyo": 8287,
      "chat": 8288,
      "pold": 8289,
      "nitra": 8290,
      "lana": 8291,
      "peare": 8292,
      "hak": 8293,
      "ryu": 8294,
      "velo": 8295,
      "huh": 8296,
      "figh": 8297,
      "muôn": 8298,
      "gent": 8299,
      "santo": 8300,
      "stage": 8301,
      "etta": 8302,
      "frances": 8303,
      "7897": 8304,
      "thời": 8305,
      "union": 8306,
      "deship": 8307,
      "winter": 8308,
      "cross": 8309,
      "pania": 8310,
      "morris": 8311,
      "lennon": 8312,
      "ferdin": 8313,
      "1903": 8314,
      "shakes": 8315,
      "amide": 8316,
      "dorf": 8317,
      "1897": 8318,
      "steroid": 8319,
      "colorado": 8320,
      "1863": 8321,
      "1868": 8322,
      "crete": 8323,
      "gnar": 8324,
      "ệm": 8325,
      "speed": 8326,
      "konstan": 8327,
      "boys": 8328,
      "bobby": 8329,
      "final": 8330,
      "susan": 8331,
      "mission": 8332,
      "rapper": 8333,
      "italy": 8334,
      "philippe": 8335,
      "hawk": 8336,
      "reagan": 8337,
      "amanda": 8338,
      "science": 8339,
      "chloro": 8340,
      "diesel": 8341,
      "academ": 8342,
      "western": 8343,
      "pharaon": 8344,
      "seattle": 8345,
      "voivodeship": 8346,
      "shakespeare": 8347,
      "axít": 8348,
      "aaron": 8349,
      "bế": 8350,
      "bry": 8351,
      "bres": 8352,
      "bble": 8353,
      "cé": 8354,
      "cran": 8355,
      "czy": 8356,
      "dưa": 8357,
      "ffi": 8358,
      "gao": 8359,
      "hp": 8360,
      "ida": 8361,
      "jai": 8362,
      "lộng": 8363,
      "meri": 8364,
      "sd": 8365,
      "tiệt": 8366,
      "vôi": 8367,
      "xảo": 8368,
      "zhe": 8369,
      "đều": 8370,
      "ск": 8371,
      "ẽn": 8372,
      "ngậm": 8373,
      "nhá": 8374,
      "nhai": 8375,
      "nhồi": 8376,
      "nhọn": 8377,
      "thin": 8378,
      "thar": 8379,
      "thro": 8380,
      "thằn": 8381,
      "thẳm": 8382,
      "chọi": 8383,
      "chích": 8384,
      "chảo": 8385,
      "cheon": 8386,
      "trướng": 8387,
      "tag": 8388,
      "samo": 8389,
      "saxon": 8390,
      "điềm": 8391,
      "angela": 8392,
      "enberg": 8393,
      "domi": 8394,
      "dova": 8395,
      "elai": 8396,
      "ror": 8397,
      "lat": 8398,
      "lagos": 8399,
      "lúc": 8400,
      "luther": 8401,
      "orle": 8402,
      "lisa": 8403,
      "lega": 8404,
      "mato": 8405,
      "cade": 8406,
      "usb": 8407,
      "reu": 8408,
      "vịt": 8409,
      "hig": 8410,
      "vụn": 8411,
      "sippi": 8412,
      "secre": 8413,
      "terry": 8414,
      "chuộng": 8415,
      "thomp": 8416,
      "chase": 8417,
      "polo": 8418,
      "potter": 8419,
      "nier": 8420,
      "kate": 8421,
      "marin": 8422,
      "marty": 8423,
      "martha": 8424,
      "thích": 8425,
      "bei": 8426,
      "patri": 8427,
      "bén": 8428,
      "fitz": 8429,
      "wea": 8430,
      "jake": 8431,
      "advan": 8432,
      "eds": 8433,
      "edin": 8434,
      "proto": 8435,
      "barbara": 8436,
      "aleppo": 8437,
      "eller": 8438,
      "ấp": 8439,
      "anato": 8440,
      "7899": 8441,
      "dylan": 8442,
      "wart": 8443,
      "ject": 8444,
      "guez": 8445,
      "penang": 8446,
      "photon": 8447,
      "stanford": 8448,
      "fuku": 8449,
      "bruno": 8450,
      "janeiro": 8451,
      "yuki": 8452,
      "sarawak": 8453,
      "helena": 8454,
      "1887": 8455,
      "athena": 8456,
      "demo": 8457,
      "jessica": 8458,
      "holmes": 8459,
      "grammy": 8460,
      "kurd": 8461,
      "adams": 8462,
      "warszawa": 8463,
      "phosphate": 8464,
      "mountain": 8465,
      "giêsu": 8466,
      "abraham": 8467,
      "industri": 8468,
      "tobago": 8469,
      "animation": 8470,
      "samuel": 8471,
      "sumatra": 8472,
      "foundation": 8473,
      "mississippi": 8474,
      "orleans": 8475,
      "thompson": 8476,
      "avon": 8477,
      "bl": 8478,
      "bam": 8479,
      "bời": 8480,
      "bái": 8481,
      "cành": 8482,
      "dơ": 8483,
      "deo": 8484,
      "dồi": 8485,
      "dồn": 8486,
      "dãi": 8487,
      "fus": 8488,
      "gạch": 8489,
      "ghost": 8490,
      "iana": 8491,
      "jö": 8492,
      "lộc": 8493,
      "lửng": 8494,
      "nạt": 8495,
      "ole": 8496,
      "osaka": 8497,
      "qi": 8498,
      "rạn": 8499,
      "rel": 8500,
      "rậm": 8501,
      "sạc": 8502,
      "test": 8503,
      "xt": 8504,
      "yel": 8505,
      "yểm": 8506,
      "ổi": 8507,
      "ngạt": 8508,
      "thây": 8509,
      "chron": 8510,
      "chợt": 8511,
      "trệ": 8512,
      "trặc": 8513,
      "trum": 8514,
      "phôi": 8515,
      "gill": 8516,
      "rab": 8517,
      "tivi": 8518,
      "aristo": 8519,
      "amino": 8520,
      "enne": 8521,
      "connor": 8522,
      "consin": 8523,
      "lose": 8524,
      "loren": 8525,
      "lomb": 8526,
      "diana": 8527,
      "bati": 8528,
      "tuỳ": 8529,
      "mak": 8530,
      "mikhai": 8531,
      "buồm": 8532,
      "ngoa": 8533,
      "ngoạn": 8534,
      "hito": 8535,
      "andré": 8536,
      "sik": 8537,
      "nacion": 8538,
      "sed": 8539,
      "nicara": 8540,
      "marx": 8541,
      "marco": 8542,
      "marine": 8543,
      "gou": 8544,
      "goth": 8545,
      "joon": 8546,
      "1500": 8547,
      "hội": 8548,
      "hugo": 8549,
      "xide": 8550,
      "genes": 8551,
      "harvey": 8552,
      "7841": 8553,
      "mys": 8554,
      "four": 8555,
      "vancou": 8556,
      "byte": 8557,
      "pul": 8558,
      "graph": 8559,
      "bros": 8560,
      "thern": 8561,
      "ltd": 8562,
      "silva": 8563,
      "silver": 8564,
      "stuart": 8565,
      "lympho": 8566,
      "crea": 8567,
      "place": 8568,
      "wisconsin": 8569,
      "tasmania": 8570,
      "colum": 8571,
      "7907": 8572,
      "bird": 8573,
      "gilbert": 8574,
      "championship": 8575,
      "clark": 8576,
      "constantino": 8577,
      "alexandria": 8578,
      "shōnen": 8579,
      "broadway": 8580,
      "berkeley": 8581,
      "gabriel": 8582,
      "davao": 8583,
      "institute": 8584,
      "hamilton": 8585,
      "gideon": 8586,
      "sophie": 8587,
      "vancouver": 8588,
      ")”": 8589,
      "aga": 8590,
      "azi": 8591,
      "biếm": 8592,
      "bất": 8593,
      "cặn": 8594,
      "cõi": 8595,
      "eas": 8596,
      "feld": 8597,
      "gân": 8598,
      "gand": 8599,
      "hm": 8600,
      "hiên": 8601,
      "hắc": 8602,
      "hóc": 8603,
      "itu": 8604,
      "ike": 8605,
      "jet": 8606,
      "jump": 8607,
      "lười": 8608,
      "mép": 8609,
      "nấp": 8610,
      "nẵng": 8611,
      "ouk": 8612,
      "pg": 8613,
      "pm": 8614,
      "ppe": 8615,
      "pard": 8616,
      "rgy": 8617,
      "sw": 8618,
      "sờ": 8619,
      "sài": 8620,
      "sán": 8621,
      "spo": 8622,
      "sno": 8623,
      "semi": 8624,
      "vãn": 8625,
      "vẹt": 8626,
      "vấn": 8627,
      "ât": 8628,
      "ễn": 8629,
      "ôxít": 8630,
      "đơ": 8631,
      "đạm": 8632,
      "thal": 8633,
      "thường": 8634,
      "phước": 8635,
      "phường": 8636,
      "tat": 8637,
      "taliban": 8638,
      "tạo": 8639,
      "ons": 8640,
      "sac": 8641,
      "horus": 8642,
      "erz": 8643,
      "aro": 8644,
      "loãng": 8645,
      "dot": 8646,
      "coca": 8647,
      "cook": 8648,
      "rif": 8649,
      "ries": 8650,
      "robi": 8651,
      "laho": 8652,
      "thun": 8653,
      "vier": 8654,
      "vice": 8655,
      "khoán": 8656,
      "leu": 8657,
      "isu": 8658,
      "reid": 8659,
      "sole": 8660,
      "neil": 8661,
      "daw": 8662,
      "bots": 8663,
      "sihan": 8664,
      "naka": 8665,
      "sever": 8666,
      "deep": 8667,
      "105": 8668,
      "1873": 8669,
      "kiri": 8670,
      "powell": 8671,
      "nic": 8672,
      "march": 8673,
      "marse": 8674,
      "kou": 8675,
      "asta": 8676,
      "gomery": 8677,
      "thera": 8678,
      "thic": 8679,
      "pear": 8680,
      "pelo": 8681,
      "pixel": 8682,
      "lins": 8683,
      "vectơ": 8684,
      "vụ": 8685,
      "perry": 8686,
      "sten": 8687,
      "ếm": 8688,
      "witz": 8689,
      "atlas": 8690,
      "bral": 8691,
      "myr": 8692,
      "june": 8693,
      "kyung": 8694,
      "mino": 8695,
      "graphi": 8696,
      "stanley": 8697,
      "kane": 8698,
      "florence": 8699,
      "cisco": 8700,
      "shevik": 8701,
      "castro": 8702,
      "jerry": 8703,
      "yuri": 8704,
      "pictures": 8705,
      "petersburg": 8706,
      "1865": 8707,
      "helen": 8708,
      "fanta": 8709,
      "electronics": 8710,
      "giovan": 8711,
      "isabella": 8712,
      "hindu": 8713,
      "juliet": 8714,
      "gaul": 8715,
      "works": 8716,
      "bahrain": 8717,
      "universal": 8718,
      "sport": 8719,
      "montgomery": 8720,
      "toàn": 8721,
      "mathbf": 8722,
      "public": 8723,
      "laurel": 8724,
      "claude": 8725,
      "tiếng": 8726,
      "square": 8727,
      "madison": 8728,
      "hannibal": 8729,
      "thỉu": 8730,
      "ferdinand": 8731,
      "nacional": 8732,
      "nicaragua": 8733,
      "sihanouk": 8734,
      "112": 8735,
      "4000": 8736,
      "aer": 8737,
      "apec": 8738,
      "bn": 8739,
      "bộc": 8740,
      "cto": 8741,
      "eh": 8742,
      "gầm": 8743,
      "gầy": 8744,
      "gger": 8745,
      "hs": 8746,
      "háo": 8747,
      "hale": 8748,
      "ik": 8749,
      "lở": 8750,
      "m3": 8751,
      "mác": 8752,
      "nới": 8753,
      "opo": 8754,
      "pren": 8755,
      "plus": 8756,
      "rine": 8757,
      "să": 8758,
      "sli": 8759,
      "sse": 8760,
      "tạc": 8761,
      "wri": 8762,
      "yong": 8763,
      "zene": 8764,
      "đắng": 8765,
      "ỉa": 8766,
      "nhan": 8767,
      "nhào": 8768,
      "nhạo": 8769,
      "nhảm": 8770,
      "trus": 8771,
      "khép": 8772,
      "khrush": 8773,
      "giùm": 8774,
      "quấn": 8775,
      "ance": 8776,
      "tama": 8777,
      "choi": 8778,
      "choáng": 8779,
      "raja": 8780,
      "rashi": 8781,
      "nghẽn": 8782,
      "aios": 8783,
      "hob": 8784,
      "homo": 8785,
      "hope": 8786,
      "enix": 8787,
      "alaya": 8788,
      "doo": 8789,
      "escu": 8790,
      "iac": 8791,
      "coli": 8792,
      "core": 8793,
      "colon": 8794,
      "lab": 8795,
      "lum": 8796,
      "baba": 8797,
      "lish": 8798,
      "legen": 8799,
      "lett": 8800,
      "milo": 8801,
      "milli": 8802,
      "miguel": 8803,
      "user": 8804,
      "soli": 8805,
      "sound": 8806,
      "sit": 8807,
      "singh": 8808,
      "name": 8809,
      "nah": 8810,
      "death": 8811,
      "1848": 8812,
      "kid": 8813,
      "kiev": 8814,
      "thom": 8815,
      "pom": 8816,
      "từng": 8817,
      "molo": 8818,
      "moore": 8819,
      "got": 8820,
      "vacc": 8821,
      "gae": 8822,
      "pire": 8823,
      "paci": 8824,
      "đổi": 8825,
      "động": 8826,
      "lind": 8827,
      "vũng": 8828,
      "form": 8829,
      "force": 8830,
      "mum": 8831,
      "jab": 8832,
      "harmon": 8833,
      "harris": 8834,
      "ffer": 8835,
      "corn": 8836,
      "kyū": 8837,
      "kyrgy": 8838,
      "minnes": 8839,
      "cyrus": 8840,
      "graham": 8841,
      "hamp": 8842,
      "leopold": 8843,
      "beli": 8844,
      "denis": 8845,
      "word": 8846,
      "ronald": 8847,
      "khuya": 8848,
      "ballad": 8849,
      "itz": 8850,
      "palau": 8851,
      "zuki": 8852,
      "shot": 8853,
      "strau": 8854,
      "1893": 8855,
      "laura": 8856,
      "varia": 8857,
      "species": 8858,
      "damas": 8859,
      "}}}": 8860,
      "england": 8861,
      "greenland": 8862,
      "sloven": 8863,
      "hills": 8864,
      "kẽm": 8865,
      "becca": 8866,
      "princeton": 8867,
      "yokosuka": 8868,
      "turkmen": 8869,
      "mün": 8870,
      "nucleotide": 8871,
      "seleukos": 8872,
      "constantinopolis": 8873,
      "417": 8874,
      "672": 8875,
      "adi": 8876,
      "apa": 8877,
      "aja": 8878,
      "cày": 8879,
      "cci": 8880,
      "cine": 8881,
      "dres": 8882,
      "gô": 8883,
      "kết": 8884,
      "mỳ": 8885,
      "nk": 8886,
      "num": 8887,
      "oto": 8888,
      "oun": 8889,
      "oke": 8890,
      "pô": 8891,
      "pao": 8892,
      "pso": 8893,
      "rợ": 8894,
      "rách": 8895,
      "rua": 8896,
      "sấm": 8897,
      "slam": 8898,
      "swan": 8899,
      "sủa": 8900,
      "tẻ": 8901,
      "uf": 8902,
      "ula": 8903,
      "vướng": 8904,
      "vest": 8905,
      "vẫy": 8906,
      "xvi": 8907,
      "yale": 8908,
      "yeon": 8909,
      "är": 8910,
      "đọng": 8911,
      "điếu": 8912,
      "ńsk": 8913,
      "ngừ": 8914,
      "nhủ": 8915,
      "nhung": 8916,
      "thừng": 8917,
      "chải": 8918,
      "chau": 8919,
      "chưởng": 8920,
      "tris": 8921,
      "giục": 8922,
      "gibral": 8923,
      "quẩn": 8924,
      "ontario": 8925,
      "ragnar": 8926,
      "tiền": 8927,
      "sad": 8928,
      "sato": 8929,
      "hoff": 8930,
      "cố": 8931,
      "ense": 8932,
      "load": 8933,
      "tomi": 8934,
      "tomo": 8935,
      "tower": 8936,
      "nhàm": 8937,
      "comi": 8938,
      "copa": 8939,
      "color": 8940,
      "rita": 8941,
      "ridae": 8942,
      "roe": 8943,
      "luna": 8944,
      "visa": 8945,
      "vida": 8946,
      "tune": 8947,
      "maker": 8948,
      "magic": 8949,
      "calo": 8950,
      "buk": 8951,
      "ret": 8952,
      "hình": 8953,
      "banks": 8954,
      "ded": 8955,
      "dead": 8956,
      "chiến": 8957,
      "tyler": 8958,
      "bique": 8959,
      "kaf": 8960,
      "mars": 8961,
      "moor": 8962,
      "kol": 8963,
      "ileo": 8964,
      "115": 8965,
      "gaga": 8966,
      "cube": 8967,
      "pak": 8968,
      "pap": 8969,
      "cian": 8970,
      "kera": 8971,
      "vector": 8972,
      "huệ": 8973,
      "yoon": 8974,
      "xiii": 8975,
      "ruộng": 8976,
      "newcastle": 8977,
      "forbes": 8978,
      "veri": 8979,
      "versa": 8980,
      "parker": 8981,
      "hera": 8982,
      "barney": 8983,
      "7875": 8984,
      "wild": 8985,
      "vant": 8986,
      "ffin": 8987,
      "stewart": 8988,
      "tụt": 8989,
      "hank": 8990,
      "cain": 8991,
      "trea": 8992,
      "trẻ": 8993,
      "bald": 8994,
      "talk": 8995,
      "cnn": 8996,
      "fern": 8997,
      "vinci": 8998,
      "africa": 8999,
      "prime": 9000,
      "turner": 9001,
      "shei": 9002,
      "1895": 9003,
      "lẻn": 9004,
      "frankfurt": 9005,
      "blood": 9006,
      "thống": 9007,
      "bởi": 9008,
      "bosnia": 9009,
      "leigh": 9010,
      "micron": 9011,
      "watson": 9012,
      "challe": 9013,
      "blanca": 9014,
      "market": 9015,
      "silesian": 9016,
      "budapest": 9017,
      "vietnam": 9018,
      "concert": 9019,
      "gustav": 9020,
      "insulin": 9021,
      "hudson": 9022,
      "pozna": 9023,
      "district": 9024,
      "edinburgh": 9025,
      "mikhail": 9026,
      "botswana": 9027,
      "kyrgyz": 9028,
      "minnesota": 9029,
      "slovenia": 9030,
      "')": 9031,
      "3ch": 9032,
      "ate": 9033,
      "bành": 9034,
      "bạt": 9035,
      "bẩy": 9036,
      "cọc": 9037,
      "còi": 9038,
      "dào": 9039,
      "eg": 9040,
      "fish": 9041,
      "gài": 9042,
      "gòn": 9043,
      "gmina": 9044,
      "ià": 9045,
      "ior": 9046,
      "lấy": 9047,
      "mler": 9048,
      "mặt": 9049,
      "oy": 9050,
      "oman": 9051,
      "pris": 9052,
      "rùa": 9053,
      "sụ": 9054,
      "sục": 9055,
      "sỏi": 9056,
      "tẩu": 9057,
      "vn": 9058,
      "vre": 9059,
      "vkaz": 9060,
      "zal": 9061,
      "đâ": 9062,
      "̣m": 9063,
      "ốp": 9064,
      "them": 9065,
      "chạp": 9066,
      "chửi": 9067,
      "trường": 9068,
      "phông": 9069,
      "phin": 9070,
      "phẫn": 9071,
      "giông": 9072,
      "tation": 9073,
      "uya": 9074,
      "tio": 9075,
      "tier": 9076,
      "tiful": 9077,
      "homs": 9078,
      "holland": 9079,
      "eran": 9080,
      "angkor": 9081,
      "arch": 9082,
      "arms": 9083,
      "today": 9084,
      "bịp": 9085,
      "bịt": 9086,
      "doctor": 9087,
      "iata": 9088,
      "elena": 9089,
      "dic": 9090,
      "dius": 9091,
      "bae": 9092,
      "baz": 9093,
      "baku": 9094,
      "tui": 9095,
      "tula": 9096,
      "mach": 9097,
      "macro": 9098,
      "mili": 9099,
      "mile": 9100,
      "usz": 9101,
      "bull": 9102,
      "ngoặt": 9103,
      "sos": 9104,
      "andes": 9105,
      "andina": 9106,
      "sid": 9107,
      "season": 9108,
      "sebasti": 9109,
      "devon": 9110,
      "1879": 9111,
      "chul": 9112,
      "megan": 9113,
      "meyer": 9114,
      "cháu": 9115,
      "niger": 9116,
      "kavkaz": 9117,
      "mario": 9118,
      "momo": 9119,
      "astra": 9120,
      "pee": 9121,
      "bey": 9122,
      "illes": 9123,
      "page": 9124,
      "gues": 9125,
      "carbo": 9126,
      "ved": 9127,
      "xii": 9128,
      "fiji": 9129,
      "sons": 9130,
      "wadi": 9131,
      "verde": 9132,
      "percy": 9133,
      "---": 9134,
      "lles": 9135,
      "lain": 9136,
      "wicz": 9137,
      "zation": 9138,
      "sym": 9139,
      "phát": 9140,
      "237": 9141,
      "burton": 9142,
      "command": 9143,
      "crow": 9144,
      "benedi": 9145,
      "elius": 9146,
      "zio": 9147,
      "karta": 9148,
      "stanis": 9149,
      "tamine": 9150,
      "galileo": 9151,
      "schmid": 9152,
      "bain": 9153,
      "busan": 9154,
      "celt": 9155,
      "iness": 9156,
      "christina": 9157,
      "rôma": 9158,
      "1899": 9159,
      "lẻo": 9160,
      "kinson": 9161,
      "brew": 9162,
      "pink": 9163,
      "1884": 9164,
      "1886": 9165,
      "nando": 9166,
      "maxwell": 9167,
      "võng": 9168,
      "paralym": 9169,
      "olympia": 9170,
      "hondu": 9171,
      "kamen": 9172,
      "polyme": 9173,
      "finn": 9174,
      "drive": 9175,
      "bênh": 9176,
      "sandwich": 9177,
      "enzym": 9178,
      "edition": 9179,
      "country": 9180,
      "ernest": 9181,
      "pascal": 9182,
      "sports": 9183,
      "jefferson": 9184,
      "beautiful": 9185,
      "frame": 9186,
      "memori": 9187,
      "foster": 9188,
      "abdul": 9189,
      "utah": 9190,
      "ulithi": 9191,
      "rhodes": 9192,
      "ptolemaios": 9193,
      "françois": 9194,
      "lựu": 9195,
      "academy": 9196,
      "aristotle": 9197,
      "giovanni": 9198,
      "gibraltar": 9199,
      "schmidt": 9200,
      "227": 9201,
      "ava": 9202,
      "abel": 9203,
      "asian": 9204,
      "bới": 9205,
      "bine": 9206,
      "dật": 9207,
      "diệp": 9208,
      "dưng": 9209,
      "fé": 9210,
      "gb": 9211,
      "gda": 9212,
      "gge": 9213,
      "hes": 9214,
      "iki": 9215,
      "ít": 9216,
      "kama": 9217,
      "lp": 9218,
      "lách": 9219,
      "mài": 9220,
      "náo": 9221,
      "nếp": 9222,
      "nước": 9223,
      "ote": 9224,
      "oda": 9225,
      "oce": 9226,
      "sko": 9227,
      "sina": 9228,
      "sẹo": 9229,
      "tào": 9230,
      "vít": 9231,
      "vùi": 9232,
      "àh": 9233,
      "ño": 9234,
      "ờ": 9235,
      "ст": 9236,
      "ỡi": 9237,
      "ngâm": 9238,
      "nhọc": 9239,
      "trọ": 9240,
      "trút": 9241,
      "khon": 9242,
      "khải": 9243,
      "gib": 9244,
      "gien": 9245,
      "cáu": 9246,
      "quil": 9247,
      "quino": 9248,
      "anto": 9249,
      "andor": 9250,
      "đãng": 9251,
      "raine": 9252,
      "salon": 9253,
      "satsu": 9254,
      "hotep": 9255,
      "arus": 9256,
      "arena": 9257,
      "amen": 9258,
      "contro": 9259,
      "logan": 9260,
      "alzhe": 9261,
      "saul": 9262,
      "diêm": 9263,
      "dish": 9264,
      "rion": 9265,
      "ritu": 9266,
      "ribo": 9267,
      "riley": 9268,
      "rous": 9269,
      "rober": 9270,
      "roberto": 9271,
      "bản": 9272,
      "bapti": 9273,
      "bavaria": 9274,
      "khos": 9275,
      "khoá": 9276,
      "lite": 9277,
      "maz": 9278,
      "magn": 9279,
      "mio": 9280,
      "cate": 9281,
      "sour": 9282,
      "somer": 9283,
      "hiđ": 9284,
      "dawn": 9285,
      "bok": 9286,
      "bora": 9287,
      "bana": 9288,
      "deb": 9289,
      "def": 9290,
      "dera": 9291,
      "1878": 9292,
      "1832": 9293,
      "biến": 9294,
      "nixon": 9295,
      "tự": 9296,
      "mour": 9297,
      "molly": 9298,
      "lydia": 9299,
      "pepti": 9300,
      "noah": 9301,
      "tane": 9302,
      "gata": 9303,
      "hành": 9304,
      "happy": 9305,
      "pier": 9306,
      "jou": 9307,
      "dụng": 9308,
      "care": 9309,
      "carson": 9310,
      "170": 9311,
      "ket": 9312,
      "vet": 9313,
      "vez": 9314,
      "xiv": 9315,
      "rut": 9316,
      "parthia": 9317,
      "heim": 9318,
      "jaco": 9319,
      "adelai": 9320,
      "said": 9321,
      "project": 9322,
      "albums": 9323,
      "ett": 9324,
      "ventus": 9325,
      "franco": 9326,
      "span": 9327,
      "troit": 9328,
      "russian": 9329,
      "corp": 9330,
      "bonnie": 9331,
      "297": 9332,
      "hamas": 9333,
      "hampton": 9334,
      "britan": 9335,
      "webb": 9336,
      "garcia": 9337,
      "panzer": 9338,
      "scofield": 9339,
      "portland": 9340,
      "tree": 9341,
      "calvin": 9342,
      "photo": 9343,
      "karen": 9344,
      "lene": 9345,
      "1904": 9346,
      "year": 9347,
      "airways": 9348,
      "prix": 9349,
      "price": 9350,
      "7913": 9351,
      "1861": 9352,
      "1862": 9353,
      "1888": 9354,
      "player": 9355,
      "hangul": 9356,
      "doug": 9357,
      "stream": 9358,
      "nairobi": 9359,
      "hunt": 9360,
      "gloria": 9361,
      "zambique": 9362,
      "himalaya": 9363,
      "bolshevik": 9364,
      "lloyd": 9365,
      "marathon": 9366,
      "atlantic": 9367,
      "scien": 9368,
      "summer": 9369,
      "hussein": 9370,
      "felix": 9371,
      "joshua": 9372,
      "productions": 9373,
      "silesia": 9374,
      "about": 9375,
      "second": 9376,
      "nicholas": 9377,
      "hợp": 9378,
      "lắm": 9379,
      "tehran": 9380,
      "divisione": 9381,
      "baroque": 9382,
      "bohemia": 9383,
      "konstantin": 9384,
      "damascus": 9385,
      "paralympic": 9386,
      "alzheimer": 9387,
      "apo": 9388,
      "abe": 9389,
      "apar": 9390,
      "bôi": 9391,
      "bung": 9392,
      "băn": 9393,
      "búa": 9394,
      "càn": 9395,
      "cca": 9396,
      "cly": 9397,
      "cbs": 9398,
      "diều": 9399,
      "dượng": 9400,
      "epi": 9401,
      "găng": 9402,
      "iwa": 9403,
      "ipad": 9404,
      "jk": 9405,
      "jeong": 9406,
      "kay": 9407,
      "kron": 9408,
      "lăm": 9409,
      "lõm": 9410,
      "mama": 9411,
      "nc": 9412,
      "nur": 9413,
      "oan": 9414,
      "ppa": 9415,
      "rơ": 9416,
      "rầy": 9417,
      "sồi": 9418,
      "sâm": 9419,
      "scu": 9420,
      "stro": 9421,
      "tty": 9422,
      "udo": 9423,
      "ues": 9424,
      "vặn": 9425,
      "xv": 9426,
      "xao": 9427,
      "ée": 9428,
      "úm": 9429,
      "đùi": 9430,
      "thong": 9431,
      "thảy": 9432,
      "thằng": 9433,
      "khố": 9434,
      "phượng": 9435,
      "phine": 9436,
      "phot": 9437,
      "ging": 9438,
      "giống": 9439,
      "quạ": 9440,
      "anim": 9441,
      "tah": 9442,
      "tài": 9443,
      "onic": 9444,
      "race": 9445,
      "tiva": 9446,
      "tính": 9447,
      "saba": 9448,
      "hori": 9449,
      "ind": 9450,
      "inde": 9451,
      "arc": 9452,
      "emmy": 9453,
      "amar": 9454,
      "lom": 9455,
      "lois": 9456,
      "aly": 9457,
      "alam": 9458,
      "alps": 9459,
      "tosh": 9460,
      "bịch": 9461,
      "cope": 9462,
      "quyền": 9463,
      "vista": 9464,
      "viking": 9465,
      "bak": 9466,
      "ort": 9467,
      "khoăn": 9468,
      "leban": 9469,
      "level": 9470,
      "tuyệt": 9471,
      "major": 9472,
      "mix": 9473,
      "buff": 9474,
      "tek": 9475,
      "sophia": 9476,
      "sofia": 9477,
      "date": 9478,
      "detroit": 9479,
      "tern": 9480,
      "102": 9481,
      "suri": 9482,
      "kil": 9483,
      "thou": 9484,
      "cef": 9485,
      "nifer": 9486,
      "kath": 9487,
      "kato": 9488,
      "marvel": 9489,
      "mozambique": 9490,
      "ghề": 9491,
      "koku": 9492,
      "gov": 9493,
      "gothic": 9494,
      "125": 9495,
      "128": 9496,
      "petr": 9497,
      "gái": 9498,
      "berger": 9499,
      "joo": 9500,
      "joan": 9501,
      "152": 9502,
      "hye": 9503,
      "carlo": 9504,
      "carri": 9505,
      "watt": 9506,
      "forest": 9507,
      "santos": 9508,
      "edes": 9509,
      "edia": 9510,
      "saipan": 9511,
      "bari": 9512,
      "aleks": 9513,
      "timore": 9514,
      "luyến": 9515,
      "hari": 9516,
      "haru": 9517,
      "spino": 9518,
      "merce": 9519,
      "7869": 9520,
      "trọng": 9521,
      "trotsky": 9522,
      "maine": 9523,
      "juventus": 9524,
      "ff1000": 9525,
      "compu": 9526,
      "della": 9527,
      "grace": 9528,
      "winston": 9529,
      "chói": 9530,
      "wallace": 9531,
      "iden": 9532,
      "jiro": 9533,
      "ports": 9534,
      "geoff": 9535,
      "penic": 9536,
      "baltimore": 9537,
      "phòng": 9538,
      "action": 9539,
      "brun": 9540,
      "ners": 9541,
      "vince": 9542,
      "bledon": 9543,
      "sheeran": 9544,
      "drake": 9545,
      "1891": 9546,
      "1894": 9547,
      "iowa": 9548,
      "1867": 9549,
      "philippine": 9550,
      "software": 9551,
      "sels": 9552,
      "ệnh": 9553,
      "platin": 9554,
      "singer": 9555,
      "andrea": 9556,
      "cript": 9557,
      "praha": 9558,
      "venezia": 9559,
      "jesse": 9560,
      "tớ": 9561,
      "augusta": 9562,
      "ashley": 9563,
      "bundes": 9564,
      "official": 9565,
      "beatles": 9566,
      "takeda": 9567,
      "systems": 9568,
      "crystal": 9569,
      "region": 9570,
      "korea": 9571,
      "spartacus": 9572,
      "gregory": 9573,
      "laptop": 9574,
      "brussels": 9575,
      "sicily": 9576,
      "nitrat": 9577,
      "columbus": 9578,
      "pacific": 9579,
      "turkmenistan": 9580,
      "3chff1000": 9581,
      "andorra": 9582,
      "adelaide": 9583,
      "210": 9584,
      "550": 9585,
      "850": 9586,
      "án": 9587,
      "b2": 9588,
      "bừa": 9589,
      "bala": 9590,
      "còng": 9591,
      "cell": 9592,
      "dz": 9593,
      "dừa": 9594,
      "dron": 9595,
      "fru": 9596,
      "ffa": 9597,
      "gớm": 9598,
      "hō": 9599,
      "hima": 9600,
      "h2o": 9601,
      "ier": 9602,
      "kiều": 9603,
      "lm": 9604,
      "np": 9605,
      "nít": 9606,
      "ous": 9607,
      "orange": 9608,
      "ròng": 9609,
      "tl": 9610,
      "tập": 9611,
      "tweet": 9612,
      "wr": 9613,
      "wong": 9614,
      "when": 9615,
      "yus": 9616,
      "zcz": 9617,
      "}\\": 9618,
      "đả": 9619,
      "đao": 9620,
      "đuốc": 9621,
      "đất": 9622,
      "điếc": 9623,
      "nhẽ": 9624,
      "thét": 9625,
      "thặng": 9626,
      "thẹn": 9627,
      "chậu": 9628,
      "chro": 9629,
      "trơ": 9630,
      "trọt": 9631,
      "trino": 9632,
      "khong": 9633,
      "khắt": 9634,
      "phai": 9635,
      "phat": 9636,
      "gina": 9637,
      "củi": 9638,
      "ượm": 9639,
      "annie": 9640,
      "tale": 9641,
      "tash": 9642,
      "tamil": 9643,
      "rao": 9644,
      "tình": 9645,
      "sap": 9646,
      "salt": 9647,
      "ayut": 9648,
      "hok": 9649,
      "hold": 9650,
      "ember": 9651,
      "amur": 9652,
      "enni": 9653,
      "alma": 9654,
      "algeria": 9655,
      "domini": 9656,
      "ias": 9657,
      "theory": 9658,
      "vị": 9659,
      "vius": 9660,
      "vistu": 9661,
      "bagh": 9662,
      "khó": 9663,
      "lius": 9664,
      "liberia": 9665,
      "macar": 9666,
      "make": 9667,
      "mingham": 9668,
      "rex": 9669,
      "rett": 9670,
      "rebecca": 9671,
      "never": 9672,
      "boa": 9673,
      "boro": 9674,
      "bola": 9675,
      "nas": 9676,
      "napoli": 9677,
      "thaya": 9678,
      "104": 9679,
      "108": 9680,
      "1812": 9681,
      "1840": 9682,
      "1849": 9683,
      "sura": 9684,
      "sulu": 9685,
      "sulli": 9686,
      "shim": 9687,
      "mose": 9688,
      "modu": 9689,
      "lance": 9690,
      "gogh": 9691,
      "thiền": 9692,
      "peg": 9693,
      "mans": 9694,
      "gaz": 9695,
      "đối": 9696,
      "đội": 9697,
      "guard": 9698,
      "carmen": 9699,
      "carol": 9700,
      "sử": 9701,
      "sưng": 9702,
      "human": 9703,
      "rug": 9704,
      "rubi": 9705,
      "perth": 9706,
      "musa": 9707,
      "oslo": 9708,
      "tsk": 9709,
      "tsch": 9710,
      "stadt": 9711,
      "jah": 9712,
      "trix": 9713,
      "torres": 9714,
      "bổn": 9715,
      "spen": 9716,
      "oklaho": 9717,
      "7885": 9718,
      "7891": 9719,
      "icus": 9720,
      "cyclo": 9721,
      "warren": 9722,
      "280": 9723,
      "beni": 9724,
      "260": 9725,
      "yorkshire": 9726,
      "hamburg": 9727,
      "brid": 9728,
      "britain": 9729,
      "belarus": 9730,
      "jee": 9731,
      "sene": 9732,
      "xoá": 9733,
      "serge": 9734,
      "líu": 9735,
      "youth": 9736,
      "stress": 9737,
      "turn": 9738,
      "turin": 9739,
      "schwar": 9740,
      "jeremy": 9741,
      "charleston": 9742,
      "1892": 9743,
      "sterone": 9744,
      "break": 9745,
      "dallas": 9746,
      "louise": 9747,
      "louisiana": 9748,
      "bourbon": 9749,
      "gins": 9750,
      "english": 9751,
      "physi": 9752,
      "gain": 9753,
      "plex": 9754,
      "jorge": 9755,
      "wonder": 9756,
      "truồng": 9757,
      "caracas": 9758,
      "julius": 9759,
      "birmingham": 9760,
      "nicole": 9761,
      "jennifer": 9762,
      "mauritius": 9763,
      "heroin": 9764,
      "robinson": 9765,
      "underwood": 9766,
      "moldova": 9767,
      "abdullah": 9768,
      "whitney": 9769,
      "keith": 9770,
      "adolf": 9771,
      "evans": 9772,
      "bristol": 9773,
      "hughes": 9774,
      "iucn": 9775,
      "storm": 9776,
      "xịt": 9777,
      "caribbean": 9778,
      "people": 9779,
      "fighter": 9780,
      "industries": 9781,
      "lombard": 9782,
      "fantasy": 9783,
      "khrushchev": 9784,
      "honduras": 9785,
      "lebanon": 9786,
      "ayutthaya": 9787,
      "vistula": 9788,
      "oklahoma": 9789,
      "118": 9790,
      "ater": 9791,
      "age": 9792,
      "cv": 9793,
      "cand": 9794,
      "cun": 9795,
      "cester": 9796,
      "cloud": 9797,
      "dau": 9798,
      "dry": 9799,
      "dẫu": 9800,
      "dana": 9801,
      "eum": 9802,
      "fay": 9803,
      "gm": 9804,
      "gwang": 9805,
      "hí": 9806,
      "hra": 9807,
      "hức": 9808,
      "hmm": 9809,
      "ire": 9810,
      "iris": 9811,
      "jil": 9812,
      "lườn": 9813,
      "lượm": 9814,
      "miên": 9815,
      "mbo": 9816,
      "myo": 9817,
      "male": 9818,
      "méo": 9819,
      "nsa": 9820,
      "plor": 9821,
      "rf": 9822,
      "rk": 9823,
      "rn": 9824,
      "rr": 9825,
      "rà": 9826,
      "rành": 9827,
      "rước": 9828,
      "rạch": 9829,
      "remi": 9830,
      "rụi": 9831,
      "rgs": 9832,
      "strai": 9833,
      "scy": 9834,
      "uv": 9835,
      "vảy": 9836,
      "vựng": 9837,
      "wroc": 9838,
      "xp": 9839,
      "yến": 9840,
      "zay": 9841,
      "}{": 9842,
      "đái": 9843,
      "đặn": 9844,
      "đéo": 9845,
      "̣y": 9846,
      "ов": 9847,
      "ỡng": 9848,
      "ngó": 9849,
      "nhút": 9850,
      "thé": 9851,
      "thềm": 9852,
      "thốn": 9853,
      "chong": 9854,
      "chật": 9855,
      "phồng": 9856,
      "giêng": 9857,
      "anda": 9858,
      "taro": 9859,
      "tali": 9860,
      "onia": 9861,
      "raj": 9862,
      "raven": 9863,
      "tig": 9864,
      "tial": 9865,
      "tiến": 9866,
      "saf": 9867,
      "sak": 9868,
      "sat": 9869,
      "sách": 9870,
      "sabah": 9871,
      "hotel": 9872,
      "inn": 9873,
      "arn": 9874,
      "amber": 9875,
      "connec": 9876,
      "phách": 9877,
      "2021": 9878,
      "alt": 9879,
      "alli": 9880,
      "saudi": 9881,
      "diamon": 9882,
      "diễn": 9883,
      "cox": 9884,
      "cora": 9885,
      "cover": 9886,
      "giá": 9887,
      "rider": 9888,
      "rihanna": 9889,
      "lara": 9890,
      "ludwi": 9891,
      "lẽ": 9892,
      "lead": 9893,
      "leeds": 9894,
      "mako": 9895,
      "matsu": 9896,
      "case": 9897,
      "teng": 9898,
      "teau": 9899,
      "hing": 9900,
      "hayes": 9901,
      "nep": 9902,
      "bốt": 9903,
      "nash": 9904,
      "dehy": 9905,
      "devil": 9906,
      "chie": 9907,
      "ching": 9908,
      "chiang": 9909,
      "1820": 9910,
      "sui": 9911,
      "kiếm": 9912,
      "kaze": 9913,
      "marta": 9914,
      "mode": 9915,
      "ghton": 9916,
      "lannis": 9917,
      "koi": 9918,
      "gow": 9919,
      "thebes": 9920,
      "lyon": 9921,
      "123": 9922,
      "novo": 9923,
      "curi": 9924,
      "trả": 9925,
      "halo": 9926,
      "havana": 9927,
      "nguội": 9928,
      "pius": 9929,
      "hyund": 9930,
      "gul": 9931,
      "pers": 9932,
      "stella": 9933,
      "hex": 9934,
      "jakarta": 9935,
      "adri": 9936,
      "kum": 9937,
      "kut": 9938,
      "less": 9939,
      "zara": 9940,
      "mendes": 9941,
      "272": 9942,
      "chez": 9943,
      "chech": 9944,
      "gano": 9945,
      "mycin": 9946,
      "woman": 9947,
      "fol": 9948,
      "vani": 9949,
      "graf": 9950,
      "fede": 9951,
      "songs": 9952,
      "server": 9953,
      "service": 9954,
      "elip": 9955,
      "penny": 9956,
      "teddy": 9957,
      "greg": 9958,
      "zione": 9959,
      "georges": 9960,
      "collins": 9961,
      "lenin": 9962,
      "đẹp": 9963,
      "full": 9964,
      "stru": 9965,
      "galli": 9966,
      "starling": 9967,
      "borg": 9968,
      "business": 9969,
      "gorba": 9970,
      "zilla": 9971,
      "simp": 9972,
      "aragon": 9973,
      "1864": 9974,
      "athle": 9975,
      "agle": 9976,
      "lỗi": 9977,
      "hallo": 9978,
      "blues": 9979,
      "cacbonat": 9980,
      "cury": 9981,
      "clarke": 9982,
      "scandina": 9983,
      "duncan": 9984,
      "cations": 9985,
      "glasgow": 9986,
      "00000000": 9987,
      "valencia": 9988,
      "betty": 9989,
      "rogers": 9990,
      "marketing": 9991,
      "sherman": 9992,
      "rolling": 9993,
      "scarlett": 9994,
      "dhabi": 9995,
      "constantinus": 9996,
      "front": 9997,
      "pseudo": 9998,
      "glucose": 9999
    },
    "merges": [
      [
        "n",
        "g"
      ],
      [
        "n",
        "h"
      ],
      [
        "e",
        "o"
      ],
      [
        "eo",
        "s"
      ],
      [
        "t",
        "h"
      ],
      [
        "c",
        "h"
      ],
      [
        "t",
        "r"
      ],
      [
        "k",
        "h"
      ],
      [
        "v",
        "à"
      ],
      [
        "p",
        "h"
      ],
      [
        "ô",
        "ng"
      ],
      [
        "l",
        "à"
      ],
      [
        "g",
        "i"
      ],
      [
        "c",
        "ủ"
      ],
      [
        "củ",
        "a"
      ],
      [
        "ê",
        "n"
      ],
      [
        "c",
        "á"
      ],
      [
        "ộ",
        "t"
      ],
      [
        "ư",
        "ợ"
      ],
      [
        "ô",
        "i"
      ],
      [
        "m",
        "ột"
      ],
      [
        "c",
        "ó"
      ],
      [
        "i",
        "ệ"
      ],
      [
        "q",
        "u"
      ],
      [
        "i",
        "ế"
      ],
      [
        "ư",
        "ờ"
      ],
      [
        "ớ",
        "i"
      ],
      [
        "t",
        "ôi"
      ],
      [
        "a",
        "n"
      ],
      [
        "ượ",
        "c"
      ],
      [
        "đ",
        "ược"
      ],
      [
        "kh",
        "ông"
      ],
      [
        "o",
        "ng"
      ],
      [
        "ạ",
        "i"
      ],
      [
        "a",
        "nh"
      ],
      [
        "ấ",
        "t"
      ],
      [
        "t",
        "a"
      ],
      [
        "à",
        "y"
      ],
      [
        "tr",
        "ong"
      ],
      [
        "cá",
        "c"
      ],
      [
        "đ",
        "ã"
      ],
      [
        "u",
        "y"
      ],
      [
        "ườ",
        "i"
      ],
      [
        "n",
        "ă"
      ],
      [
        "o",
        "n"
      ],
      [
        "ng",
        "ười"
      ],
      [
        "n",
        "ó"
      ],
      [
        "ch",
        "o"
      ],
      [
        "r",
        "a"
      ],
      [
        "nh",
        "ư"
      ],
      [
        "t",
        "i"
      ],
      [
        "nă",
        "m"
      ],
      [
        "ch",
        "ú"
      ],
      [
        "v",
        "ới"
      ],
      [
        "đ",
        "ó"
      ],
      [
        "s",
        "a"
      ],
      [
        "đ",
        "i"
      ],
      [
        "â",
        "n"
      ],
      [
        "ì",
        "nh"
      ],
      [
        "ng",
        "h"
      ],
      [
        "ả",
        "i"
      ],
      [
        "ữ",
        "ng"
      ],
      [
        "ề",
        "u"
      ],
      [
        "nh",
        "ững"
      ],
      [
        "à",
        "nh"
      ],
      [
        "ầ",
        "n"
      ],
      [
        "ấ",
        "y"
      ],
      [
        "a",
        "i"
      ],
      [
        "chú",
        "ng"
      ],
      [
        "â",
        "y"
      ],
      [
        "n",
        "ày"
      ],
      [
        "h",
        "ọ"
      ],
      [
        "a",
        "y"
      ],
      [
        "th",
        "ể"
      ],
      [
        "h",
        "o"
      ],
      [
        "và",
        "o"
      ],
      [
        "i",
        "ên"
      ],
      [
        "e",
        "r"
      ],
      [
        "ế",
        "n"
      ],
      [
        "ầ",
        "u"
      ],
      [
        "kh",
        "i"
      ],
      [
        "ư",
        "ớ"
      ],
      [
        "a",
        "ng"
      ],
      [
        "s",
        "ẽ"
      ],
      [
        "á",
        "ng"
      ],
      [
        "t",
        "ừ"
      ],
      [
        "iế",
        "t"
      ],
      [
        "á",
        "c"
      ],
      [
        "đ",
        "ộ"
      ],
      [
        "ư",
        "ơ"
      ],
      [
        "đ",
        "ến"
      ],
      [
        "ế",
        "t"
      ],
      [
        "đ",
        "ể"
      ],
      [
        "u",
        "ố"
      ],
      [
        "i",
        "n"
      ],
      [
        "ậ",
        "t"
      ],
      [
        "là",
        "m"
      ],
      [
        "iệ",
        "n"
      ],
      [
        "a",
        "r"
      ],
      [
        "c",
        "ả"
      ],
      [
        "ự",
        "c"
      ],
      [
        "à",
        "i"
      ],
      [
        "s",
        "ự"
      ],
      [
        "e",
        "m"
      ],
      [
        "í",
        "nh"
      ],
      [
        "ả",
        "n"
      ],
      [
        "s",
        "ố"
      ],
      [
        "ướ",
        "c"
      ],
      [
        "a",
        "m"
      ],
      [
        "c",
        "ô"
      ],
      [
        "ạ",
        "n"
      ],
      [
        "e",
        "n"
      ],
      [
        "ậ",
        "n"
      ],
      [
        "ờ",
        "i"
      ],
      [
        "ằ",
        "ng"
      ],
      [
        "ườ",
        "ng"
      ],
      [
        "ươ",
        "ng"
      ],
      [
        "ph",
        "ải"
      ],
      [
        "c",
        "on"
      ],
      [
        "ứ",
        "c"
      ],
      [
        "iế",
        "n"
      ],
      [
        "th",
        "ành"
      ],
      [
        "a",
        "o"
      ],
      [
        "ơ",
        "n"
      ],
      [
        "v",
        "ề"
      ],
      [
        "ph",
        "á"
      ],
      [
        "i",
        "nh"
      ],
      [
        "l",
        "o"
      ],
      [
        "1",
        "9"
      ],
      [
        "â",
        "u"
      ],
      [
        "2",
        "0"
      ],
      [
        "đ",
        "ầu"
      ],
      [
        "a",
        "l"
      ],
      [
        "u",
        "ng"
      ],
      [
        "ù",
        "ng"
      ],
      [
        "th",
        "ế"
      ],
      [
        "à",
        "n"
      ],
      [
        "ề",
        "n"
      ],
      [
        "ậ",
        "p"
      ],
      [
        "t",
        "ại"
      ],
      [
        "i",
        "ể"
      ],
      [
        "th",
        "áng"
      ],
      [
        "t",
        "o"
      ],
      [
        "m",
        "à"
      ],
      [
        "v",
        "iệ"
      ],
      [
        "đ",
        "ây"
      ],
      [
        "c",
        "ũ"
      ],
      [
        "g",
        "ì"
      ],
      [
        "nó",
        "i"
      ],
      [
        "ố",
        "c"
      ],
      [
        "ch",
        "uy"
      ],
      [
        "ng",
        "ày"
      ],
      [
        "như",
        "ng"
      ],
      [
        "ố",
        "i"
      ],
      [
        "l",
        "ại"
      ],
      [
        "b",
        "ị"
      ],
      [
        "ộ",
        "c"
      ],
      [
        "c",
        "ông"
      ],
      [
        "việ",
        "c"
      ],
      [
        "d",
        "o"
      ],
      [
        "à",
        "ng"
      ],
      [
        "cũ",
        "ng"
      ],
      [
        "b",
        "iết"
      ],
      [
        "sa",
        "u"
      ],
      [
[...]
