{
  "version": "1.0",
  "truncation": null,
  "padding": null,
  "added_tokens": [
    {
      "id": 0,
      "content": "<pad>",
      "single_word": false,
      "lstrip": false,
      "rstrip": false,
      "normalized": false,
      "special": true
    },
    {
      "id": 1,
      "content": "<bos>",
      "single_word": false,
      "lstrip": false,
      "rstrip": false,
      "normalized": false,
      "special": true
    },
    {
      "id": 2,
      "content": "<eos>",
      "single_word": false,
      "lstrip": false,
      "rstrip": false,
      "normalized": false,
      "special": true
    },
    {
      "id": 3,
      "content": "<unk>",
      "single_word": false,
      "lstrip": false,
      "rstrip": false,
      "normalized": false,
      "special": true
    }
  ],
  "normalizer": null,
  "pre_tokenizer": {
    "type": "Whitespace"
  },
  "post_processor": null,
  "decoder": null,
  "model": {
    "type": "BPE",
    "dropout": null,
    "unk_token": "<unk>",
    "continuing_subword_prefix": null,
    "end_of_word_suffix": null,
    "fuse_unk": false,
    "byte_fallback": false,
    "ignore_merges": false,
    "vocab": {
      "<pad>": 0,
      "<bos>": 1,
      "<eos>": 2,
      "<unk>": 3,
      "!": 4,
      "\"": 5,
      "$": 6,
      "%": 7,
      "&": 8,
      "'": 9,
      "+": 10,
      ",": 11,
      "-": 12,
      ".": 13,
      "/": 14,
      "0": 15,
      "1": 16,
      "2": 17,
      "3": 18,
      "4": 19,
      "5": 20,
      "6": 21,
      "7": 22,
      "8": 23,
      "9": 24,
      ":": 25,
      ";": 26,
      "<": 27,
      ">": 28,
      "?": 29,
      "a": 30,
      "b": 31,
      "c": 32,
      "d": 33,
      "e": 34,
      "f": 35,
      "g": 36,
      "h": 37,
      "i": 38,
      "j": 39,
      "k": 40,
      "l": 41,
      "m": 42,
      "n": 43,
      "o": 44,
      "p": 45,
      "q": 46,
      "r": 47,
      "s": 48,
      "t": 49,
      "u": 50,
      "v": 51,
      "w": 52,
      "x": 53,
      "y": 54,
      "z": 55,
      "¥": 56,
      "°": 57,
      "º": 58,
      "à": 59,
      "á": 60,
      "â": 61,
      "ã": 62,
      "ç": 63,
      "è": 64,
      "é": 65,
      "ê": 66,
      "ì": 67,
      "í": 68,
      "ò": 69,
      "ó": 70,
      "ô": 71,
      "õ": 72,
      "ù": 73,
      "ú": 74,
      "ü": 75,
      "ý": 76,
      "ă": 77,
      "č": 78,
      "đ": 79,
      "ĩ": 80,
      "ũ": 81,
      "ơ": 82,
      "ư": 83,
      "̉": 84,
      "̣": 85,
      "̀": 86,
      "а": 87,
      "ạ": 88,
      "ả": 89,
      "ấ": 90,
      "ầ": 91,
      "ẩ": 92,
      "ẫ": 93,
      "ậ": 94,
      "ắ": 95,
      "ằ": 96,
      "ẳ": 97,
      "ẵ": 98,
      "ặ": 99,
      "ẹ": 100,
      "ẻ": 101,
      "ẽ": 102,
      "ế": 103,
      "ề": 104,
      "ể": 105,
      "ễ": 106,
      "ệ": 107,
      "ỉ": 108,
      "ị": 109,
      "ọ": 110,
      "ỏ": 111,
      "ố": 112,
      "ồ": 113,
      "ổ": 114,
      "ỗ": 115,
      "ộ": 116,
      "ớ": 117,
      "ờ": 118,
      "ở": 119,
      "ỡ": 120,
      "ợ": 121,
      "ụ": 122,
      "ủ": 123,
      "ứ": 124,
      "ừ": 125,
      "ử": 126,
      "ữ": 127,
      "ự": 128,
      "ỳ": 129,
      "ỵ": 130,
      "ỷ": 131,
      "ỹ": 132,
      "₂": 133,
      "€": 134,
      "❤": 135,
      "️": 136,
      "🌷": 137,
      "🌹": 138,
      "ng": 139,
      "eo": 140,
      "eos": 141,
      "nh": 142,
      "ôi": 143,
      "tôi": 144,
      "ch": 145,
      "th": 146,
      "kh": 147,
      "ông": 148,
      "ạn": 149,
      "bạn": 150,
      "to": 151,
      "không": 152,
      "tom": 153,
      "tr": 154,
      "là": 155,
      "có": 156,
      "ột": 157,
      "một": 158,
      "đã": 159,
      "anh": 160,
      "ấy": 161,
      "gi": 162,
      "ph": 163,
      "ủa": 164,
      "của": 165,
      "nó": 166,
      "đi": 167,
      "iế": 168,
      "ời": 169,
      "ên": 170,
      "chú": 171,
      "ất": 172,
      "ới": 173,
      "uố": 174,
      "chúng": 175,
      "sẽ": 176,
      "ều": 177,
      "đó": 178,
      "thể": 179,
      "và": 180,
      "ày": 181,
      "làm": 182,
      "với": 183,
      "ta": 184,
      "qu": 185,
      "nói": 186,
      "gì": 187,
      "cho": 188,
      "ngh": 189,
      "iệ": 190,
      "ại": 191,
      "ến": 192,
      "uốn": 193,
      "ang": 194,
      "ải": 195,
      "cô": 196,
      "ười": 197,
      "ai": 198,
      "ong": 199,
      "đến": 200,
      "iết": 201,
      "đư": 202,
      "họ": 203,
      "cá": 204,
      "ây": 205,
      "muốn": 206,
      "uy": 207,
      "này": 208,
      "ần": 209,
      "điều": 210,
      "trong": 211,
      "người": 212,
      "để": 213,
      "ao": 214,
      "đang": 215,
      "phải": 216,
      "ằng": 217,
      "ình": 218,
      "ma": 219,
      "biết": 220,
      "ững": 221,
      "cả": 222,
      "những": 223,
      "mar": 224,
      "mary": 225,
      "ợc": 226,
      "ay": 227,
      "được": 228,
      "khi": 229,
      "như": 230,
      "ra": 231,
      "về": 232,
      "nghĩ": 233,
      "rằng": 234,
      "vào": 235,
      "ướ": 236,
      "rất": 237,
      "an": 238,
      "ti": 239,
      "nhi": 240,
      "giờ": 241,
      "tố": 242,
      "ết": 243,
      "ơn": 244,
      "ăn": 245,
      "ật": 246,
      "đây": 247,
      "thấy": 248,
      "ước": 249,
      "ơi": 250,
      "iệc": 251,
      "mình": 252,
      "ào": 253,
      "ận": 254,
      "ích": 255,
      "àn": 256,
      "ờng": 257,
      "âu": 258,
      "ầu": 259,
      "nhà": 260,
      "xe": 261,
      "ỏi": 262,
      "sự": 263,
      "bị": 264,
      "số": 265,
      "việc": 266,
      "on": 267,
      "ài": 268,
      "nào": 269,
      "nhiều": 270,
      "lại": 271,
      "từ": 272,
      "thích": 273,
      "ành": 274,
      "sá": 275,
      "tiế": 276,
      "au": 277,
      "chuy": 278,
      "ọi": 279,
      "ngày": 280,
      "ức": 281,
      "ện": 282,
      "ác": 283,
      "àng": 284,
      "tốt": 285,
      "hơn": 286,
      "ắt": 287,
      "con": 288,
      "ăm": 289,
      "bao": 290,
      "nên": 291,
      "ho": 292,
      "ực": 293,
      "ường": 294,
      "òng": 295,
      "chỉ": 296,
      "êu": 297,
      "cần": 298,
      "ân": 299,
      "ưa": 300,
      "ữa": 301,
      "cái": 302,
      "học": 303,
      "ôn": 304,
      "ền": 305,
      "công": 306,
      "uộ": 307,
      "tại": 308,
      "ừng": 309,
      "úc": 310,
      "áo": 311,
      "ái": 312,
      "iể": 313,
      "tiếng": 314,
      "ắng": 315,
      "chiế": 316,
      "trên": 317,
      "iên": 318,
      "ấn": 319,
      "sao": 320,
      "ảy": 321,
      "úp": 322,
      "thực": 323,
      "qua": 324,
      "ếu": 325,
      "thế": 326,
      "ắc": 327,
      "trước": 328,
      "chuyện": 329,
      "inh": 330,
      "đầu": 331,
      "đề": 332,
      "uộc": 333,
      "ổi": 334,
      "thời": 335,
      "giúp": 336,
      "nếu": 337,
      "ối": 338,
      "phá": 339,
      "ửa": 340,
      "mọi": 341,
      "ặp": 342,
      "thứ": 343,
      "các": 344,
      "tất": 345,
      "thành": 346,
      "hỏi": 347,
      "thật": 348,
      "ỗi": 349,
      "bất": 350,
      "đá": 351,
      "ặt": 352,
      "gặp": 353,
      "ản": 354,
      "vì": 355,
      "cảm": 356,
      "ắn": 357,
      "tin": 358,
      "lu": 359,
      "sống": 360,
      "ui": 361,
      "iện": 362,
      "bắt": 363,
      "năm": 364,
      "khó": 365,
      "ồi": 366,
      "ìn": 367,
      "chưa": 368,
      "độ": 369,
      "ọng": 370,
      "nhất": 371,
      "ượ": 372,
      "nay": 373,
      "cứ": 374,
      "nhìn": 375,
      "nghe": 376,
      "ùng": 377,
      "yêu": 378,
      "in": 379,
      "ậy": 380,
      "ngo": 381,
      "lớ": 382,
      "xảy": 383,
      "tiền": 384,
      "gian": 385,
      "ạnh": 386,
      "tu": 387,
      "ìm": 388,
      "ôm": 389,
      "ua": 390,
      "uống": 391,
      "ập": 392,
      "mà": 393,
      "vui": 394,
      "đừng": 395,
      "hã": 396,
      "cuộc": 397,
      "ính": 398,
      "khác": 399,
      "tìm": 400,
      "chiếc": 401,
      "quá": 402,
      "vấn": 403,
      "ăng": 404,
      "hôm": 405,
      "nhận": 406,
      "hai": 407,
      "hãy": 408,
      "trở": 409,
      "ươ": 410,
      "câu": 411,
      "đồ": 412,
      "ương": 413,
      "phòng": 414,
      "ạc": 415,
      "ba": 416,
      "đị": 417,
      "quy": 418,
      "viên": 419,
      "lên": 420,
      "chơi": 421,
      "cách": 422,
      "tự": 423,
      "sau": 424,
      "ẫn": 425,
      "án": 426,
      "êm": 427,
      "lời": 428,
      "mua": 429,
      "áy": 430,
      "sách": 431,
      "bu": 432,
      "nhưng": 433,
      "ung": 434,
      "bằng": 435,
      "âm": 436,
      "hiể": 437,
      "hàng": 438,
      "ội": 439,
      "cùng": 440,
      "đâu": 441,
      "bây": 442,
      "quan": 443,
      "tối": 444,
      "lo": 445,
      "cửa": 446,
      "òn": 447,
      "cố": 448,
      "xem": 449,
      "chắc": 450,
      "xin": 451,
      "lớn": 452,
      "nhau": 453,
      "lần": 454,
      "lúc": 455,
      "khá": 456,
      "định": 457,
      "ợi": 458,
      "ấu": 459,
      "ảo": 460,
      "ục": 461,
      "theo": 462,
      "bo": 463,
      "vậy": 464,
      "pháp": 465,
      "út": 466,
      "mới": 467,
      "gọi": 468,
      "nữa": 469,
      "en": 470,
      "ặc": 471,
      "còn": 472,
      "lòng": 473,
      "ngoài": 474,
      "ưở": 475,
      "ton": 476,
      "ngay": 477,
      "trả": 478,
      "nước": 479,
      "úng": 480,
      "khỏi": 481,
      "sinh": 482,
      "ống": 483,
      "trẻ": 484,
      "tay": 485,
      "ưởng": 486,
      "thường": 487,
      "át": 488,
      "luôn": 489,
      "cũ": 490,
      "ngủ": 491,
      "tuy": 492,
      "ứng": 493,
      "mất": 494,
      "mẹ": 495,
      "cầu": 496,
      "gia": 497,
      "bỏ": 498,
      "bản": 499,
      "uối": 500,
      "nhật": 501,
      "cuốn": 502,
      "ston": 503,
      "boston": 504,
      "hoàn": 505,
      "đưa": 506,
      "ọc": 507,
      "ệt": 508,
      "bộ": 509,
      "bữa": 510,
      "vẻ": 511,
      "gái": 512,
      "ấp": 513,
      "kho": 514,
      "đường": 515,
      "máy": 516,
      "bài": 517,
      "rời": 518,
      "quyết": 519,
      "chi": 520,
      "lỗi": 521,
      "trường": 522,
      "kết": 523,
      "đợi": 524,
      "sáng": 525,
      "ẹp": 526,
      "uốc": 527,
      "em": 528,
      "vẫn": 529,
      "lý": 530,
      "chắn": 531,
      "hiểu": 532,
      "ụng": 533,
      "hiện": 534,
      "lấy": 535,
      "giá": 536,
      "kỳ": 537,
      "gh": 538,
      "ánh": 539,
      "trai": 540,
      "vọng": 541,
      "động": 542,
      "tho": 543,
      "gắng": 544,
      "ạy": 545,
      "ớm": 546,
      "ầm": 547,
      "chính": 548,
      "sớm": 549,
      "nơi": 550,
      "cuối": 551,
      "do": 552,
      "đàn": 553,
      "tuần": 554,
      "ọn": 555,
      "đồng": 556,
      "àu": 557,
      "tâm": 558,
      "ẩn": 559,
      "đọc": 560,
      "đánh": 561,
      "gần": 562,
      "trời": 563,
      "am": 564,
      "đúng": 565,
      "ứa": 566,
      "óng": 567,
      "đẹp": 568,
      "dự": 569,
      "mai": 570,
      "ắm": 571,
      "thu": 572,
      "toàn": 573,
      "giải": 574,
      "ảnh": 575,
      "đặt": 576,
      "thức": 577,
      "ịch": 578,
      "cha": 579,
      "thư": 580,
      "dụng": 581,
      "mặt": 582,
      "hoạ": 583,
      "hôn": 584,
      "chết": 585,
      "im": 586,
      "bố": 587,
      "ét": 588,
      "ngồi": 589,
      "đều": 590,
      "ừa": 591,
      "lắng": 592,
      "giữ": 593,
      "vài": 594,
      "sai": 595,
      "mỗi": 596,
      "iến": 597,
      "cũng": 598,
      "phí": 599,
      "bé": 600,
      "ồn": 601,
      "tên": 602,
      "xuống": 603,
      "đỡ": 604,
      "viết": 605,
      "bảo": 606,
      "tưởng": 607,
      "áng": 608,
      "tức": 609,
      "ít": 610,
      "nhớ": 611,
      "iệt": 612,
      "đủ": 613,
      "trông": 614,
      "ển": 615,
      "cây": 616,
      "sĩ": 617,
      "giáo": 618,
      "ạo": 619,
      "báo": 620,
      "hy": 621,
      "sử": 622,
      "trọng": 623,
      "đêm": 624,
      "ệnh": 625,
      "điện": 626,
      "ợp": 627,
      "chút": 628,
      "iệu": 629,
      "ảng": 630,
      "thông": 631,
      "cao": 632,
      "uyên": 633,
      "hợp": 634,
      "chó": 635,
      "hành": 636,
      "óc": 637,
      "di": 638,
      "tuổi": 639,
      "lâu": 640,
      "nhân": 641,
      "tiếp": 642,
      "thị": 643,
      "sợ": 644,
      "tàu": 645,
      "nhiêu": 646,
      "kế": 647,
      "đối": 648,
      "mặc": 649,
      "nhanh": 650,
      "tập": 651,
      "ùa": 652,
      "trung": 653,
      "ậu": 654,
      "nghỉ": 655,
      "thay": 656,
      "bên": 657,
      "cảnh": 658,
      "ắp": 659,
      "tuyệt": 660,
      "bận": 661,
      "iệm": 662,
      "tình": 663,
      "chạy": 664,
      "hết": 665,
      "ạm": 666,
      "vụ": 667,
      "tháng": 668,
      "nhiên": 669,
      "ượng": 670,
      "hay": 671,
      "cơ": 672,
      "chiến": 673,
      "xu": 674,
      "hoạch": 675,
      "ởi": 676,
      "chị": 677,
      "hạnh": 678,
      "ặng": 679,
      "chủ": 680,
      "từng": 681,
      "mở": 682,
      "bay": 683,
      "phát": 684,
      "giả": 685,
      "chăm": 686,
      "mang": 687,
      "bệnh": 688,
      "phúc": 689,
      "bàn": 690,
      "mưa": 691,
      "ngôi": 692,
      "tiệc": 693,
      "òa": 694,
      "ổn": 695,
      "cười": 696,
      "mười": 697,
      "iếm": 698,
      "nghi": 699,
      "hội": 700,
      "úi": 701,
      "thương": 702,
      "đôi": 703,
      "la": 704,
      "bóng": 705,
      "dễ": 706,
      "thuốc": 707,
      "sát": 708,
      "vị": 709,
      "giới": 710,
      "phụ": 711,
      "ượt": 712,
      "kiể": 713,
      "đáng": 714,
      "lẽ": 715,
      "nhạc": 716,
      "đổi": 717,
      "èo": 718,
      "hình": 719,
      "bánh": 720,
      "dài": 721,
      "ốc": 722,
      "bơi": 723,
      "đơn": 724,
      "buổi": 725,
      "thuy": 726,
      "đại": 727,
      "lái": 728,
      "năng": 729,
      "lạnh": 730,
      "đứa": 731,
      "khách": 732,
      "cà": 733,
      "mong": 734,
      "chí": 735,
      "tranh": 736,
      "nhỏ": 737,
      "ri": 738,
      "kiểm": 739,
      "màu": 740,
      "tai": 741,
      "ưới": 742,
      "hát": 743,
      "chuyến": 744,
      "hồ": 745,
      "tra": 746,
      "quên": 747,
      "mắt": 748,
      "lập": 749,
      "tham": 750,
      "giống": 751,
      "hộ": 752,
      "rồi": 753,
      "ễn": 754,
      "ách": 755,
      "tiết": 756,
      "vừa": 757,
      "ạt": 758,
      "ươi": 759,
      "phút": 760,
      "dường": 761,
      "ậm": 762,
      "kinh": 763,
      "ép": 764,
      "thú": 765,
      "đau": 766,
      "điể": 767,
      "khăn": 768,
      "ón": 769,
      "điểm": 770,
      "nghị": 771,
      "jo": 772,
      "nữ": 773,
      "sức": 774,
      "chờ": 775,
      "chọn": 776,
      "thoại": 777,
      "bình": 778,
      "tới": 779,
      "tiên": 780,
      "ằm": 781,
      "biể": 782,
      "mùa": 783,
      "chu": 784,
      "thất": 785,
      "thêm": 786,
      "quả": 787,
      "lịch": 788,
      "hơi": 789,
      "nạn": 790,
      "ẵn": 791,
      "phố": 792,
      "yo": 793,
      "đo": 794,
      "ạp": 795,
      "cậu": 796,
      "ni": 797,
      "sẵn": 798,
      "văn": 799,
      "dậy": 800,
      "quanh": 801,
      "dành": 802,
      "bức": 803,
      "ãi": 804,
      "lớp": 805,
      "vợ": 806,
      "đứng": 807,
      "loại": 808,
      "hn": 809,
      "kiếm": 810,
      "vi": 811,
      "thân": 812,
      "phi": 813,
      "mươi": 814,
      "xa": 815,
      "john": 816,
      "khóa": 817,
      "rõ": 818,
      "trò": 819,
      "mi": 820,
      "xấu": 821,
      "chuyển": 822,
      "quốc": 823,
      "nghĩa": 824,
      "ửi": 825,
      "kể": 826,
      "quay": 827,
      "bác": 828,
      "ýt": 829,
      "nguy": 830,
      "xuất": 831,
      "phục": 832,
      "óa": 833,
      "biệt": 834,
      "chứ": 835,
      "co": 836,
      "ựa": 837,
      "bởi": 838,
      "duy": 839,
      "đóng": 840,
      "so": 841,
      "đình": 842,
      "00": 843,
      "dối": 844,
      "họp": 845,
      "ia": 846,
      "thử": 847,
      "giết": 848,
      "vời": 849,
      "giận": 850,
      "tính": 851,
      "thăm": 852,
      "phê": 853,
      "bán": 854,
      "thuyết": 855,
      "chịu": 856,
      "iếu": 857,
      "quần": 858,
      "uộn": 859,
      "ngạc": 860,
      "ngốc": 861,
      "sàng": 862,
      "liên": 863,
      "rộ": 864,
      "cẩn": 865,
      "gửi": 866,
      "hóa": 867,
      "phía": 868,
      "rối": 869,
      "trưa": 870,
      "ga": 871,
      "chân": 872,
      "phim": 873,
      "lạc": 874,
      "mệt": 875,
      "muộn": 876,
      "đất": 877,
      "buýt": 878,
      "iệp": 879,
      "khuyên": 880,
      "tội": 881,
      "lầm": 882,
      "minh": 883,
      "tệ": 884,
      "giỏi": 885,
      "càng": 886,
      "cấp": 887,
      "ướng": 888,
      "hiểm": 889,
      "tài": 890,
      "viện": 891,
      "xử": 892,
      ".\"": 893,
      "ồng": 894,
      "ấm": 895,
      "phép": 896,
      "ty": 897,
      "trí": 898,
      "kẻ": 899,
      "món": 900,
      "ượu": 901,
      "buồn": 902,
      "rượu": 903,
      "tục": 904,
      "ké": 905,
      "trái": 906,
      "ngu": 907,
      "hoa": 908,
      "ầy": 909,
      "hòa": 910,
      "mạnh": 911,
      "dù": 912,
      "thận": 913,
      "hầu": 914,
      "lã": 915,
      "vô": 916,
      "đô": 917,
      "dừng": 918,
      "mèo": 919,
      "xác": 920,
      "phần": 921,
      "khu": 922,
      "luận": 923,
      "ngữ": 924,
      "đội": 925,
      "phạm": 926,
      "bước": 927,
      "túi": 928,
      "ẩm": 929,
      "cứu": 930,
      "mỹ": 931,
      "tế": 932,
      "sa": 933,
      "khả": 934,
      "er": 935,
      "suy": 936,
      "ban": 937,
      "trang": 938,
      "ngờ": 939,
      "quen": 940,
      "sáu": 941,
      "khỏ": 942,
      "dưới": 943,
      "căn": 944,
      "ca": 945,
      "ly": 946,
      "chiều": 947,
      "chấp": 948,
      "khỏe": 949,
      "chì": 950,
      "hút": 951,
      "sổ": 952,
      "cổ": 953,
      "tổ": 954,
      "ếp": 955,
      "tuyết": 956,
      "tượng": 957,
      "thúc": 958,
      "ghét": 959,
      "lá": 960,
      "vượt": 961,
      "nóng": 962,
      "mật": 963,
      "phiền": 964,
      "sóc": 965,
      "đông": 966,
      "ỉnh": 967,
      "thậm": 968,
      "du": 969,
      "li": 970,
      "may": 971,
      "sư": 972,
      "thống": 973,
      "êng": 974,
      "vật": 975,
      "rộn": 976,
      "hoặc": 977,
      "bí": 978,
      "kyo": 979,
      "lạ": 980,
      "cư": 981,
      "ro": 982,
      "nổi": 983,
      "dàng": 984,
      "kiến": 985,
      "đổ": 986,
      "trấn": 987,
      "cáo": 988,
      "bại": 989,
      "thủ": 990,
      "kéo": 991,
      "bè": 992,
      "hài": 993,
      "ràng": 994,
      "đoán": 995,
      "tương": 996,
      "khoảng": 997,
      "cánh": 998,
      "nhiệm": 999,
      "thiết": 1000,
      "dạy": 1001,
      "ám": 1002,
      "nhảy": 1003,
      "đói": 1004,
      "lư": 1005,
      "thì": 1006,
      "thuộc": 1007,
      "hứa": 1008,
      "tăng": 1009,
      "mỏi": 1010,
      "sửa": 1011,
      "ký": 1012,
      "khóc": 1013,
      "ẳng": 1014,
      "giày": 1015,
      "lặng": 1016,
      "luật": 1017,
      "ngoại": 1018,
      "già": 1019,
      "mũ": 1020,
      "da": 1021,
      "ảm": 1022,
      "nghiệp": 1023,
      "giảm": 1024,
      "cắt": 1025,
      "chức": 1026,
      "đầy": 1027,
      "lực": 1028,
      "ủng": 1029,
      "tóc": 1030,
      "thi": 1031,
      "diễn": 1032,
      "lượng": 1033,
      "pi": 1034,
      "liệu": 1035,
      "ngừng": 1036,
      "giữa": 1037,
      "mơ": 1038,
      "rơi": 1039,
      "băng": 1040,
      "ạng": 1041,
      "khí": 1042,
      "giao": 1043,
      "ghế": 1044,
      "dân": 1045,
      "chỗ": 1046,
      "rắc": 1047,
      "thắng": 1048,
      "hộp": 1049,
      "ỏng": 1050,
      "trị": 1051,
      "trình": 1052,
      "tồi": 1053,
      "?\"": 1054,
      "hè": 1055,
      "sắp": 1056,
      "ượn": 1057,
      "nằm": 1058,
      "sở": 1059,
      "ngăn": 1060,
      "ẹn": 1061,
      "biển": 1062,
      "30": 1063,
      "đám": 1064,
      "biến": 1065,
      "cạnh": 1066,
      "ốm": 1067,
      "bảy": 1068,
      "chàng": 1069,
      "nghiêm": 1070,
      "buộc": 1071,
      "doanh": 1072,
      "ỏa": 1073,
      "mượn": 1074,
      "cơn": 1075,
      "đấu": 1076,
      "mời": 1077,
      "ói": 1078,
      "ềm": 1079,
      "truy": 1080,
      "đạp": 1081,
      "hẹn": 1082,
      "tắt": 1083,
      "thoát": 1084,
      "chuẩn": 1085,
      "chìa": 1086,
      "giường": 1087,
      "hoạt": 1088,
      "dịch": 1089,
      "tây": 1090,
      "lựa": 1091,
      "tắm": 1092,
      "yên": 1093,
      "mái": 1094,
      "sạn": 1095,
      "ka": 1096,
      "riêng": 1097,
      "xét": 1098,
      "đời": 1099,
      "óm": 1100,
      "khoác": 1101,
      "tù": 1102,
      "khiến": 1103,
      "đỏ": 1104,
      "dẫn": 1105,
      "hướng": 1106,
      "giàu": 1107,
      "mức": 1108,
      "cung": 1109,
      "ủy": 1110,
      "táo": 1111,
      "phản": 1112,
      "lãng": 1113,
      "sông": 1114,
      "tòa": 1115,
      "trễ": 1116,
      "sân": 1117,
      "quà": 1118,
      "lắm": 1119,
      "súng": 1120,
      "đặc": 1121,
      "thiếu": 1122,
      "chia": 1123,
      "hiệu": 1124,
      "èn": 1125,
      "điên": 1126,
      "thảo": 1127,
      "tránh": 1128,
      "phủ": 1129,
      "ĩnh": 1130,
      "trượt": 1131,
      "ốn": 1132,
      "chối": 1133,
      "thôi": 1134,
      "trách": 1135,
      "biểu": 1136,
      "đức": 1137,
      "vàng": 1138,
      "nấu": 1139,
      "chứng": 1140,
      "địa": 1141,
      "xong": 1142,
      "can": 1143,
      "nỗi": 1144,
      "tử": 1145,
      "ịp": 1146,
      "thanh": 1147,
      "xung": 1148,
      "phẩm": 1149,
      "tiêu": 1150,
      "ck": 1151,
      "tokyo": 1152,
      "xanh": 1153,
      "iếp": 1154,
      "gây": 1155,
      "sản": 1156,
      "chằm": 1157,
      "bà": 1158,
      "ngon": 1159,
      "ne": 1160,
      "mắn": 1161,
      "tổn": 1162,
      "danh": 1163,
      "kính": 1164,
      "vệ": 1165,
      "áp": 1166,
      "bầu": 1167,
      "trận": 1168,
      "váy": 1169,
      "vỡ": 1170,
      "ạch": 1171,
      "bốn": 1172,
      "ngôn": 1173,
      "điển": 1174,
      "trợ": 1175,
      "giấy": 1176,
      "ưu": 1177,
      "ấc": 1178,
      "ngắn": 1179,
      "vũ": 1180,
      "thẳng": 1181,
      "bếp": 1182,
      "dọn": 1183,
      "tv": 1184,
      "xuyên": 1185,
      "ngân": 1186,
      "tư": 1187,
      "chào": 1188,
      "hào": 1189,
      "đùa": 1190,
      "khủng": 1191,
      "nửa": 1192,
      "tạo": 1193,
      "trốn": 1194,
      "bắn": 1195,
      "ãn": 1196,
      "quyền": 1197,
      "thuê": 1198,
      "bút": 1199,
      "núi": 1200,
      "thịt": 1201,
      "hữ": 1202,
      "lửa": 1203,
      "nặng": 1204,
      "quản": 1205,
      "hữu": 1206,
      "sang": 1207,
      "tác": 1208,
      "mù": 1209,
      "ki": 1210,
      "lỡ": 1211,
      "trắng": 1212,
      "dạo": 1213,
      "cắp": 1214,
      "đảm": 1215,
      "nhập": 1216,
      "thơ": 1217,
      "ngoái": 1218,
      "cân": 1219,
      "mấy": 1220,
      "ten": 1221,
      "kia": 1222,
      "sh": 1223,
      "ão": 1224,
      "chồng": 1225,
      "trưởng": 1226,
      "vé": 1227,
      "thang": 1228,
      "coi": 1229,
      "đèn": 1230,
      "ano": 1231,
      "nis": 1232,
      "đột": 1233,
      "nghiệm": 1234,
      "es": 1235,
      "bia": 1236,
      "né": 1237,
      "đen": 1238,
      "thuận": 1239,
      "hủy": 1240,
      "niềm": 1241,
      "tennis": 1242,
      "say": 1243,
      "vội": 1244,
      "tắc": 1245,
      "ko": 1246,
      "xúc": 1247,
      "ểu": 1248,
      "tiểu": 1249,
      "kịp": 1250,
      "bật": 1251,
      "mục": 1252,
      "sữa": 1253,
      "nhẫn": 1254,
      "chán": 1255,
      "miễn": 1256,
      "rửa": 1257,
      "ẩu": 1258,
      "ngơi": 1259,
      "thừa": 1260,
      "giấc": 1261,
      "piano": 1262,
      "su": 1263,
      "vòng": 1264,
      "chống": 1265,
      "toán": 1266,
      "trộ": 1267,
      "trăm": 1268,
      "giác": 1269,
      "nợ": 1270,
      "ngựa": 1271,
      "cháy": 1272,
      "ờn": 1273,
      "thuật": 1274,
      "hại": 1275,
      "xinh": 1276,
      "ụp": 1277,
      "phù": 1278,
      "cờ": 1279,
      "xây": 1280,
      "trà": 1281,
      "ja": 1282,
      "xi": 1283,
      "hỏng": 1284,
      "lương": 1285,
      "chóng": 1286,
      "thiện": 1287,
      "mì": 1288,
      "đắt": 1289,
      "ót": 1290,
      "uốt": 1291,
      "đón": 1292,
      "chim": 1293,
      "19": 1294,
      "ốt": 1295,
      "ghi": 1296,
      "giấu": 1297,
      "dục": 1298,
      "tĩnh": 1299,
      "vư": 1300,
      "tờ": 1301,
      "đeo": 1302,
      "trừ": 1303,
      "nha": 1304,
      "khoản": 1305,
      "dựng": 1306,
      "pa": 1307,
      "el": 1308,
      "hổ": 1309,
      "ỡng": 1310,
      "tách": 1311,
      "chày": 1312,
      "độc": 1313,
      "chung": 1314,
      "vườn": 1315,
      "hệ": 1316,
      "cập": 1317,
      "tận": 1318,
      "chậm": 1319,
      "khẩu": 1320,
      "ném": 1321,
      "nàn": 1322,
      "tám": 1323,
      "tiếc": 1324,
      "áu": 1325,
      "giọng": 1326,
      "mãi": 1327,
      "cưới": 1328,
      "phàn": 1329,
      "hạn": 1330,
      "tạp": 1331,
      "đạt": 1332,
      "hưởng": 1333,
      "tủ": 1334,
      "ken": 1335,
      "trứng": 1336,
      "nghệ": 1337,
      "bão": 1338,
      "mừng": 1339,
      "truyền": 1340,
      "hét": 1341,
      "bãi": 1342,
      "ẩy": 1343,
      "nhờ": 1344,
      "thỏa": 1345,
      "nghèo": 1346,
      "miệ": 1347,
      "ví": 1348,
      "ặn": 1349,
      "ngọn": 1350,
      "miệng": 1351,
      "nắm": 1352,
      "si": 1353,
      "iếng": 1354,
      "dao": 1355,
      "dùng": 1356,
      "lệ": 1357,
      "lợi": 1358,
      "va": 1359,
      "ẫu": 1360,
      "thuyền": 1361,
      "tổng": 1362,
      "lừa": 1363,
      "uôi": 1364,
      "chữa": 1365,
      "tim": 1366,
      "trộm": 1367,
      "bông": 1368,
      "lỗ": 1369,
      "nhầm": 1370,
      "tiến": 1371,
      "kẹ": 1372,
      "suốt": 1373,
      "go": 1374,
      "vẽ": 1375,
      "chụp": 1376,
      "and": 1377,
      "lai": 1378,
      "tường": 1379,
      "mắc": 1380,
      "hiếm": 1381,
      "nhẹ": 1382,
      "jack": 1383,
      "kỷ": 1384,
      "kỹ": 1385,
      "leo": 1386,
      "son": 1387,
      "tha": 1388,
      "trại": 1389,
      "mộ": 1390,
      "dây": 1391,
      "tặng": 1392,
      "nhiệt": 1393,
      "nhắn": 1394,
      "khuy": 1395,
      "khoa": 1396,
      "phương": 1397,
      "châu": 1398,
      "hỗ": 1399,
      "đậu": 1400,
      "ọt": 1401,
      "chuyên": 1402,
      "sắc": 1403,
      "tôn": 1404,
      "chất": 1405,
      "10": 1406,
      "sắm": 1407,
      "yếu": 1408,
      "ín": 1409,
      "nhóm": 1410,
      "te": 1411,
      "quân": 1412,
      "ane": 1413,
      "kiện": 1414,
      "tinh": 1415,
      "lưng": 1416,
      "dòng": 1417,
      "ris": 1418,
      "sâu": 1419,
      "tải": 1420,
      "jane": 1421,
      "phong": 1422,
      "rút": 1423,
      "ngã": 1424,
      "chế": 1425,
      "gui": 1426,
      "giành": 1427,
      "cực": 1428,
      "chai": 1429,
      "thấp": 1430,
      "phiếu": 1431,
      "tivi": 1432,
      "bụng": 1433,
      "kiên": 1434,
      "vắng": 1435,
      "ngư": 1436,
      "môn": 1437,
      "trạng": 1438,
      "ke": 1439,
      "na": 1440,
      "tar": 1441,
      "quán": 1442,
      "new": 1443,
      "cặp": 1444,
      "sàn": 1445,
      "õi": 1446,
      "thiệu": 1447,
      "bối": 1448,
      "cãi": 1449,
      "vờ": 1450,
      "thù": 1451,
      "dấu": 1452,
      "ựng": 1453,
      "chương": 1454,
      "khiếp": 1455,
      "guitar": 1456,
      "hảo": 1457,
      "sạch": 1458,
      "ĩa": 1459,
      "nguyên": 1460,
      "vực": 1461,
      "khắc": 1462,
      "hãi": 1463,
      "cử": 1464,
      "răng": 1465,
      "iển": 1466,
      "nuôi": 1467,
      "tỉnh": 1468,
      "chặt": 1469,
      "thờ": 1470,
      "trải": 1471,
      "dõi": 1472,
      "gấp": 1473,
      "đạo": 1474,
      "che": 1475,
      "chạm": 1476,
      "taxi": 1477,
      "cải": 1478,
      "sơn": 1479,
      "thao": 1480,
      "tầm": 1481,
      "đằng": 1482,
      "đựng": 1483,
      "hò": 1484,
      "kiệm": 1485,
      "lin": 1486,
      "âng": 1487,
      "et": 1488,
      "rk": 1489,
      "đẩy": 1490,
      "ầng": 1491,
      "ộng": 1492,
      "chữ": 1493,
      "thần": 1494,
      "tầng": 1495,
      "gió": 1496,
      "phổ": 1497,
      "cởi": 1498,
      "dã": 1499,
      "mẽ": 1500,
      "ỡi": 1501,
      "triển": 1502,
      "ghé": 1503,
      "nam": 1504,
      "nướng": 1505,
      "đảo": 1506,
      "chín": 1507,
      "nguyện": 1508,
      "mùi": 1509,
      "me": 1510,
      "khuôn": 1511,
      "jim": 1512,
      "tấn": 1513,
      "đu": 1514,
      "thỉnh": 1515,
      "túc": 1516,
      "thở": 1517,
      "york": 1518,
      "soát": 1519,
      "hối": 1520,
      "ru": 1521,
      "chảy": 1522,
      "giản": 1523,
      "nghiên": 1524,
      "thoảng": 1525,
      "đào": 1526,
      "thô": 1527,
      "hoàng": 1528,
      "000": 1529,
      "nội": 1530,
      "ngón": 1531,
      "ha": 1532,
      "tích": 1533,
      "triệu": 1534,
      "trống": 1535,
      "phân": 1536,
      "nổ": 1537,
      "rừng": 1538,
      "gói": 1539,
      "wi": 1540,
      "khích": 1541,
      "xứng": 1542,
      "đài": 1543,
      "tuyên": 1544,
      "cụ": 1545,
      "cam": 1546,
      "thải": 1547,
      "nhắc": 1548,
      "chiếu": 1549,
      "vali": 1550,
      "thiên": 1551,
      "làng": 1552,
      "dị": 1553,
      "dẹp": 1554,
      "nông": 1555,
      "xếp": 1556,
      "thẻ": 1557,
      "khắp": 1558,
      "chúc": 1559,
      "bưu": 1560,
      "hồi": 1561,
      "sơ": 1562,
      "trôi": 1563,
      "mối": 1564,
      "nỗ": 1565,
      "ướt": 1566,
      "phán": 1567,
      "máu": 1568,
      "xóm": 1569,
      "khăng": 1570,
      "paris": 1571,
      "gà": 1572,
      "lễ": 1573,
      "lính": 1574,
      "len": 1575,
      "thoải": 1576,
      "lan": 1577,
      "mô": 1578,
      "đích": 1579,
      "dựa": 1580,
      "ada": 1581,
      "kích": 1582,
      "đĩa": 1583,
      "khoai": 1584,
      "cầm": 1585,
      "nụ": 1586,
      "béo": 1587,
      "dữ": 1588,
      "tiện": 1589,
      "òi": 1590,
      "ngại": 1591,
      "giây": 1592,
      "canada": 1593,
      "bò": 1594,
      "cộng": 1595,
      "lộ": 1596,
      "treo": 1597,
      "điệ": 1598,
      "kyoto": 1599,
      "shi": 1600,
      "kẹt": 1601,
      "lát": 1602,
      "miếng": 1603,
      "vết": 1604,
      "rau": 1605,
      "giáng": 1606,
      "rẻ": 1607,
      "thà": 1608,
      "tốc": 1609,
      "hoãn": 1610,
      "rảnh": 1611,
      "bạc": 1612,
      "lệnh": 1613,
      "tồn": 1614,
      "đua": 1615,
      "nhấn": 1616,
      "thái": 1617,
      "quý": 1618,
      "rộng": 1619,
      "đuổi": 1620,
      "ji": 1621,
      "kim": 1622,
      "mẫu": 1623,
      "ủi": 1624,
      "khởi": 1625,
      "trăng": 1626,
      "cốc": 1627,
      "chuông": 1628,
      "hi": 1629,
      "vai": 1630,
      "thẩm": 1631,
      "mỉ": 1632,
      "tạm": 1633,
      "nhặt": 1634,
      "re": 1635,
      "ứt": 1636,
      "thảm": 1637,
      "luân": 1638,
      "vợt": 1639,
      "vạt": 1640,
      "đôn": 1641,
      "phó": 1642,
      "hỏa": 1643,
      "kem": 1644,
      "tấm": 1645,
      "thưởng": 1646,
      "huống": 1647,
      "hậu": 1648,
      "we": 1649,
      "ụi": 1650,
      "ngàn": 1651,
      "be": 1652,
      "nút": 1653,
      "nhu": 1654,
      "thua": 1655,
      "xuân": 1656,
      "cú": 1657,
      "dầu": 1658,
      "lẫn": 1659,
      "sẻ": 1660,
      "thổi": 1661,
      "nền": 1662,
      "tín": 1663,
      "vận": 1664,
      "bi": 1665,
      "cất": 1666,
      "hứng": 1667,
      "thợ": 1668,
      "thiếp": 1669,
      "dio": 1670,
      "hồng": 1671,
      "po": 1672,
      "tô": 1673,
      "wa": 1674,
      "phóng": 1675,
      "gỗ": 1676,
      "le": 1677,
      "đập": 1678,
      "thả": 1679,
      "khẩn": 1680,
      "ngoan": 1681,
      "khuya": 1682,
      "cỏ": 1683,
      "diện": 1684,
      "sót": 1685,
      "tả": 1686,
      "vay": 1687,
      "ặm": 1688,
      "lành": 1689,
      "cứng": 1690,
      "thuế": 1691,
      "nguồn": 1692,
      "bẩn": 1693,
      "cu": 1694,
      "dặm": 1695,
      "nắng": 1696,
      "thói": 1697,
      "phạt": 1698,
      "tan": 1699,
      "lưu": 1700,
      "dày": 1701,
      "hấp": 1702,
      "rg": 1703,
      "tàng": 1704,
      "giặt": 1705,
      "đồn": 1706,
      "20": 1707,
      "cắn": 1708,
      "hạ": 1709,
      "lau": 1710,
      "khôn": 1711,
      "trực": 1712,
      "sốt": 1713,
      "muối": 1714,
      "mạng": 1715,
      "tịch": 1716,
      "bê": 1717,
      "góc": 1718,
      "hưu": 1719,
      "pe": 1720,
      "ũng": 1721,
      "ồm": 1722,
      "nhắm": 1723,
      "chặn": 1724,
      "nhiễ": 1725,
      "hu": 1726,
      "lối": 1727,
      "vang": 1728,
      "za": 1729,
      "ngọt": 1730,
      "giãn": 1731,
      "ghen": 1732,
      "mike": 1733,
      "siêu": 1734,
      "mỉm": 1735,
      "bảng": 1736,
      "gõ": 1737,
      "vua": 1738,
      "èm": 1739,
      "ếm": 1740,
      "cướ": 1741,
      "kịch": 1742,
      "mát": 1743,
      "niên": 1744,
      "tá": 1745,
      "ọa": 1746,
      "cản": 1747,
      "radio": 1748,
      "bob": 1749,
      "cổng": 1750,
      "cướp": 1751,
      "hạt": 1752,
      "sand": 1753,
      "bờ": 1754,
      "fa": 1755,
      "mê": 1756,
      "ỗng": 1757,
      "uyện": 1758,
      "kém": 1759,
      "mũi": 1760,
      "reo": 1761,
      "bắc": 1762,
      "cy": 1763,
      "cắm": 1764,
      "nộ": 1765,
      "tị": 1766,
      "chuột": 1767,
      "đoàn": 1768,
      "ngưỡng": 1769,
      "pin": 1770,
      "trồng": 1771,
      "khám": 1772,
      "lãnh": 1773,
      "dọa": 1774,
      "gốc": 1775,
      "hòn": 1776,
      "nâu": 1777,
      "súp": 1778,
      "đỉnh": 1779,
      "jackson": 1780,
      "wich": 1781,
      "sandwich": 1782,
      "tỷ": 1783,
      "đăng": 1784,
      "điệu": 1785,
      "nhiễm": 1786,
      "bù": 1787,
      "gồm": 1788,
      "rác": 1789,
      "ẫy": 1790,
      "bọn": 1791,
      "lăm": 1792,
      "rào": 1793,
      "tem": 1794,
      "ter": 1795,
      "óp": 1796,
      "đồi": 1797,
      "đốt": 1798,
      "ngành": 1799,
      "trao": 1800,
      "bar": 1801,
      "ce": 1802,
      "vã": 1803,
      "khổ": 1804,
      "trì": 1805,
      "bơ": 1806,
      "lục": 1807,
      "luyện": 1808,
      "pha": 1809,
      "tốn": 1810,
      "tuân": 1811,
      "dư": 1812,
      "hiệp": 1813,
      "kiệt": 1814,
      "lon": 1815,
      "đe": 1816,
      "bì": 1817,
      "dương": 1818,
      "hầm": 1819,
      "sô": 1820,
      "đa": 1821,
      "đâm": 1822,
      "nga": 1823,
      "khô": 1824,
      "môi": 1825,
      "oi": 1826,
      "thập": 1827,
      "căng": 1828,
      "râu": 1829,
      "ớn": 1830,
      "trùng": 1831,
      "bội": 1832,
      "bụi": 1833,
      "săn": 1834,
      "thụ": 1835,
      "chúa": 1836,
      "gã": 1837,
      "huy": 1838,
      "je": 1839,
      "mạo": 1840,
      "ok": 1841,
      "khứ": 1842,
      "50": 1843,
      "dì": 1844,
      "ku": 1845,
      "linh": 1846,
      "vâng": 1847,
      "úa": 1848,
      "̣n": 1849,
      "sốc": 1850,
      "hoang": 1851,
      "web": 1852,
      "al": 1853,
      "mọc": 1854,
      "tỏ": 1855,
      "đính": 1856,
      "giảng": 1857,
      "khát": 1858,
      "gãy": 1859,
      "100": 1860,
      "gợi": 1861,
      "mò": 1862,
      "mây": 1863,
      "mảnh": 1864,
      "sắt": 1865,
      "xo": 1866,
      "xã": 1867,
      "àm": 1868,
      "én": 1869,
      "đuối": 1870,
      "đớn": 1871,
      "phức": 1872,
      "bồn": 1873,
      "rẽ": 1874,
      "phấn": 1875,
      "hoảng": 1876,
      "kate": 1877,
      "dần": 1878,
      "kêu": 1879,
      "lười": 1880,
      "ụt": 1881,
      "trạm": 1882,
      "tony": 1883,
      "bát": 1884,
      "kệ": 1885,
      "lội": 1886,
      "rỗng": 1887,
      "chứa": 1888,
      "thiệt": 1889,
      "thiệp": 1890,
      "chỉnh": 1891,
      "khói": 1892,
      "nộp": 1893,
      "cậy": 1894,
      "lò": 1895,
      "quảng": 1896,
      "don": 1897,
      "hư": 1898,
      "lf": 1899,
      "tò": 1900,
      "vở": 1901,
      "ya": 1902,
      "khán": 1903,
      "saka": 1904,
      "cấm": 1905,
      "dọc": 1906,
      "hôi": 1907,
      "lầu": 1908,
      "nối": 1909,
      "niệm": 1910,
      "trần": 1911,
      "đáp": 1912,
      "bạn": 1913,
      "golf": 1914,
      "bạo": 1915,
      "dũng": 1916,
      "fu": 1917,
      "góp": 1918,
      "mu": 1919,
      "osaka": 1920,
      "khiếu": 1921,
      "trích": 1922,
      "ran": 1923,
      "kiểu": 1924,
      "thủy": 1925,
      "truyện": 1926,
      "hận": 1927,
      "ju": 1928,
      "san": 1929,
      "tàn": 1930,
      "tươi": 1931,
      "thăng": 1932,
      "trừng": 1933,
      "tròn": 1934,
      "chiếm": 1935,
      "lão": 1936,
      "18": 1937,
      "cúi": 1938,
      "hước": 1939,
      "mồ": 1940,
      "nan": 1941,
      "rắn": 1942,
      "se": 1943,
      "điền": 1944,
      "loạn": 1945,
      "kẹo": 1946,
      "biếng": 1947,
      "geo": 1948,
      "hùng": 1949,
      "or": 1950,
      "đấy": 1951,
      "thước": 1952,
      "piz": 1953,
      "gối": 1954,
      "lao": 1955,
      "mt": 1956,
      "màn": 1957,
      "sóng": 1958,
      "vùng": 1959,
      "thắt": 1960,
      "quê": 1961,
      "pizza": 1962,
      "il": 1963,
      "song": 1964,
      "vĩ": 1965,
      "xé": 1966,
      "chua": 1967,
      "ngược": 1968,
      "búp": 1969,
      "hương": 1970,
      "nản": 1971,
      "đạc": 1972,
      "rge": 1973,
      "gật": 1974,
      "lượt": 1975,
      "rót": 1976,
      "xăng": 1977,
      "đạn": 1978,
      "ngột": 1979,
      "thề": 1980,
      "tháo": 1981,
      "thắn": 1982,
      "bày": 1983,
      "dung": 1984,
      "sương": 1985,
      "thằng": 1986,
      "khai": 1987,
      "phiên": 1988,
      "ail": 1989,
      "ưởi": 1990,
      "khoảnh": 1991,
      "tùy": 1992,
      "george": 1993,
      "rồ": 1994,
      "rổ": 1995,
      "đếm": 1996,
      "tráng": 1997,
      "email": 1998,
      "đoạn": 1999,
      "bra": 2000,
      "cận": 2001,
      "cạo": 2002,
      "găng": 2003,
      "gọn": 2004,
      "lĩnh": 2005,
      "mắng": 2006,
      "sứ": 2007,
      "yu": 2008,
      "phẫu": 2009,
      "họa": 2010,
      "loài": 2011,
      "giám": 2012,
      "khuyến": 2013,
      "bó": 2014,
      "ff": 2015,
      "rủi": 2016,
      "sợi": 2017,
      "un": 2018,
      "đàm": 2019,
      "chìm": 2020,
      "thí": 2021,
      "trèo": 2022,
      "iếc": 2023,
      "vid": 2024,
      "lưỡi": 2025,
      "nancy": 2026,
      "bổ": 2027,
      "lặn": 2028,
      "tán": 2029,
      "voi": 2030,
      "nhát": 2031,
      "gián": 2032,
      "nhàm": 2033,
      "ham": 2034,
      "lố": 2035,
      "lặp": 2036,
      "nâng": 2037,
      "ẫm": 2038,
      "ớt": 2039,
      "chở": 2040,
      "giơ": 2041,
      "hỗn": 2042,
      "ber": 2043,
      "hải": 2044,
      "văng": 2045,
      "xách": 2046,
      "đỗ": 2047,
      "chừng": 2048,
      "chẳng": 2049,
      "cưỡi": 2050,
      "lộn": 2051,
      "gấu": 2052,
      "rỉ": 2053,
      "ngào": 2054,
      "nhạt": 2055,
      "thám": 2056,
      "phô": 2057,
      "phận": 2058,
      "buông": 2059,
      "bom": 2060,
      "kiêng": 2061,
      "london": 2062,
      "fuji": 2063,
      "lũ": 2064,
      "mo": 2065,
      "mại": 2066,
      "mạch": 2067,
      "chăn": 2068,
      "ali": 2069,
      "lỏng": 2070,
      "ùi": 2071,
      "đáo": 2072,
      "đống": 2073,
      "đốc": 2074,
      "đòi": 2075,
      "chôn": 2076,
      "tiễn": 2077,
      "cưỡng": 2078,
      "rốt": 2079,
      "sét": 2080,
      "vỗ": 2081,
      "xế": 2082,
      "éo": 2083,
      "ộc": 2084,
      "khảo": 2085,
      "khen": 2086,
      "quầy": 2087,
      "cám": 2088,
      "sánh": 2089,
      "quyển": 2090,
      "bỏng": 2091,
      "bốc": 2092,
      "nến": 2093,
      "sưởi": 2094,
      "đắp": 2095,
      "ợt": 2096,
      "ngớ": 2097,
      "ngẩn": 2098,
      "hoại": 2099,
      "video": 2100,
      "biên": 2101,
      "gương": 2102,
      "kê": 2103,
      "mét": 2104,
      "nở": 2105,
      "ry": 2106,
      "sôi": 2107,
      "sco": 2108,
      "ễu": 2109,
      "ngửi": 2110,
      "tang": 2111,
      "tung": 2112,
      "sofa": 2113,
      "cược": 2114,
      "cuồng": 2115,
      "bùng": 2116,
      "kín": 2117,
      "lang": 2118,
      "tảng": 2119,
      "xương": 2120,
      "zil": 2121,
      "trầm": 2122,
      "giai": 2123,
      "địch": 2124,
      "vio": 2125,
      "brazil": 2126,
      "cd": 2127,
      "cương": 2128,
      "gắn": 2129,
      "kai": 2130,
      "mạn": 2131,
      "mực": 2132,
      "no": 2133,
      "tái": 2134,
      "tộc": 2135,
      "vẫy": 2136,
      "wai": 2137,
      "ngô": 2138,
      "ngụ": 2139,
      "nghề": 2140,
      "chica": 2141,
      "chicago": 2142,
      "lông": 2143,
      "râm": 2144,
      "sảnh": 2145,
      "chiên": 2146,
      "thỏ": 2147,
      "bang": 2148,
      "dội": 2149,
      "lận": 2150,
      "pau": 2151,
      "vứt": 2152,
      "nhé": 2153,
      "côn": 2154,
      "mexi": 2155,
      "jean": 2156,
      "200": 2157,
      "bách": 2158,
      "cừ": 2159,
      "for": 2160,
      "liệt": 2161,
      "lạm": 2162,
      "mã": 2163,
      "mềm": 2164,
      "rũ": 2165,
      "sủa": 2166,
      "smi": 2167,
      "tật": 2168,
      "ngầm": 2169,
      "chẽ": 2170,
      "chén": 2171,
      "thạo": 2172,
      "tràn": 2173,
      "cóc": 2174,
      "col": 2175,
      "alice": 2176,
      "violin": 2177,
      "mexico": 2178,
      "cừu": 2179,
      "smith": 2180,
      "bột": 2181,
      "biện": 2182,
      "dụ": 2183,
      "dạng": 2184,
      "lẻ": 2185,
      "lật": 2186,
      "mớ": 2187,
      "sé": 2188,
      "xâm": 2189,
      "đảng": 2190,
      "ớp": 2191,
      "thách": 2192,
      "trói": 2193,
      "phỏng": 2194,
      "man": 2195,
      "độn": 2196,
      "tuyển": 2197,
      "lad": 2198,
      "coo": 2199,
      "kie": 2200,
      "kaido": 2201,
      "séc": 2202,
      "12": 2203,
      "mon": 2204,
      "vỏ": 2205,
      "xô": 2206,
      "đẻ": 2207,
      "ngang": 2208,
      "nhõ": 2209,
      "thánh": 2210,
      "ann": 2211,
      "hawai": 2212,
      "hawaii": 2213,
      "bồ": 2214,
      "de": 2215,
      "hiến": 2216,
      "kkaido": 2217,
      "ll": 2218,
      "mày": 2219,
      "mệnh": 2220,
      "móc": 2221,
      "ur": 2222,
      "đấm": 2223,
      "thượng": 2224,
      "hokkaido": 2225,
      "run": 2226,
      "cookie": 2227,
      "nhõm": 2228,
      "11": 2229,
      "500": 2230,
      "hức": 2231,
      "háo": 2232,
      "nại": 2233,
      "nao": 2234,
      "rung": 2235,
      "tú": 2236,
      "xưa": 2237,
      "đắn": 2238,
      "ngây": 2239,
      "ngập": 2240,
      "chọc": 2241,
      "chép": 2242,
      "thầm": 2243,
      "trụ": 2244,
      "nghiền": 2245,
      "espe": 2246,
      "lincol": 2247,
      "huấn": 2248,
      "lincoln": 2249,
      "lều": 2250,
      "land": 2251,
      "nô": 2252,
      "não": 2253,
      "ngợi": 2254,
      "khấu": 2255,
      "tri": 2256,
      "quét": 2257,
      "nghiện": 2258,
      "ina": 2259,
      "rome": 2260,
      "suất": 2261,
      "dưỡng": 2262,
      "lốp": 2263,
      "bực": 2264,
      "binh": 2265,
      "cai": 2266,
      "dại": 2267,
      "gôn": 2268,
      "gầy": 2269,
      "hồn": 2270,
      "pet": 2271,
      "sụp": 2272,
      "đố": 2273,
      "nhạy": 2274,
      "chật": 2275,
      "khối": 2276,
      "one": 2277,
      "cơm": 2278,
      "chủng": 2279,
      "sưu": 2280,
      "thụy": 2281,
      "peter": 2282,
      "dâu": 2283,
      "dập": 2284,
      "gỡ": 2285,
      "gậy": 2286,
      "hâm": 2287,
      "jon": 2288,
      "lăn": 2289,
      "lùi": 2290,
      "mẻ": 2291,
      "móng": 2292,
      "xóa": 2293,
      "ịn": 2294,
      "cát": 2295,
      "khiển": 2296,
      "nhường": 2297,
      "sáo": 2298,
      "hiển": 2299,
      "salad": 2300,
      "trộn": 2301,
      "xoay": 2302,
      "bồi": 2303,
      "bẫy": 2304,
      "cỡ": 2305,
      "dy": 2306,
      "gàng": 2307,
      "hang": 2308,
      "lắc": 2309,
      "liếc": 2310,
      "má": 2311,
      "rạp": 2312,
      "rèm": 2313,
      "tưới": 2314,
      "uông": 2315,
      "vặt": 2316,
      "ván": 2317,
      "xà": 2318,
      "đền": 2319,
      "đuôi": 2320,
      "nháy": 2321,
      "cháu": 2322,
      "tháp": 2323,
      "quái": 2324,
      "khiêu": 2325,
      "ana": 2326,
      "quyến": 2327,
      "car": 2328,
      "túy": 2329,
      "60": 2330,
      "cạn": 2331,
      "dính": 2332,
      "lạp": 2333,
      "nát": 2334,
      "nắp": 2335,
      "rư": 2336,
      "tướng": 2337,
      "ợn": 2338,
      "nhổ": 2339,
      "than": 2340,
      "thùng": 2341,
      "khúc": 2342,
      "giật": 2343,
      "phú": 2344,
      "pháo": 2345,
      "điếu": 2346,
      "chuyền": 2347,
      "giam": 2348,
      "diễu": 2349,
      "suýt": 2350,
      "meg": 2351,
      "rưỡi": 2352,
      "dr": 2353,
      "fran": 2354,
      "gác": 2355,
      "gạo": 2356,
      "hẹp": 2357,
      "hít": 2358,
      "km": 2359,
      "lụt": 2360,
      "lợn": 2361,
      "vòi": 2362,
      "nho": 2363,
      "nhai": 2364,
      "nhựa": 2365,
      "nhợt": 2366,
      "thắp": 2367,
      "giỏ": 2368,
      "inch": 2369,
      "cưng": 2370,
      "etty": 2371,
      "bào": 2372,
      "cay": 2373,
      "dịp": 2374,
      "sho": 2375,
      "vải": 2376,
      "ngũ": 2377,
      "chải": 2378,
      "chris": 2379,
      "khỉ": 2380,
      "trúc": 2381,
      "mari": 2382,
      "loạt": 2383,
      "yoko": 2384,
      "nia": 2385,
      "viễn": 2386,
      "mộng": 2387,
      "điệp": 2388,
      "cúm": 2389,
      "jones": 2390,
      "dỗ": 2391,
      "gam": 2392,
      "hàn": 2393,
      "mạc": 2394,
      "mỏng": 2395,
      "rd": 2396,
      "tết": 2397,
      "tiệm": 2398,
      "ver": 2399,
      "ỉa": 2400,
      "chấm": 2401,
      "thối": 2402,
      "198": 2403,
      "199": 2404,
      "ruồi": 2405,
      "dịu": 2406,
      "15": 2407,
      "betty": 2408,
      "dáng": 2409,
      "kèn": 2410,
      "kèm": 2411,
      "lồ": 2412,
      "nếm": 2413,
      "rỗi": 2414,
      "nhút": 2415,
      "nhấp": 2416,
      "nhét": 2417,
      "tro": 2418,
      "trúng": 2419,
      "choáng": 2420,
      "cảng": 2421,
      "khiêm": 2422,
      "rie": 2423,
      "chuỗi": 2424,
      "lãm": 2425,
      "sha": 2426,
      "bùn": 2427,
      "khổng": 2428,
      ",\"": 2429,
      "40": 2430,
      "bề": 2431,
      "dán": 2432,
      "hà": 2433,
      "hẳ": 2434,
      "hiên": 2435,
      "nôn": 2436,
      "nứt": 2437,
      "ss": 2438,
      "sếp": 2439,
      "tạnh": 2440,
      "tỏa": 2441,
      "ve": 2442,
      "vắt": 2443,
      "ếch": 2444,
      "nhịn": 2445,
      "chuối": 2446,
      "tru": 2447,
      "họng": 2448,
      "kháng": 2449,
      "tuyến": 2450,
      "miền": 2451,
      "shin": 2452,
      "laurie": 2453,
      "hẳn": 2454,
      "bể": 2455,
      "bến": 2456,
      "bong": 2457,
      "bít": 2458,
      "còi": 2459,
      "lam": 2460,
      "lúa": 2461,
      "sam": 2462,
      "vuông": 2463,
      "ím": 2464,
      "đắng": 2465,
      "ộn": 2466,
      "ngton": 2467,
      "nhạo": 2468,
      "chợ": 2469,
      "chay": 2470,
      "thôn": 2471,
      "thèm": 2472,
      "phổi": 2473,
      "quỹ": 2474,
      "nghịch": 2475,
      "bum": 2476,
      "net": 2477,
      "kobe": 2478,
      "ween": 2479,
      "nhuận": 2480,
      "yumi": 2481,
      "300": 2482,
      "bướ": 2483,
      "dạ": 2484,
      "lly": 2485,
      "min": 2486,
      "ranh": 2487,
      "us": 2488,
      "uko": 2489,
      "vân": 2490,
      "vặn": 2491,
      "xì": 2492,
      "xí": 2493,
      "xăm": 2494,
      "xám": 2495,
      "ỉu": 2496,
      "ởm": 2497,
      "ngần": 2498,
      "nhuộ": 2499,
      "giọt": 2500,
      "nghìn": 2501,
      "mas": 2502,
      "lucy": 2503,
      "inter": 2504,
      "lưỡng": 2505,
      "197": 2506,
      "album": 2507,
      "ngụm": 2508,
      "paul": 2509,
      "nhuộm": 2510,
      "13": 2511,
      "25": 2512,
      "bắp": 2513,
      "báu": 2514,
      "cúp": 2515,
      "dưa": 2516,
      "gạch": 2517,
      "hời": 2518,
      "hệt": 2519,
      "jam": 2520,
      "kì": 2521,
      "lô": 2522,
      "lờ": 2523,
      "luộc": 2524,
      "rò": 2525,
      "rin": 2526,
      "rán": 2527,
      "tân": 2528,
      "túng": 2529,
      "tởm": 2530,
      "van": 2531,
      "vinh": 2532,
      "̣t": 2533,
      "nhện": 2534,
      "nhục": 2535,
      "chèo": 2536,
      "trú": 2537,
      "phanh": 2538,
      "burg": 2539,
      "liều": 2540,
      "har": 2541,
      "shington": 2542,
      "washington": 2543,
      "jeff": 2544,
      "bướm": 2545,
      "internet": 2546,
      "16": 2547,
      "as": 2548,
      "bấm": 2549,
      "cro": 2550,
      "is": 2551,
      "lấp": 2552,
      "les": 2553,
      "mờ": 2554,
      "rập": 2555,
      "tùng": 2556,
      "đan": 2557,
      "ưng": 2558,
      "ếc": 2559,
      "ngấy": 2560,
      "ngất": 2561,
      "ngắt": 2562,
      "thiể": 2563,
      "khớp": 2564,
      "tour": 2565,
      "trán": 2566,
      "làn": 2567,
      "điếc": 2568,
      "đươ": 2569,
      "khoe": 2570,
      "khoán": 2571,
      "chuồng": 2572,
      "mayuko": 2573,
      "lược": 2574,
      "kiềm": 2575,
      "beth": 2576,
      "thiểu": 2577,
      "17": 2578,
      "hề": 2579,
      "ky": 2580,
      "mập": 2581,
      "múa": 2582,
      "nồng": 2583,
      "vần": 2584,
      "váng": 2585,
      "xẻ": 2586,
      "xổ": 2587,
      "ẹo": 2588,
      "ợm": 2589,
      "ngực": 2590,
      "nhốt": 2591,
      "thỉu": 2592,
      "khung": 2593,
      "triết": 2594,
      "đinh": 2595,
      "tống": 2596,
      "emi": 2597,
      "ria": 2598,
      "gas": 2599,
      "hèn": 2600,
      "ney": 2601,
      "nén": 2602,
      "susan": 2603,
      "sie": 2604,
      "goya": 2605,
      "nagoya": 2606,
      "đun": 2607,
      "bế": 2608,
      "bon": 2609,
      "bri": 2610,
      "búa": 2611,
      "ci": 2612,
      "cớ": 2613,
      "cự": 2614,
      "cài": 2615,
      "ge": 2616,
      "kìm": 2617,
      "ker": 2618,
      "lướt": 2619,
      "màng": 2620,
      "nề": 2621,
      "od": 2622,
      "rên": 2623,
      "sung": 2624,
      "ster": 2625,
      "vững": 2626,
      "wo": 2627,
      "zu": 2628,
      "zz": 2629,
      "̣c": 2630,
      "ằn": 2631,
      "ếng": 2632,
      "chấn": 2633,
      "thổ": 2634,
      "thưa": 2635,
      "giếng": 2636,
      "phối": 2637,
      "quang": 2638,
      "choàng": 2639,
      "đáy": 2640,
      "quyên": 2641,
      "log": 2642,
      "duyệt": 2643,
      "sushi": 2644,
      "bert": 2645,
      "ford": 2646,
      "bầm": 2647,
      "bám": 2648,
      "gầm": 2649,
      "jes": 2650,
      "kg": 2651,
      "lê": 2652,
      "mốt": 2653,
      "nọ": 2654,
      "per": 2655,
      "ren": 2656,
      "súc": 2657,
      "sen": 2658,
      "sầm": 2659,
      "vong": 2660,
      "vương": 2661,
      "ven": 2662,
      "vốn": 2663,
      "ze": 2664,
      "ỷu": 2665,
      "nhấc": 2666,
      "chước": 2667,
      "chặng": 2668,
      "phẳng": 2669,
      "phộng": 2670,
      "khuỷu": 2671,
      "rock": 2672,
      "jazz": 2673,
      "elen": 2674,
      "siêng": 2675,
      "scot": 2676,
      "game": 2677,
      "at": 2678,
      "bã": 2679,
      "dột": 2680,
      "dắt": 2681,
      "dốc": 2682,
      "gạt": 2683,
      "ger": 2684,
      "kan": 2685,
      "lồng": 2686,
      "lén": 2687,
      "my": 2688,
      "mỏ": 2689,
      "mến": 2690,
      "mép": 2691,
      "rực": 2692,
      "rãi": 2693,
      "rèn": 2694,
      "tụ": 2695,
      "tẩy": 2696,
      "tím": 2697,
      "ẹt": 2698,
      "ợng": 2699,
      "nhịp": 2700,
      "nhãn": 2701,
      "giục": 2702,
      "nhượng": 2703,
      "bịt": 2704,
      "los": 2705,
      "khuất": 2706,
      "erson": 2707,
      "thiêu": 2708,
      "thơm": 2709,
      "nara": 2710,
      "wil": 2711,
      "huýt": 2712,
      "bậ": 2713,
      "bin": 2714,
      "bừa": 2715,
      "dam": 2716,
      "dám": 2717,
      "fe": 2718,
      "fo": 2719,
      "hái": 2720,
      "id": 2721,
      "lùng": 2722,
      "nồi": 2723,
      "nét": 2724,
      "nuốt": 2725,
      "rậm": 2726,
      "suối": 2727,
      "đúc": 2728,
      "đam": 2729,
      "ngọc": 2730,
      "trật": 2731,
      "nghiệt": 2732,
      "maria": 2733,
      "thuần": 2734,
      "visa": 2735,
      "naka": 2736,
      "hiro": 2737,
      "bìa": 2738,
      "ranto": 2739,
      "kênh": 2740,
      "esperanto": 2741,
      "burger": 2742,
      "bậc": 2743,
      "ama": 2744,
      "cường": 2745,
      "dứt": 2746,
      "fre": 2747,
      "gội": 2748,
      "hả": 2749,
      "heo": 2750,
      "lton": 2751,
      "lúng": 2752,
      "mải": 2753,
      "mánh": 2754,
      "nảy": 2755,
      "nín": 2756,
      "oh": 2757,
      "ox": 2758,
      "rỡ": 2759,
      "sky": 2760,
      "xông": 2761,
      "đũ": 2762,
      "đẳng": 2763,
      "thai": 2764,
      "trêu": 2765,
      "phun": 2766,
      "quặc": 2767,
      "cáu": 2768,
      "hoài": 2769,
      "buôn": 2770,
      "khoanh": 2771,
      "thoái": 2772,
      "thịnh": 2773,
      "phiêu": 2774,
      "cali": 2775,
      "roo": 2776,
      "shu": 2777,
      "linda": 2778,
      "huyết": 2779,
      "yama": 2780,
      "muỗi": 2781,
      "judy": 2782,
      "und": 2783,
      "fornia": 2784,
      "đũa": 2785,
      "california": 2786,
      "cong": 2787,
      "gra": 2788,
      "he": 2789,
      "hiếu": 2790,
      "hạng": 2791,
      "kespe": 2792,
      "lường": 2793,
      "lắp": 2794,
      "nạ": 2795,
      "ope": 2796,
      "rì": 2797,
      "sạc": 2798,
      "ste": 2799,
      "tê": 2800,
      "vít": 2801,
      "việt": 2802,
      "̉a": 2803,
      "ngáy": 2804,
      "ngợm": 2805,
      "nhăn": 2806,
      "nhánh": 2807,
      "chanh": 2808,
      "châm": 2809,
      "chồn": 2810,
      "thy": 2811,
      "thò": 2812,
      "thon": 2813,
      "trục": 2814,
      "trưng": 2815,
      "phớt": 2816,
      "khinh": 2817,
      "tiềm": 2818,
      "tine": 2819,
      "lui": 2820,
      "cống": 2821,
      "khoang": 2822,
      "ghê": 2823,
      "nghiêng": 2824,
      "soạn": 2825,
      "pirin": 2826,
      "jimmy": 2827,
      "hit": 2828,
      "lẻn": 2829,
      "franci": 2830,
      "shakespe": 2831,
      "james": 2832,
      "aspirin": 2833,
      "opera": 2834,
      "francisco": 2835,
      "shakespea": 2836,
      "14": 2837,
      "24": 2838,
      "cục": 2839,
      "cia": 2840,
      "diệt": 2841,
      "esa": 2842,
      "gan": 2843,
      "gọt": 2844,
      "hen": 2845,
      "long": 2846,
      "lay": 2847,
      "mòn": 2848,
      "nấm": 2849,
      "nĩa": 2850,
      "pu": 2851,
      "rẩy": 2852,
      "sảng": 2853,
      "sso": 2854,
      "sói": 2855,
      "spa": 2856,
      "tước": 2857,
      "tát": 2858,
      "vây": 2859,
      "vel": 2860,
      "xả": 2861,
      "ngửa": 2862,
      "ngắm": 2863,
      "ngừa": 2864,
      "nhộn": 2865,
      "thê": 2866,
      "thạch": 2867,
      "khao": 2868,
      "trương": 2869,
      "tamin": 2870,
      "tanaka": 2871,
      "nhàng": 2872,
      "hoạn": 2873,
      "khóe": 2874,
      "latin": 2875,
      "joe": 2876,
      "viru": 2877,
      "vitamin": 2878,
      "khuấy": 2879,
      "lip": 2880,
      "pad": 2881,
      "hal": 2882,
      "pound": 2883,
      "sevel": 2884,
      "shot": 2885,
      "roosevel": 2886,
      "shakespeare": 2887,
      "virus": 2888,
      "roosevelt": 2889,
      "70": 2890,
      "80": 2891,
      "ben": 2892,
      "bướng": 2893,
      "bro": 2894,
      "bóp": 2895,
      "blog": 2896,
      "côi": 2897,
      "cuộn": 2898,
      "dan": 2899,
      "duyên": 2900,
      "eu": 2901,
      "flo": 2902,
      "gân": 2903,
      "hẻ": 2904,
      "hung": 2905,
      "hói": 2906,
      "kỉnh": 2907,
      "ler": 2908,
      "nai": 2909,
      "rụi": 2910,
      "vớ": 2911,
      "vấp": 2912,
      "vách": 2913,
      "vĩnh": 2914,
      "vỉa": 2915,
      "whi": 2916,
      "xá": 2917,
      "õng": 2918,
      "đà": 2919,
      "đậm": 2920,
      "̉i": 2921,
      "ngộ": 2922,
      "chớp": 2923,
      "thự": 2924,
      "thầy": 2925,
      "khẳng": 2926,
      "trá": 2927,
      "trơn": 2928,
      "trinh": 2929,
      "phone": 2930,
      "quỳ": 2931,
      "quẩn": 2932,
      "angel": 2933,
      "bịch": 2934,
      "ghet": 2935,
      "viêm": 2936,
      "micro": 2937,
      "ling": 2938,
      "robert": 2939,
      "193": 2940,
      "194": 2941,
      "196": 2942,
      "kei": 2943,
      "ruột": 2944,
      "cụm": 2945,
      "jiro": 2946,
      "của": 2947,
      "aland": 2948,
      "juli": 2949,
      "đương": 2950,
      "zealand": 2951,
      "fred": 2952,
      "brow": 2953,
      "angeles": 2954,
      "aki": 2955,
      "bọ": 2956,
      "bỉnh": 2957,
      "cò": 2958,
      "cel": 2959,
      "dơi": 2960,
      "fan": 2961,
      "gũ": 2962,
      "gục": 2963,
      "hót": 2964,
      "ipad": 2965,
      "lơ": 2966,
      "lãi": 2967,
      "ny": 2968,
      "rè": 2969,
      "rụt": 2970,
      "sẹo": 2971,
      "um": 2972,
      "xui": 2973,
      "ãng": 2974,
      "ùm": 2975,
      "đệ": 2976,
      "đới": 2977,
      "đẫm": 2978,
      "ỏm": 2979,
      "ngùng": 2980,
      "chà": 2981,
      "thác": 2982,
      "khẽ": 2983,
      "toe": 2984,
      "phông": 2985,
      "phác": 2986,
      "thomas": 2987,
      "las": 2988,
      "đoan": 2989,
      "xas": 2990,
      "johnson": 2991,
      "roger": 2992,
      "kiêu": 2993,
      "mộc": 2994,
      "texas": 2995,
      "mỉa": 2996,
      "fax": 2997,
      "truồng": 2998,
      "jefferson": 2999,
      "xẻo": 3000,
      "hiroshi": 3001,
      "spaghet": 3002,
      "euro": 3003,
      "whisky": 3004,
      "gũi": 3005,
      "spaghetti": 3006,
      "!\"": 3007,
      "câm": 3008,
      "dở": 3009,
      "dép": 3010,
      "gu": 3011,
      "hàm": 3012,
      "hana": 3013,
      "helen": 3014,
      "kyu": 3015,
      "lũng": 3016,
      "manh": 3017,
      "mpi": 3018,
      "nạt": 3019,
      "nạp": 3020,
      "oka": 3021,
      "rt": 3022,
      "ráp": 3023,
      "tsu": 3024,
      "win": 3025,
      "xáo": 3026,
      "đắm": 3027,
      "ở": 3028,
      "ược": 3029,
      "ửng": 3030,
      "ngạo": 3031,
      "ngẫu": 3032,
      "thung": 3033,
      "trào": 3034,
      "giẫm": 3035,
      "pho": 3036,
      "que": 3037,
      "mara": 3038,
      "cốp": 3039,
      "diều": 3040,
      "khỏa": 3041,
      "kara": 3042,
      "ley": 3043,
      "bơm": 3044,
      "muỗng": 3045,
      "hamburger": 3046,
      "lẻo": 3047,
      "triều": 3048,
      "yokoween": 3049,
      "brian": 3050,
      "scotland": 3051,
      "hẻm": 3052,
      "22": 3053,
      "ar": 3054,
      "bạ": 3055,
      "bôi": 3056,
      "bre": 3057,
      "cột": 3058,
      "dang": 3059,
      "dai": 3060,
      "den": 3061,
      "eli": 3062,
      "ft": 3063,
      "fbi": 3064,
      "gót": 3065,
      "hụt": 3066,
      "lụ": 3067,
      "lôi": 3068,
      "mp": 3069,
      "mỡ": 3070,
      "mãn": 3071,
      "non": 3072,
      "náu": 3073,
      "oly": 3074,
      "sy": 3075,
      "tz": 3076,
      "tẻ": 3077,
      "way": 3078,
      "òm": 3079,
      "ngứa": 3080,
      "nhĩ": 3081,
      "chục": 3082,
      "chéo": 3083,
      "khan": 3084,
      "toa": 3085,
      "gic": 3086,
      "phước": 3087,
      "mac": 3088,
      "loween": 3089,
      "logic": 3090,
      "bot": 3091,
      "book": 3092,
      "thoáng": 3093,
      "phím": 3094,
      "rida": 3095,
      "kén": 3096,
      "sally": 3097,
      "caro": 3098,
      "cabin": 3099,
      "thìa": 3100,
      "195": 3101,
      "valen": 3102,
      "ted": 3103,
      "hilton": 3104,
      "huệ": 3105,
      "bổng": 3106,
      "oxy": 3107,
      "halloween": 3108,
      "kyushu": 3109,
      "mpic": 3110,
      "marathon": 3111,
      "olympic": 3112,
      "valentine": 3113,
      "bẩm": 3114,
      "củ": 3115,
      "canh": 3116,
      "cào": 3117,
      "cau": 3118,
      "dẻ": 3119,
      "ed": 3120,
      "gãi": 3121,
      "keo": 3122,
      "kẹp": 3123,
      "lít": 3124,
      "léo": 3125,
      "mâu": 3126,
      "nôi": 3127,
      "ninh": 3128,
      "rể": 3129,
      "vọt": 3130,
      "xay": 3131,
      "xót": 3132,
      "ât": 3133,
      "ùn": 3134,
      "úm": 3135,
      "ễng": 3136,
      "ngáp": 3137,
      "nhiếp": 3138,
      "chảo": 3139,
      "chen": 3140,
      "khập": 3141,
      "khéo": 3142,
      "tròng": 3143,
      "đãi": 3144,
      "phé": 3145,
      "khiễng": 3146,
      "tia": 3147,
      "uộng": 3148,
      "lum": 3149,
      "ine": 3150,
      "tuệ": 3151,
      "hãng": 3152,
      "cốt": 3153,
      "thuẫn": 3154,
      "chael": 3155,
      "michael": 3156,
      "sato": 3157,
      "cathy": 3158,
      "liền": 3159,
      "dar": 3160,
      "1960": 3161,
      "ele": 3162,
      "kenji": 3163,
      "face": 3164,
      "okina": 3165,
      "carbon": 3166,
      "kìa": 3167,
      "feet": 3168,
      "florida": 3169,
      "hanako": 3170,
      "lụa": 3171,
      "facebook": 3172,
      "bàng": 3173,
      "bập": 3174,
      "bina": 3175,
      "cm": 3176,
      "cành": 3177,
      "cưa": 3178,
      "cấu": 3179,
      "cồn": 3180,
      "cẩu": 3181,
      "dê": 3182,
      "dàn": 3183,
      "ei": 3184,
      "gắt": 3185,
      "gen": 3186,
      "gánh": 3187,
      "hố": 3188,
      "hắt": 3189,
      "ir": 3190,
      "két": 3191,
      "kel": 3192,
      "lột": 3193,
      "lượn": 3194,
      "lửng": 3195,
      "meo": 3196,
      "mài": 3197,
      "nới": 3198,
      "ol": 3199,
      "os": 3200,
      "ps": 3201,
      "rao": 3202,
      "rúc": 3203,
      "rụng": 3204,
      "rùa": 3205,
      "rles": 3206,
      "sững": 3207,
      "sấm": 3208,
      "tôm": 3209,
      "tỉa": 3210,
      "vẹt": 3211,
      "yến": 3212,
      "đế": 3213,
      "đai": 3214,
      "ệch": 3215,
      "khốc": 3216,
      "tre": 3217,
      "phẫn": 3218,
      "quãng": 3219,
      "nghẹn": 3220,
      "nhược": 3221,
      "ngoạc": 3222,
      "bus": 3223,
      "khoái": 3224,
      "charles": 3225,
      "diêm": 3226,
      "nguyền": 3227,
      "cock": 3228,
      "nguệch": 3229,
      "duỗi": 3230,
      "robot": 3231,
      "khía": 3232,
      "king": 3233,
      "shim": 3234,
      "một": 3235,
      "dược": 3236,
      "juku": 3237,
      "berlin": 3238,
      "shinjuku": 3239,
      "jessie": 3240,
      "henry": 3241,
      "brown": 3242,
      "carol": 3243,
      "okinawa": 3244,
      "150": 3245,
      "23": 3246,
      "33": 3247,
      "adam": 3248,
      "bel": 3249,
      "cla": 3250,
      "dí": 3251,
      "diệu": 3252,
      "dỏm": 3253,
      "fi": 3254,
      "gặt": 3255,
      "han": 3256,
      "hươ": 3257,
      "her": 3258,
      "hốt": 3259,
      "lây": 3260,
      "lánh": 3261,
      "lầy": 3262,
      "lót": 3263,
      "mồi": 3264,
      "mương": 3265,
      "mạt": 3266,
      "nêu": 3267,
      "rồng": 3268,
      "sướng": 3269,
      "sẫm": 3270,
      "tạ": 3271,
      "tỏi": 3272,
      "tặc": 3273,
      "ufo": 3274,
      "vo": 3275,
      "võ": 3276,
      "vin": 3277,
      "vượng": 3278,
      "vod": 3279,
      "xiếc": 3280,
      "xộn": 3281,
      "ộp": 3282,
      "ngặt": 3283,
      "ngạt": 3284,
      "nhàn": 3285,
      "chuộc": 3286,
      "thâm": 3287,
      "thép": 3288,
      "khái": 3289,
      "toét": 3290,
      "trữ": 3291,
      "trân": 3292,
      "trội": 3293,
      "giễu": 3294,
      "phơi": 3295,
      "quấn": 3296,
      "anne": 3297,
      "hoan": 3298,
      "mẹo": 3299,
      "bộn": 3300,
      "khoan": 3301,
      "mail": 3302,
      "rita": 3303,
      "tail": 3304,
      "cola": 3305,
      "colum": 3306,
      "gara": 3307,
      "gawa": 3308,
      "sal": 3309,
      "cả": 3310,
      "casso": 3311,
      "lie": 3312,
      "lisa": 3313,
      "liver": 3314,
      "sưng": 3315,
      "sườn": 3316,
      "picasso": 3317,
      "khuyết": 3318,
      "narita": 3319,
      "pop": 3320,
      "lee": 3321,
      "jacksons": 3322,
      "ffel": 3323,
      "lũy": 3324,
      "harry": 3325,
      "cựu": 3326,
      "wood": 3327,
      "wilson": 3328,
      "rìu": 3329,
      "thể": 3330,
      "hiroshima": 3331,
      "cocktail": 3332,
      "vodka": 3333,
      "35": 3334,
      "bẹ": 3335,
      "bệ": 3336,
      "banh": 3337,
      "bành": 3338,
      "băm": 3339,
      "cỗ": 3340,
      "cày": 3341,
      "dải": 3342,
      "dney": 3343,
      "gai": 3344,
      "hán": 3345,
      "hển": 3346,
      "hổn": 3347,
      "jer": 3348,
      "kề": 3349,
      "kin": 3350,
      "lăng": 3351,
      "lưới": 3352,
      "lia": 3353,
      "mr": 3354,
      "miện": 3355,
      "mưu": 3356,
      "nơ": 3357,
      "oz": 3358,
      "rơ": 3359,
      "rủ": 3360,
      "rủa": 3361,
      "ruy": 3362,
      "sấy": 3363,
      "sủng": 3364,
      "sney": 3365,
      "tâng": 3366,
      "ue": 3367,
      "vá": 3368,
      "vồng": 3369,
      "xích": 3370,
      "xắn": 3371,
      "ênh": 3372,
      "đạm": 3373,
      "̣i": 3374,
      "ngước": 3375,
      "nhã": 3376,
      "nhở": 3377,
      "nhồi": 3378,
      "nhói": 3379,
      "chổi": 3380,
      "chầm": 3381,
      "chược": 3382,
      "thừng": 3383,
      "thắc": 3384,
      "thính": 3385,
      "khiết": 3386,
      "khơi": 3387,
      "khâu": 3388,
      "khốn": 3389,
      "phật": 3390,
      "phích": 3391,
      "phái": 3392,
      "quấy": 3393,
      "quận": 3394,
      "chopin": 3395,
      "nhàu": 3396,
      "quát": 3397,
      "bara": 3398,
      "bur": 3399,
      "bow": 3400,
      "thun": 3401,
      "bén": 3402,
      "disney": 3403,
      "vịnh": 3404,
      "rio": 3405,
      "calo": 3406,
      "roe": 3407,
      "susie": 3408,
      "singa": 3409,
      "dãy": 3410,
      "cụt": 3411,
      "beng": 3412,
      "pore": 3413,
      "poker": 3414,
      "lex": 3415,
      "cuba": 3416,
      "nhiễu": 3417,
      "kumi": 3418,
      "xoa": 3419,
      "santa": 3420,
      "ngụy": 3421,
      "monroe": 3422,
      "1980": 3423,
      "vani": 3424,
      "yamada": 3425,
      "keiko": 3426,
      "hươu": 3427,
      "columbus": 3428,
      "rơm": 3429,
      "singapore": 3430,
      "27": 3431,
      "45": 3432,
      "ac": 3433,
      "alex": 3434,
      "by": 3435,
      "bóc": 3436,
      "bone": 3437,
      "còng": 3438,
      "cúc": 3439,
      "cối": 3440,
      "càu": 3441,
      "củi": 3442,
      "dỡ": 3443,
      "der": 3444,
      "dro": 3445,
      "ein": 3446,
      "gang": 3447,
      "gớm": 3448,
      "hăng": 3449,
      "hấu": 3450,
      "huyện": 3451,
      "ice": 3452,
      "iphone": 3453,
      "kr": 3454,
      "liếm": 3455,
      "lõng": 3456,
      "ms": 3457,
      "men": 3458,
      "mọt": 3459,
      "mbone": 3460,
      "nỉ": 3461,
      "nực": 3462,
      "oliver": 3463,
      "pp": 3464,
      "py": 3465,
      "rôi": 3466,
      "ray": 3467,
      "rạng": 3468,
      "res": 3469,
      "sờ": 3470,
      "sành": 3471,
      "sồi": 3472,
      "sâm": 3473,
      "sấu": 3474,
      "sũng": 3475,
      "tt": 3476,
      "tăm": 3477,
      "tạng": 3478,
      "ukr": 3479,
      "xạ": 3480,
      "ật": 3481,
      "đàng": 3482,
      "ềng": 3483,
      "ngả": 3484,
      "ngục": 3485,
      "ngẫm": 3486,
      "chẩn": 3487,
      "chộp": 3488,
      "toi": 3489,
      "đãng": 3490,
      "gieo": 3491,
      "phào": 3492,
      "taka": 3493,
      "qui": 3494,
      "nghiến": 3495,
      "nghênh": 3496,
      "uya": 3497,
      "ono": 3498,
      "hoo": 3499,
      "loa": 3500,
      "loanh": 3501,
      "enna": 3502,
      "ngủi": 3503,
      "chiko": 3504,
      "ghép": 3505,
      "dison": 3506,
      "vịt": 3507,
      "yoshi": 3508,
      "đoái": 3509,
      "niêm": 3510,
      "nick": 3511,
      "miss": 3512,
      "cal": 3513,
      "lyn": 3514,
      "liam": 3515,
      "thủng": 3516,
      "thich": 3517,
      "est": 3518,
      "leon": 3519,
      "jill": 3520,
      "teresa": 3521,
      "paulo": 3522,
      "naoko": 3523,
      "marika": 3524,
      "1990": 3525,
      "trombone": 3526,
      "llywood": 3527,
      "massa": 3528,
      "xẻng": 3529,
      "emily": 3530,
      "jesus": 3531,
      "william": 3532,
      "gram": 3533,
      "cello": 3534,
      "eliza": 3535,
      "mp3": 3536,
      "sydney": 3537,
      "kelly": 3538,
      "adams": 3539,
      "bowling": 3540,
      "ukrai": 3541,
      "36": 3542,
      "65": 3543,
      "99": 3544,
      "asa": 3545,
      "bền": 3546,
      "bọc": 3547,
      "bớt": 3548,
      "cra": 3549,
      "dĩa": 3550,
      "fla": 3551,
      "góa": 3552,
      "gỏng": 3553,
      "gre": 3554,
      "hô": 3555,
      "hàu": 3556,
      "hách": 3557,
      "héo": 3558,
      "ira": 3559,
      "ichi": 3560,
      "lk": 3561,
      "lút": 3562,
      "mel": 3563,
      "mứt": 3564,
      "nã": 3565,
      "nor": 3566,
      "oto": 3567,
      "pen": 3568,
      "rễ": 3569,
      "rùng": 3570,
      "rách": 3571,
      "rât": 3572,
      "st": 3573,
      "sừng": 3574,
      "sập": 3575,
      "são": 3576,
      "swi": 3577,
      "túp": 3578,
      "tạt": 3579,
      "tóm": 3580,
      "vú": 3581,
      "vả": 3582,
      "vất": 3583,
      "vựng": 3584,
      "xứ": 3585,
      "xao": 3586,
      "xon": 3587,
      "đè": 3588,
      "đê": 3589,
      "đầm": 3590,
      "̉n": 3591,
      "ịt": 3592,
      "ổng": 3593,
      "ngài": 3594,
      "ngán": 3595,
      "nhủ": 3596,
      "chửi": 3597,
      "chốt": 3598,
      "chĩa": 3599,
      "the": 3600,
      "thọ": 3601,
      "thiển": 3602,
      "toạc": 3603,
      "trọ": 3604,
      "gin": 3605,
      "phiến": 3606,
      "điêu": 3607,
      "tani": 3608,
      "quỵ": 3609,
      "quỷ": 3610,
      "mania": 3611,
      "tiêm": 3612,
      "hollywood": 3613,
      "tulip": 3614,
      "buồm": 3615,
      "chiêm": 3616,
      "ghim": 3617,
      "ghiếc": 3618,
      "thuổng": 3619,
      "chói": 3620,
      "xuồng": 3621,
      "nik": 3622,
      "nit": 3623,
      "nixon": 3624,
      "vis": 3625,
      "vienna": 3626,
      "philip": 3627,
      "mill": 3628,
      "com": 3629,
      "soda": 3630,
      "gal": 3631,
      "caesa": 3632,
      "david": 3633,
      "thiền": 3634,
      "kawa": 3635,
      "ckin": 3636,
      "xide": 3637,
      "vươn": 3638,
      "pat": 3639,
      "wal": 3640,
      "phải": 3641,
      "huynh": 3642,
      "yaki": 3643,
      "được": 3644,
      "sendai": 3645,
      "venice": 3646,
      "elena": 3647,
      "hebre": 3648,
      "rìa": 3649,
      "1939": 3650,
      "akiko": 3651,
      "đệm": 3652,
      "darwin": 3653,
      "elizabeth": 3654,
      "miller": 3655,
      "caesar": 3656,
      "hebrew": 3657,
      "29": 3658,
      "ah": 3659,
      "axi": 3660,
      "alas": 3661,
      "bọt": 3662,
      "bưởi": 3663,
      "cr": 3664,
      "cọ": 3665,
      "cin": 3666,
      "cúng": 3667,
      "cri": 3668,
      "dra": 3669,
      "dứa": 3670,
      "ep": 3671,
      "era": 3672,
      "eri": 3673,
      "ever": 3674,
      "gle": 3675,
      "ito": 3676,
      "ita": 3677,
      "itu": 3678,
      "ica": 3679,
      "jen": 3680,
      "kone": 3681,
      "lè": 3682,
      "lề": 3683,
      "lọ": 3684,
      "lảo": 3685,
      "lọc": 3686,
      "lốc": 3687,
      "lõi": 3688,
      "mạ": 3689,
      "mui": 3690,
      "mặn": 3691,
      "mịn": 3692,
      "mckin": 3693,
      "neo": 3694,
      "nức": 3695,
      "nếp": 3696,
      "nấc": 3697,
      "nốt": 3698,
      "ogo": 3699,
      "ruộng": 3700,
      "sỉ": 3701,
      "sảo": 3702,
      "sọc": 3703,
      "stra": 3704,
      "ser": 3705,
      "stan": 3706,
      "tuốc": 3707,
      "tsuy": 3708,
      "ura": 3709,
      "vác": 3710,
      "vụng": 3711,
      "viếng": 3712,
      "vcr": 3713,
      "wer": 3714,
      "xỏ": 3715,
      "xửa": 3716,
      "zo": 3717,
      "íu": 3718,
      "đên": 3719,
      "đòn": 3720,
      "đút": 3721,
      "đụng": 3722,
      "đứt": 3723,
      "ẩng": 3724,
      "ngầu": 3725,
      "ngẩng": 3726,
      "nhị": 3727,
      "nhột": 3728,
      "nhúng": 3729,
      "nhấm": 3730,
      "nháp": 3731,
      "nhòm": 3732,
      "chích": 3733,
      "chinh": 3734,
      "chợp": 3735,
      "thây": 3736,
      "thật": 3737,
      "khay": 3738,
      "toyo": 3739,
      "trâu": 3740,
      "trút": 3741,
      "phì": 3742,
      "tao": 3743,
      "nghếch": 3744,
      "nghẹt": 3745,
      "mani": 3746,
      "mark": 3747,
      "luis": 3748,
      "ngoạn": 3749,
      "quáng": 3750,
      "ball": 3751,
      "basso": 3752,
      "lor": 3753,
      "loui": 3754,
      "taylor": 3755,
      "khoáng": 3756,
      "dor": 3757,
      "hyogo": 3758,
      "dia": 3759,
      "ding": 3760,
      "joan": 3761,
      "jord": 3762,
      "niềng": 3763,
      "vil": 3764,
      "colo": 3765,
      "coca": 3766,
      "cocai": 3767,
      "gar": 3768,
      "sara": 3769,
      "saki": 3770,
      "saxo": 3771,
      "sachiko": 3772,
      "banjo": 3773,
      "lis": 3774,
      "romeo": 3775,
      "karen": 3776,
      "nedy": 3777,
      "sue": 3778,
      "hổng": 3779,
      "kennedy": 3780,
      "ander": 3781,
      "tequi": 3782,
      "naga": 3783,
      "napo": 3784,
      "ette": 3785,
      "hakone": 3786,
      "beat": 3787,
      "bill": 3788,
      "dioxide": 3789,
      "laura": 3790,
      "peso": 3791,
      "xoăn": 3792,
      "xoáy": 3793,
      "muôn": 3794,
      "184": 3795,
      "paula": 3796,
      "2003": 3797,
      "monica": 3798,
      "frank": 3799,
      "1998": 3800,
      "istan": 3801,
      "brid": 3802,
      "stein": 3803,
      "lays": 3804,
      "juliet": 3805,
      "karate": 3806,
      "cảm": 3807,
      "kini": 3808,
      "disneyland": 3809,
      "massage": 3810,
      "ukraine": 3811,
      "flash": 3812,
      "iraq": 3813,
      "axit": 3814,
      "alaska": 3815,
      "itub": 3816,
      "jenny": 3817,
      "mckinley": 3818,
      "toyota": 3819,
      "bassoon": 3820,
      "jordan": 3821,
      "cocaine": 3822,
      "saxophone": 3823,
      "tequila": 3824,
      "napoleon": 3825,
      "beatles": 3826,
      "21": 3827,
      "28": 3828,
      "38": 3829,
      "400": 3830,
      "64": 3831,
      "800": 3832,
      "90": 3833,
      "97": 3834,
      "af": 3835,
      "bc": 3836,
      "băn": 3837,
      "bục": 3838,
      "bạch": 3839,
      "bru": 3840,
      "cua": 3841,
      "cẩm": 3842,
      "clin": 3843,
      "clau": 3844,
      "cằn": 3845,
      "cõng": 3846,
      "ds": 3847,
      "dinh": 3848,
      "del": 3849,
      "dụi": 3850,
      "dding": 3851,
      "edison": 3852,
      "fer": 3853,
      "gán": 3854,
      "gano": 3855,
      "hông": 3856,
      "hong": 3857,
      "hon": 3858,
      "hắng": 3859,
      "hạc": 3860,
      "hĩnh": 3861,
      "hợm": 3862,
      "hùm": 3863,
      "kông": 3864,
      "kong": 3865,
      "lân": 3866,
      "lứa": 3867,
      "lim": 3868,
      "lậu": 3869,
      "lùn": 3870,
      "lele": 3871,
      "mụ": 3872,
      "mút": 3873,
      "miệt": 3874,
      "mer": 3875,
      "nần": 3876,
      "nàng": 3877,
      "nớt": 3878,
      "nuông": 3879,
      "ot": 3880,
      "oba": 3881,
      "pra": 3882,
      "ppo": 3883,
      "rô": 3884,
      "ron": 3885,
      "rít": 3886,
      "rám": 3887,
      "sburg": 3888,
      "selena": 3889,
      "tông": 3890,
      "tanh": 3891,
      "tọa": 3892,
      "uen": 3893,
      "uku": 3894,
      "vê": 3895,
      "vuốt": 3896,
      "vùi": 3897,
      "xỉ": 3898,
      "xôi": 3899,
      "xâu": 3900,
      "zon": 3901,
      "êt": 3902,
      "óe": 3903,
      "đung": 3904,
      "đốm": 3905,
      "̣y": 3906,
      "̣nh": 3907,
      "ẳm": 3908,
      "ốp": 3909,
      "ngơ": 3910,
      "nguộ": 3911,
      "ngợp": 3912,
      "ngậm": 3913,
      "nhỉ": 3914,
      "nhích": 3915,
      "nhức": 3916,
      "nhúc": 3917,
      "nhọn": 3918,
      "nhằm": 3919,
      "nhũng": 3920,
      "chui": 3921,
      "chốc": 3922,
      "chợt": 3923,
      "chuộng": 3924,
      "thình": 3925,
      "thấm": 3926,
      "thốt": 3927,
      "thẳm": 3928,
      "khử": 3929,
      "khôi": 3930,
      "trát": 3931,
      "trọn": 3932,
      "trùm": 3933,
      "giũ": 3934,
      "giang": 3935,
      "giăm": 3936,
      "giun": 3937,
      "tango": 3938,
      "quạ": 3939,
      "quế": 3940,
      "quất": 3941,
      "quật": 3942,
      "quàng": 3943,
      "quạt": 3944,
      "cáp": 3945,
      "aoi": 3946,
      "rap": 3947,
      "ankara": 3948,
      "titani": 3949,
      "tina": 3950,
      "inca": 3951,
      "ngoãn": 3952,
      "tựu": 3953,
      "bour": 3954,
      "chip": 3955,
      "ghề": 3956,
      "dow": 3957,
      "dion": 3958,
      "chuồn": 3959,
      "you": 3960,
      "nie": 3961,
      "johnny": 3962,
      "ming": 3963,
      "sappo": 3964,
      "caff": 3965,
      "duffel": 3966,
      "liu": 3967,
      "rosa": 3968,
      "romania": 3969,
      "kabu": 3970,
      "suôn": 3971,
      "sumo": 3972,
      "vard": 3973,
      "gom": 3974,
      "goo": 3975,
      "anderson": 3976,
      "khuynh": 3977,
      "hack": 3978,
      "camera": 3979,
      "shizu": 3980,
      "rea": 3981,
      "rey": 3982,
      "biwa": 3983,
      "bikini": 3984,
      "pochi": 3985,
      "rgen": 3986,
      "zawa": 3987,
      "barbara": 3988,
      "khứu": 3989,
      "kura": 3990,
      "xoắn": 3991,
      "fuku": 3992,
      "juan": 3993,
      "180": 3994,
      "ilton": 3995,
      "hamster": 3996,
      "hamilton": 3997,
      "mona": 3998,
      "mario": 3999,
      "1970": 4000,
      "1972": 4001,
      "rinet": 4002,
      "harvard": 4003,
      "wow": 4004,
      "wooz": 4005,
      "zuki": 4006,
      "atlan": 4007,
      "amazon": 4008,
      "oxford": 4009,
      "steve": 4010,
      "pudding": 4011,
      "1945": 4012,
      "clarinet": 4013,
      "burr": 4014,
      "alexander": 4015,
      "einstein": 4016,
      "craft": 4017,
      "norway": 4018,
      "nikko": 4019,
      "gallon": 4020,
      "tsuyama": 4021,
      "manila": 4022,
      "ville": 4023,
      "franklin": 4024,
      "obama": 4025,
      "ueno": 4026,
      "ukulele": 4027,
      "nguội": 4028,
      "titanic": 4029,
      "sapporo": 4030,
      "shizuoka": 4031,
      "woozy": 4032,
      "120": 4033,
      "250": 4034,
      "31": 4035,
      "48": 4036,
      "53": 4037,
      "76": 4038,
      "ak": 4039,
      "argen": 4040,
      "bú": 4041,
      "bẻ": 4042,
      "bỉ": 4043,
      "bẹp": 4044,
      "bói": 4045,
      "bran": 4046,
      "buya": 4047,
      "cộ": 4048,
      "cằm": 4049,
      "cùn": 4050,
      "dè": 4051,
      "dế": 4052,
      "dạn": 4053,
      "dặt": 4054,
      "dệt": 4055,
      "dừa": 4056,
      "diếp": 4057,
      "dâng": 4058,
      "ex": 4059,
      "eva": 4060,
      "gỉ": 4061,
      "gua": 4062,
      "hân": 4063,
      "hợt": 4064,
      "isa": 4065,
      "ike": 4066,
      "izu": 4067,
      "ium": 4068,
      "kép": 4069,
      "lự": 4070,
      "lảng": 4071,
      "lẩm": 4072,
      "lọt": 4073,
      "lộng": 4074,
      "lẫy": 4075,
      "lỏm": 4076,
      "mc": 4077,
      "mĩ": 4078,
      "miên": 4079,
      "mốc": 4080,
      "mẩu": 4081,
      "năn": 4082,
      "nin": 4083,
      "núng": 4084,
      "noi": 4085,
      "núm": 4086,
      "obo": 4087,
      "pres": 4088,
      "rn": 4089,
      "rú": 4090,
      "rong": 4091,
      "rón": 4092,
      "rén": 4093,
      "rdion": 4094,
      "sọ": 4095,
      "sto": 4096,
      "siết": 4097,
      "sởi": 4098,
      "sụt": 4099,
      "tớ": 4100,
      "tto": 4101,
      "tấu": 4102,
      "táng": 4103,
      "tấc": 4104,
      "twi": 4105,
      "tter": 4106,
      "tụt": 4107,
      "ul": 4108,
      "up": 4109,
      "vạ": 4110,
      "vơi": 4111,
      "vát": 4112,
      "vóc": 4113,
      "vạch": 4114,
      "vẹo": 4115,
      "xước": 4116,
      "xưởng": 4117,
      "xấc": 4118,
      "xược": 4119,
      "xịt": 4120,
      "zi": 4121,
      "ệc": 4122,
      "ăc": 4123,
      "đày": 4124,
      "đắc": 4125,
      "đản": 4126,
      "đậy": 4127,
      "đẩu": 4128,
      "đặn": 4129,
      "đùi": 4130,
      "đợt": 4131,
      "ẽn": 4132,
      "ỡn": 4133,
      "ngâm": 4134,
      "ngòi": 4135,
      "nhào": 4136,
      "nhím": 4137,
      "chừa": 4138,
      "chậu": 4139,
      "thệ": 4140,
      "thầu": 4141,
      "thau": 4142,
      "thạc": 4143,
      "khe": 4144,
      "tràng": 4145,
      "trụi": 4146,
      "troi": 4147,
      "giở": 4148,
      "giông": 4149,
      "giòn": 4150,
      "gium": 4151,
      "giỡn": 4152,
      "phu": 4153,
      "phao": 4154,
      "tab": 4155,
      "tak": 4156,
      "tas": 4157,
      "take": 4158,
      "quẫn": 4159,
      "nghẽn": 4160,
      "masa": 4161,
      "malays": 4162,
      "matsuyama": 4163,
      "martin": 4164,
      "marco": 4165,
      "anna": 4166,
      "anistan": 4167,
      "xedo": 4168,
      "bịp": 4169,
      "lung": 4170,
      "inna": 4171,
      "ngoáy": 4172,
      "tuông": 4173,
      "tuột": 4174,
      "tuxedo": 4175,
      "haiti": 4176,
      "bag": 4177,
      "bal": 4178,
      "bass": 4179,
      "bush": 4180,
      "loát": 4181,
      "cũi": 4182,
      "khoăn": 4183,
      "ghanistan": 4184,
      "doue": 4185,
      "ime": 4186,
      "vụn": 4187,
      "xuôi": 4188,
      "lẽo": 4189,
      "nile": 4190,
      "via": 4191,
      "cordion": 4192,
      "khuân": 4193,
      "sada": 4194,
      "sasay": 4195,
      "sake": 4196,
      "cara": 4197,
      "roland": 4198,
      "robin": 4199,
      "mũm": 4200,
      "kar": 4201,
      "kato": 4202,
      "kata": 4203,
      "karao": 4204,
      "nea": 4205,
      "véo": 4206,
      "koku": 4207,
      "suki": 4208,
      "suzuki": 4209,
      "190": 4210,
      "1950": 4211,
      "pal": 4212,
      "eland": 4213,
      "gome": 4214,
      "kevin": 4215,
      "nagano": 4216,
      "hat": 4217,
      "hashim": 4218,
      "hakata": 4219,
      "shibuya": 4220,
      "shikoku": 4221,
      "bee": 4222,
      "tôt": 4223,
      "led": 4224,
      "taninna": 4225,
      "2010": 4226,
      "2013": 4227,
      "pep": 4228,
      "pedro": 4229,
      "zart": 4230,
      "ois": 4231,
      "huyền": 4232,
      "jeep": 4233,
      "kuni": 4234,
      "julia": 4235,
      "illin": 4236,
      "moto": 4237,
      "mori": 4238,
      "mosco": 4239,
      "mozart": 4240,
      "mãnh": 4241,
      "detroi": 4242,
      "naomi": 4243,
      "carlos": 4244,
      "marilyn": 4245,
      "truman": 4246,
      "samu": 4247,
      "scott": 4248,
      "kanji": 4249,
      "hitler": 4250,
      "1969": 4251,
      "keio": 4252,
      "julie": 4253,
      "akira": 4254,
      "guchi": 4255,
      "window": 4256,
      "eiffel": 4257,
      "geneva": 4258,
      "ireland": 4259,
      "belgium": 4260,
      "accordion": 4261,
      "pple": 4262,
      "hoover": 4263,
      "asahi": 4264,
      "everest": 4265,
      "nagasaki": 4266,
      "afghanistan": 4267,
      "clinton": 4268,
      "claus": 4269,
      "limo": 4270,
      "kabuki": 4271,
      "google": 4272,
      "reagan": 4273,
      "fukuoka": 4274,
      "ikeda": 4275,
      "mĩm": 4276,
      "oboe": 4277,
      "malaysia": 4278,
      "douecraft": 4279,
      "sadako": 4280,
      "sasayama": 4281,
      "karaoke": 4282,
      "gomez": 4283,
      "hashimoto": 4284,
      "moscow": 4285,
      "detroit": 4286,
      "windows": 4287,
      "110": 4288,
      "160": 4289,
      "26": 4290,
      "39": 4291,
      "55": 4292,
      "68": 4293,
      "600": 4294,
      "73": 4295,
      "aka": 4296,
      "alan": 4297,
      "abra": 4298,
      "apple": 4299,
      "bs": 4300,
      "blu": 4301,
      "búng": 4302,
      "bùa": 4303,
      "bón": 4304,
      "cn": 4305,
      "ceo": 4306,
      "cấy": 4307,
      "clu": 4308,
      "cọc": 4309,
      "cạp": 4310,
      "cer": 4311,
      "cộc": 4312,
      "dò": 4313,
      "dời": 4314,
      "dồn": 4315,
      "dượng": 4316,
      "dri": 4317,
      "dãi": 4318,
      "dẫm": 4319,
      "edo": 4320,
      "fl": 4321,
      "fin": 4322,
      "gồ": 4323,
      "gừ": 4324,
      "gươ": 4325,
      "gượng": 4326,
      "gốm": 4327,
      "hê": 4328,
      "hao": 4329,
      "hắn": 4330,
      "hạch": 4331,
      "hime": 4332,
      "ie": 4333,
      "ii": 4334,
      "iro": 4335,
      "iji": 4336,
      "iran": 4337,
      "jay": 4338,
      "kay": 4339,
      "kền": 4340,
      "kle": 4341,
      "ld": 4342,
      "lặt": 4343,
      "lla": 4344,
      "lli": 4345,
      "lằn": 4346,
      "mề": 4347,
      "mổ": 4348,
      "mông": 4349,
      "mọng": 4350,
      "mca": 4351,
      "mes": 4352,
      "mbi": 4353,
      "mor": 4354,
      "mina": 4355,
      "nu": 4356,
      "nẻ": 4357,
      "nướ": 4358,
      "nài": 4359,
      "nêm": 4360,
      "nặc": 4361,
      "nạng": 4362,
      "ohi": 4363,
      "ogawa": 4364,
      "pt": 4365,
      "pro": 4366,
      "pana": 4367,
      "ré": 4368,
      "rải": 4369,
      "rình": 4370,
      "ráo": 4371,
      "rương": 4372,
      "rgia": 4373,
      "rệt": 4374,
      "rưởi": 4375,
      "rúm": 4376,
      "str": 4377,
      "sỏi": 4378,
      "sùng": 4379,
      "sấp": 4380,
      "spi": 4381,
      "ssi": 4382,
      "set": 4383,
      "sứt": 4384,
      "sse": 4385,
      "ts": 4386,
      "tton": 4387,
      "tọc": 4388,
      "tele": 4389,
      "ux": 4390,
      "vu": 4391,
      "vắc": 4392,
      "vung": 4393,
      "vượn": 4394,
      "wang": 4395,
      "yết": 4396,
      "yếm": 4397,
      "zai": 4398,
      "ậy": 4399,
      "ổi": 4400,
      "ún": 4401,
      "ăt": 4402,
      "đay": 4403,
      "đực": 4404,
      "đúp": 4405,
      "ĩu": 4406,
      "̣ng": 4407,
      "ọp": 4408,
      "ờm": 4409,
      "ngai": 4410,
      "ngượng": 4411,
      "nhô": 4412,
      "nhón": 4413,
      "nhảm": 4414,
      "nhẹn": 4415,
      "nhờn": 4416,
      "nhằn": 4417,
      "nhíu": 4418,
      "chan": 4419,
      "chài": 4420,
      "chin": 4421,
      "chùa": 4422,
      "chạp": 4423,
      "chướng": 4424,
      "chel": 4425,
      "chùm": 4426,
      "chòm": 4427,
      "thét": 4428,
      "ther": 4429,
      "thằn": 4430,
      "khàn": 4431,
      "tor": 4432,
      "toái": 4433,
      "toát": 4434,
      "trơ": 4435,
      "trệ": 4436,
      "trỏ": 4437,
      "triệt": 4438,
      "trầy": 4439,
      "cóng": 4440,
      "giẻ": 4441,
      "giup": 4442,
      "phe": 4443,
      "phà": 4444,
      "phế": 4445,
      "phai": 4446,
      "taj": 4447,
      "tam": 4448,
      "taro": 4449,
      "tahi": 4450,
      "choạng": 4451,
      "choles": 4452,
      "nghai": 4453,
      "matsu": 4454,
      "rari": 4455,
      "ans": 4456,
      "tip": 4457,
      "tis": 4458,
      "tian": 4459,
      "ona": 4460,
      "sáp": 4461,
      "họ": 4462,
      "ino": 4463,
      "int": 4464,
      "tube": 4465,
      "hãnh": 4466,
      "back": 4467,
      "tựa": 4468,
      "bul": 4469,
      "bun": 4470,
      "buck": 4471,
      "loạng": 4472,
      "loãng": 4473,
      "boa": 4474,
      "boy": 4475,
      "boong": 4476,
      "ens": 4477,
      "chỉ": 4478,
      "giáp": 4479,
      "trailer": 4480,
      "thoi": 4481,
      "thoven": 4482,
      "dori": 4483,
      "amster": 4484,
      "chard": 4485,
      "hydro": 4486,
      "hydra": 4487,
      "lap": 4488,
      "riko": 4489,
      "richard": 4490,
      "jose": 4491,
      "chuck": 4492,
      "yoga": 4493,
      "nies": 4494,
      "niken": 4495,
      "việc": 4496,
      "miêu": 4497,
      "miso": 4498,
      "milan": 4499,
      "milton": 4500,
      "midori": 4501,
      "cob": 4502,
      "cotton": 4503,
      "tệp": 4504,
      "sashim": 4505,
      "cap": 4506,
      "cass": 4507,
      "bíp": 4508,
      "roc": 4509,
      "davis": 4510,
      "dazai": 4511,
      "thiêng": 4512,
      "pip": 4513,
      "kathy": 4514,
      "phủi": 4515,
      "cket": 4516,
      "ned": 4517,
      "vũng": 4518,
      "sher": 4519,
      "koko": 4520,
      "kosher": 4521,
      "1940": 4522,
      "trừu": 4523,
      "patin": 4524,
      "patri": 4525,
      "ellan": 4526,
      "ellie": 4527,
      "sit": 4528,
      "sibe": 4529,
      "lệch": 4530,
      "goro": 4531,
      "andy": 4532,
      "andre": 4533,
      "guinea": 4534,
      "newton": 4535,
      "lina": 4536,
      "rum": 4537,
      "cambrid": 4538,
      "shiro": 4539,
      "kimono": 4540,
      "bị": 4541,
      "pod": 4542,
      "point": 4543,
      "cus": 4544,
      "zaki": 4545,
      "pines": 4546,
      "terol": 4547,
      "trìu": 4548,
      "ald": 4549,
      "als": 4550,
      "albert": 4551,
      "dones": 4552,
      "donna": 4553,
      "hưng": 4554,
      "1853": 4555,
      "senho": 4556,
      "georgia": 4557,
      "ffy": 4558,
      "berg": 4559,
      "2001": 4560,
      "123": 4561,
      "degas": 4562,
      "urai": 4563,
      "naoki": 4564,
      "mariko": 4565,
      "1987": 4566,
      "1989": 4567,
      "1992": 4568,
      "1997": 4569,
      "shanghai": 4570,
      "shinano": 4571,
      "samurai": 4572,
      "usd": 4573,
      "jamin": 4574,
      "kerry": 4575,
      "perry": 4576,
      "rence": 4577,
      "vene": 4578,
      "kanda": 4579,
      "feli": 4580,
      "folk": 4581,
      "graham": 4582,
      "benjamin": 4583,
      "1964": 4584,
      "brownies": 4585,
      "gue": 4586,
      "dennis": 4587,
      "denmark": 4588,
      "tzer": 4589,
      "eisenho": 4590,
      "irs": 4591,
      "green": 4592,
      "ichiro": 4593,
      "ginza": 4594,
      "philippines": 4595,
      "patty": 4596,
      "cricket": 4597,
      "ballet": 4598,
      "louis": 4599,
      "sarah": 4600,
      "bruce": 4601,
      "ferrari": 4602,
      "youtube": 4603,
      "atlanta": 4604,
      "argentina": 4605,
      "ulette": 4606,
      "takuya": 4607,
      "sukiyaki": 4608,
      "beethoven": 4609,
      "abraham": 4610,
      "cnn": 4611,
      "finland": 4612,
      "gươm": 4613,
      "nướu": 4614,
      "ohio": 4615,
      "panama": 4616,
      "tahiti": 4617,
      "cholesterol": 4618,
      "amsterdam": 4619,
      "sashimi": 4620,
      "siberia": 4621,
      "cambridge": 4622,
      "folks": 4623,
      "eisenhower": 4624,
      "1000": 4625,
      "32": 4626,
      "42": 4627,
      "46": 4628,
      "52": 4629,
      "54": 4630,
      "91": 4631,
      "95": 4632,
      "96": 4633,
      "911": 4634,
      "ath": 4635,
      "adi": 4636,
      "aso": 4637,
      "aar": 4638,
      "atia": 4639,
      "abc": 4640,
      "bá": 4641,
      "blo": 4642,
      "bổn": 4643,
      "búi": 4644,
      "bla": 4645,
      "bạt": 4646,
      "bầy": 4647,
      "buốt": 4648,
      "bẩy": 4649,
      "bỗng": 4650,
      "bber": 4651,
      "bbc": 4652,
      "băt": 4653,
      "cl": 4654,
      "cút": 4655,
      "cen": 4656,
      "cồng": 4657,
      "cillin": 4658,
      "dj": 4659,
      "dấy": 4660,
      "dồi": 4661,
      "dạt": 4662,
      "dson": 4663,
      "dna": 4664,
      "ebay": 4665,
      "ela": 4666,
      "ethi": 4667,
      "eine": 4668,
      "fia": 4669,
      "gg": 4670,
      "gay": 4671,
      "gọng": 4672,
      "gga": 4673,
      "gun": 4674,
      "getty": 4675,
      "gemi": 4676,
      "gps": 4677,
      "hú": 4678,
      "hủ": 4679,
      "hất": 4680,
      "hấn": 4681,
      "hel": 4682,
      "hine": 4683,
      "io": 4684,
      "iv": 4685,
      "ing": 4686,
      "iri": 4687,
      "iso": 4688,
      "iko": 4689,
      "iel": 4690,
      "ipod": 4691,
      "icillin": 4692,
      "kỵ": 4693,
      "kao": 4694,
      "kon": 4695,
      "klu": 4696,
      "lữ": 4697,
      "lanh": 4698,
      "lỏi": 4699,
      "lán": 4700,
      "lâm": 4701,
      "lem": 4702,
      "lách": 4703,
      "llas": 4704,
      "líu": 4705,
      "lóe": 4706,
      "mí": 4707,
      "mận": 4708,
      "măng": 4709,
      "mbo": 4710,
      "mầm": 4711,
      "mảng": 4712,
      "mượt": 4713,
      "mbia": 4714,
      "mồm": 4715,
      "moi": 4716,
      "nòng": 4717,
      "nập": 4718,
      "nạc": 4719,
      "nọc": 4720,
      "ner": 4721,
      "ntt": 4722,
      "op": 4723,
      "oin": 4724,
      "ori": 4725,
      "oko": 4726,
      "ole": 4727,
      "over": 4728,
      "osamu": 4729,
      "pao": 4730,
      "pan": 4731,
      "pca": 4732,
      "rê": 4733,
      "rợ": 4734,
      "rạn": 4735,
      "ròng": 4736,
      "rạc": 4737,
      "rsi": 4738,
      "rhine": 4739,
      "sp": 4740,
      "sê": 4741,
      "sò": 4742,
      "sầu": 4743,
      "sòng": 4744,
      "sục": 4745,
      "sút": 4746,
      "sặc": 4747,
      "sni": 4748,
      "stro": 4749,
      "scri": 4750,
      "tứ": 4751,
      "tấp": 4752,
      "twai": 4753,
      "tât": 4754,
      "tóe": 4755,
      "tĩu": 4756,
      "uchi": 4757,
      "ube": 4758,
      "vò": 4759,
      "vỉ": 4760,
      "vảy": 4761,
      "vạng": 4762,
      "vẹn": 4763,
      "vằn": 4764,
      "vòm": 4765,
      "vest": 4766,
      "vậy": 4767,
      "wking": 4768,
      "xù": 4769,
      "xơ": 4770,
      "xua": 4771,
      "xvi": 4772,
      "xỉu": 4773,
      "xốp": 4774,
      "yan": 4775,
      "ymca": 4776,
      "zen": 4777,
      "ận": 4778,
      "ém": 4779,
      "ện": 4780,
      "ộc": 4781,
      "đơ": 4782,
      "đẽ": 4783,
      "đọng": 4784,
      "đốn": 4785,
      "̉y": 4786,
      "̣p": 4787,
      "ỳnh": 4788,
      "ngừ": 4789,
      "ngác": 4790,
      "ngươi": 4791,
      "ngỗng": 4792,
      "nhó": 4793,
      "nhang": 4794,
      "nhóc": 4795,
      "nhòa": 4796,
      "nhúm": 4797,
      "nhún": 4798,
      "chả": 4799,
      "chao": 4800,
      "chọi": 4801,
      "chấu": 4802,
      "chớm": 4803,
      "chẵn": 4804,
      "chạng": 4805,
      "chèn": 4806,
      "chưng": 4807,
      "chém": 4808,
      "thêu": 4809,
      "thấu": 4810,
      "thịch": 4811,
      "thiếc": 4812,
      "khống": 4813,
      "khiếm": 4814,
      "top": 4815,
      "tow": 4816,
      "toshi": 4817,
      "trâm": 4818,
      "trặc": 4819,
      "trệt": 4820,
      "gie": 4821,
      "gio": 4822,
      "giương": 4823,
      "giấm": 4824,
      "giòi": 4825,
      "phỉ": 4826,
      "phịch": 4827,
      "phiếm": 4828,
      "phẩy": 4829,
      "nóc": 4830,
      "tama": 4831,
      "tami": 4832,
      "tatoe": 4833,
      "tamori": 4834,
      "quăng": 4835,
      "gìn": 4836,
      "côla": 4837,
      "mag": 4838,
      "masao": 4839,
      "mahal": 4840,
      "madison": 4841,
      "madri": 4842,
      "madonna": 4843,
      "martha": 4844,
      "marcus": 4845,
      "rata": 4846,
      "rado": 4847,
      "ramu": 4848,
      "any": 4849,
      "ania": 4850,
      "anthon": 4851,
      "tion": 4852,
      "nhin": 4853,
      "oni": 4854,
      "austra": 4855,
      "hoi": 4856,
      "homa": 4857,
      "tinium": 4858,
      "luồng": 4859,
      "lucia": 4860,
      "ngoặt": 4861,
      "ngoặc": 4862,
      "tuôn": 4863,
      "turn": 4864,
      "tuổi": 4865,
      "haiku": 4866,
      "ươc": 4867,
      "bugi": 4868,
      "buren": 4869,
      "loan": 4870,
      "boo": 4871,
      "bohydra": 4872,
      "khoẻ": 4873,
      "emy": 4874,
      "ght": 4875,
      "dora": 4876,
      "amp": 4877,
      "amy": 4878,
      "thur": 4879,
      "imba": 4880,
      "bốt": 4881,
      "hybrid": 4882,
      "die": 4883,
      "dies": 4884,
      "dium": 4885,
      "kếp": 4886,
      "lacro": 4887,
      "lại": 4888,
      "lahoma": 4889,
      "rich": 4890,
      "rius": 4891,
      "ritz": 4892,
      "rilyn": 4893,
      "thames": 4894,
      "đoạt": 4895,
      "miho": 4896,
      "cole": 4897,
      "soft": 4898,
      "gab": 4899,
      "gali": 4900,
      "ngủ": 4901,
      "khuẩn": 4902,
      "sas": 4903,
      "sach": 4904,
      "suyễn": 4905,
      "cata": 4906,
      "liz": 4907,
      "liễu": 4908,
      "maya": 4909,
      "sự": 4910,
      "lạch": 4911,
      "roi": 4912,
      "roy": 4913,
      "lườm": 4914,
      "das": 4915,
      "kari": 4916,
      "kako": 4917,
      "kitô": 4918,
      "kipe": 4919,
      "kistan": 4920,
      "escu": 4921,
      "ester": 4922,
      "suke": 4923,
      "java": 4924,
      "par": 4925,
      "pakistan": 4926,
      "ell": 4927,
      "ella": 4928,
      "ellen": 4929,
      "eline": 4930,
      "elvis": 4931,
      "timet": 4932,
      "gọi": 4933,
      "lain": 4934,
      "teen": 4935,
      "janet": 4936,
      "janeiro": 4937,
      "nak": 4938,
      "natto": 4939,
      "cửu": 4940,
      "chet": 4941,
      "hòi": 4942,
      "ruồng": 4943,
      "russ": 4944,
      "hawking": 4945,
      "harilyn": 4946,
      "wikipe": 4947,
      "lennon": 4948,
      "kimura": 4949,
      "hiê": 4950,
      "regga": 4951,
      "bec": 4952,
      "bis": 4953,
      "billy": 4954,
      "port": 4955,
      "pool": 4956,
      "polk": 4957,
      "war": 4958,
      "ward": 4959,
      "leans": 4960,
      "cupca": 4961,
      "cuộc": 4962,
      "rgan": 4963,
      "hus": 4964,
      "hudson": 4965,
      "huỳnh": 4966,
      "sandra": 4967,
      "mệt": 4968,
      "tempu": 4969,
      "barry": 4970,
      "barcel": 4971,
      "vãnh": 4972,
      "sôcôla": 4973,
      "oklahoma": 4974,
      "kusa": 4975,
      "allan": 4976,
      "alps": 4977,
      "donald": 4978,
      "murata": 4979,
      "sanda": 4980,
      "1860": 4981,
      "1880": 4982,
      "1865": 4983,
      "seiko": 4984,
      "orleans": 4985,
      "ille": 4986,
      "brad": 4987,
      "yuka": 4988,
      "yuki": 4989,
      "yuriko": 4990,
      "berber": 4991,
      "moroc": 4992,
      "noel": 4993,
      "2008": 4994,
      "2009": 4995,
      "petersburg": 4996,
      "carbohydra": 4997,
      "showa": 4998,
      "short": 4999,
      "christ": 5000,
      "marie": 5001,
      "gami": 5002,
      "gammon": 5003,
      "155": 5004,
      "vegas": 5005,
      "shino": 5006,
      "shinkan": 5007,
      "bongos": 5008,
      "yumiko": 5009,
      "mini": 5010,
      "mino": 5011,
      "1974": 5012,
      "1975": 5013,
      "1976": 5014,
      "1979": 5015,
      "harri": 5016,
      "harmonica": 5017,
      "croatia": 5018,
      "isra": 5019,
      "xổm": 5020,
      "pered": 5021,
      "rene": 5022,
      "rocker": 5023,
      "kansai": 5024,
      "kansas": 5025,
      "skype": 5026,
      "yamamoto": 5027,
      "hey": 5028,
      "pounds": 5029,
      "dance": 5030,
      "daniel": 5031,
      "danube": 5032,
      "florence": 5033,
      "microsoft": 5034,
      "1933": 5035,
      "1941": 5036,
      "1968": 5037,
      "akita": 5038,
      "arthur": 5039,
      "break": 5040,
      "macffy": 5041,
      "1959": 5042,
      "edgar": 5043,
      "edward": 5044,
      "333": 5045,
      "hanshin": 5046,
      "herman": 5047,
      "heroin": 5048,
      "salem": 5049,
      "jeremy": 5050,
      "kềnh": 5051,
      "ozone": 5052,
      "burton": 5053,
      "kumiko": 5054,
      "actinium": 5055,
      "yoshio": 5056,
      "yoshida": 5057,
      "calvin": 5058,
      "melbour": 5059,
      "penicillin": 5060,
      "switzer": 5061,
      "waltz": 5062,
      "cinda": 5063,
      "eric": 5064,
      "italy": 5065,
      "serbia": 5066,
      "zombi": 5067,
      "colombia": 5068,
      "colorado": 5069,
      "lisp": 5070,
      "1847": 5071,
      "honpered": 5072,
      "mụn": 5073,
      "bourbon": 5074,
      "caffein": 5075,
      "caffeine": 5076,
      "brandy": 5077,
      "expres": 5078,
      "lựu": 5079,
      "mccl": 5080,
      "ninja": 5081,
      "twitter": 5082,
      "zip": 5083,
      "masaru": 5084,
      "bagpip": 5085,
      "robinson": 5086,
      "hatchet": 5087,
      "pepper": 5088,
      "kuniko": 5089,
      "1603": 5090,
      "blues": 5091,
      "club": 5092,
      "jaywal": 5093,
      "klein": 5094,
      "nude": 5095,
      "backgammon": 5096,
      "laptop": 5097,
      "joseph": 5098,
      "cassette": 5099,
      "patricia": 5100,
      "sitcom": 5101,
      "andrew": 5102,
      "venetian": 5103,
      "greene": 5104,
      "adian": 5105,
      "centimet": 5106,
      "gettysburg": 5107,
      "klutz": 5108,
      "paolo": 5109,
      "script": 5110,
      "twain": 5111,
      "tatoeba": 5112,
      "madrid": 5113,
      "anthony": 5114,
      "australia": 5115,
      "lacrosse": 5116,
      "javascript": 5117,
      "wikipedia": 5118,
      "reggae": 5119,
      "cupcake": 5120,
      "tempura": 5121,
      "barcelona": 5122,
      "morocco": 5123,
      "carbohydrate": 5124,
      "shinkansen": 5125,
      "melbourne": 5126,
      "switzerland": 5127,
      "zombie": 5128,
      "express": 5129,
      "mcclellan": 5130,
      "bagpipes": 5131,
      "1n": 5132,
      "2000": 5133,
      "34": 5134,
      "37": 5135,
      "360": 5136,
      "450": 5137,
      "58": 5138,
      "63": 5139,
      "67": 5140,
      "77": 5141,
      "700": 5142,
      "81": 5143,
      "88": 5144,
      "839": 5145,
      "ako": 5146,
      "ace": 5147,
      "ary": 5148,
      "atri": 5149,
      "athan": 5150,
      "aah": 5151,
      "agar": 5152,
      "apar": 5153,
      "alain": 5154,
      "br": 5155,
      "bấy": 5156,
      "bừng": 5157,
      "báng": 5158,
      "bson": 5159,
      "blin": 5160,
      "blan": 5161,
      "ble": 5162,
      "cù": 5163,
      "ctr": 5164,
      "căm": 5165,
      "cẳng": 5166,
      "củng": 5167,
      "cja": 5168,
      "cleo": 5169,
      "cris": 5170,
      "cre": 5171,
      "ccin": 5172,
      "cchin": 5173,
      "dt": 5174,
      "dv": 5175,
      "dĩ": 5176,
      "dề": 5177,
      "day": 5178,
      "dau": 5179,
      "dái": 5180,
      "dậm": 5181,
      "dẳng": 5182,
      "dle": 5183,
      "dina": 5184,
      "ec": 5185,
      "ee": 5186,
      "ek": 5187,
      "eng": 5188,
      "eta": 5189,
      "eston": 5190,
      "evan": 5191,
      "ear": 5192,
      "ecua": 5193,
      "egg": 5194,
      "flu": 5195,
      "fli": 5196,
      "flan": 5197,
      "fid": 5198,
      "gă": 5199,
      "găm": 5200,
      "gáo": 5201,
      "glu": 5202,
      "gập": 5203,
      "gáy": 5204,
      "guốc": 5205,
      "gna": 5206,
      "glen": 5207,
      "gran": 5208,
      "gus": 5209,
      "gộp": 5210,
      "hũ": 5211,
      "hỉ": 5212,
      "hằng": 5213,
      "hích": 5214,
      "hăm": 5215,
      "h30": 5216,
      "hand": 5217,
      "hre": 5218,
      "hớt": 5219,
      "hếch": 5220,
      "hemi": 5221,
      "h1n": 5222,
      "iai": 5223,
      "iti": 5224,
      "ion": 5225,
      "iga": 5226,
      "iris": 5227,
      "irene": 5228,
      "jr": 5229,
      "jan": 5230,
      "kĩ": 5231,
      "kang": 5232,
      "kiếp": 5233,
      "kane": 5234,
      "kana": 5235,
      "lở": 5236,
      "lết": 5237,
      "lơi": 5238,
      "lọi": 5239,
      "lức": 5240,
      "lúp": 5241,
      "lọn": 5242,
      "lẩn": 5243,
      "lóng": 5244,
      "láng": 5245,
      "lòa": 5246,
      "lâng": 5247,
      "lụi": 5248,
      "lliver": 5249,
      "lsto": 5250,
      "lvia": 5251,
      "lmes": 5252,
      "mă": 5253,
      "măn": 5254,
      "mòng": 5255,
      "mùng": 5256,
      "múi": 5257,
      "mạp": 5258,
      "mủi": 5259,
      "méo": 5260,
      "mím": 5261,
      "nệ": 5262,
      "nấy": 5263,
      "nành": 5264,
      "nán": 5265,
      "nuối": 5266,
      "nấp": 5267,
      "nẹp": 5268,
      "nách": 5269,
      "nda": 5270,
      "nke": 5271,
      "otr": 5272,
      "oph": 5273,
      "oải": 5274,
      "opi": 5275,
      "obi": 5276,
      "oun": 5277,
      "oux": 5278,
      "pr": 5279,
      "pô": 5280,
      "pton": 5281,
      "pam": 5282,
      "ppi": 5283,
      "pko": 5284,
      "plays": 5285,
      "rgi": 5286,
      "rang": 5287,
      "răn": 5288,
      "rữa": 5289,
      "rát": 5290,
      "rem": 5291,
      "rầm": 5292,
      "rdo": 5293,
      "rét": 5294,
      "rhan": 5295,
      "rtis": 5296,
      "sk": 5297,
      "sà": 5298,
      "sch": 5299,
      "sài": 5300,
      "sưa": 5301,
      "sếu": 5302,
      "sin": 5303,
      "slo": 5304,
      "sứa": 5305,
      "sna": 5306,
      "sùi": 5307,
      "stang": 5308,
      "stru": 5309,
      "smin": 5310,
      "stine": 5311,
      "spen": 5312,
      "tb": 5313,
      "tí": 5314,
      "tột": 5315,
      "tơi": 5316,
      "tni": 5317,
      "tes": 5318,
      "ut": 5319,
      "uỵ": 5320,
      "uth": 5321,
      "uda": 5322,
      "une": 5323,
      "uru": 5324,
      "usalem": 5325,
      "vw": 5326,
      "vôi": 5327,
      "vao": 5328,
      "von": 5329,
      "vút": 5330,
      "vét": 5331,
      "vãn": 5332,
      "ves": 5333,
      "vlad": 5334,
      "võng": 5335,
      "wan": 5336,
      "wen": 5337,
      "wam": 5338,
      "xõ": 5339,
      "xới": 5340,
      "xào": 5341,
      "xắt": 5342,
      "xôn": 5343,
      "xảo": 5344,
      "xbo": 5345,
      "xẹp": 5346,
      "xướng": 5347,
      "xỉa": 5348,
      "ye": 5349,
      "zy": 5350,
      "zao": 5351,
      "zam": 5352,
      "zuko": 5353,
      "zhe": 5354,
      "çois": 5355,
      "êc": 5356,
      "ển": 5357,
      "ìa": 5358,
      "ýp": 5359,
      "ých": 5360,
      "ẳn": 5361,
      "đuốc": 5362,
      "đem": 5363,
      "đìa": 5364,
      "̉u": 5365,
      "̉ng": 5366,
      "ẽo": 5367,
      "ớng": 5368,
      "ừm": 5369,
      "ngọ": 5370,
      "ngăm": 5371,
      "ngái": 5372,
      "ngấn": 5373,
      "nger": 5374,
      "ngway": 5375,
      "ngee": 5376,
      "nhk": 5377,
      "nhí": 5378,
      "nhọ": 5379,
      "nheo": 5380,
      "nhung": 5381,
      "nhầy": 5382,
      "nhám": 5383,
      "nhei": 5384,
      "nhẽo": 5385,
      "chơ": 5386,
      "chiết": 5387,
      "chững": 5388,
      "chồi": 5389,
      "chùng": 5390,
      "chăng": 5391,
      "chội": 5392,
      "chát": 5393,
      "chét": 5394,
      "chắp": 5395,
      "cher": 5396,
      "chuốt": 5397,
      "chùn": 5398,
      "chăc": 5399,
      "chester": 5400,
      "thơi": 5401,
      "thỏi": 5402,
      "thềm": 5403,
      "thớt": 5404,
      "khè": 5405,
      "khò": 5406,
      "khải": 5407,
      "khong": 5408,
      "khạc": 5409,
      "khâm": 5410,
      "khịt": 5411,
      "tot": 5412,
      "toba": 5413,
      "tori": 5414,
      "tokaido": 5415,
      "toyama": 5416,
      "tolsto": 5417,
      "tomoko": 5418,
      "trau": 5419,
      "tren": 5420,
      "trám": 5421,
      "trở": 5422,
      "giằng": 5423,
      "giếm": 5424,
      "giềng": 5425,
      "giận": 5426,
      "phết": 5427,
      "phung": 5428,
      "phồng": 5429,
      "phàm": 5430,
      "nón": 5431,
      "điềm": 5432,
      "tap": 5433,
      "taga": 5434,
      "tate": 5435,
      "taris": 5436,
      "tana": 5437,
      "taku": 5438,
      "taft": 5439,
      "tation": 5440,
      "quai": 5441,
      "quýt": 5442,
      "quẹo": 5443,
      "quẹt": 5444,
      "ange": 5445,
      "aica": 5446,
      "cán": 5447,
      "cáng": 5448,
      "uyển": 5449,
      "aomori": 5450,
      "mah": 5451,
      "mau": 5452,
      "max": 5453,
      "mack": 5454,
      "made": 5455,
      "masha": 5456,
      "mass": 5457,
      "makura": 5458,
      "mamoto": 5459,
      "mafia": 5460,
      "marcon": 5461,
      "marcia": 5462,
      "marimba": 5463,
      "nhướng": 5464,
      "rad": 5465,
      "ram": 5466,
      "ras": 5467,
      "rati": 5468,
      "raco": 5469,
      "ragu": 5470,
      "rachel": 5471,
      "radium": 5472,
      "nghĩnh": 5473,
      "ant": 5474,
      "annie": 5475,
      "tic": 5476,
      "tie": 5477,
      "tima": 5478,
      "tish": 5479,
      "titan": 5480,
      "bịa": 5481,
      "onlin": 5482,
      "onnai": 5483,
      "sán": 5484,
      "austr": 5485,
      "autoba": 5486,
      "chuyện": 5487,
      "conne": 5488,
      "hog": 5489,
      "hoay": 5490,
      "hoành": 5491,
      "holl": 5492,
      "horn": 5493,
      "homes": 5494,
      "hoshino": 5495,
      "holmes": 5496,
      "quaker": 5497,
      "đềm": 5498,
      "luồn": 5499,
      "luna": 5500,
      "luther": 5501,
      "uit": 5502,
      "uizawa": 5503,
      "indones": 5504,
      "ngoai": 5505,
      "ngoảnh": 5506,
      "tuýp": 5507,
      "bari": 5508,
      "bava": 5509,
      "baking": 5510,
      "baby": 5511,
      "bản": 5512,
      "quyệt": 5513,
      "quyển": 5514,
      "bub": 5515,
      "buchi": 5516,
      "buồng": 5517,
      "bugle": 5518,
      "bungee": 5519,
      "loay": 5520,
      "loét": 5521,
      "cốm": 5522,
      "khánh": 5523,
      "theodo": 5524,
      "boku": 5525,
      "bolog": 5526,
      "bodia": 5527,
      "enco": 5528,
      "tone": 5529,
      "khoc": 5530,
      "khom": 5531,
      "khoá": 5532,
      "khoả": 5533,
      "chiêu": 5534,
      "chiêc": 5535,
      "ghẻ": 5536,
      "gham": 5537,
      "ghẹo": 5538,
      "thoa": 5539,
      "thoả": 5540,
      "thoạt": 5541,
      "dog": 5542,
      "doro": 5543,
      "dolin": 5544,
      "ami": 5545,
      "ameri": 5546,
      "chat": 5547,
      "chave": 5548,
      "imer": 5549,
      "imir": 5550,
      "imble": 5551,
      "saitama": 5552,
      "chóc": 5553,
      "chót": 5554,
      "dick": 5555,
      "diva": 5556,
      "diana": 5557,
      "hayes": 5558,
      "law": 5559,
      "lasa": 5560,
      "lark": 5561,
      "vịn": 5562,
      "rip": 5563,
      "ring": 5564,
      "rico": 5565,
      "rick": 5566,
      "taire": 5567,
      "trả": 5568,
      "điểu": 5569,
      "jorge": 5570,
      "chuset": 5571,
      "nicara": 5572,
      "nicole": 5573,
      "niiga": 5574,
      "vip": 5575,
      "viking": 5576,
      "virgi": 5577,
      "phili": 5578,
      "xảy": 5579,
      "mid": 5580,
      "michi": 5581,
      "mick": 5582,
      "miya": 5583,
      "miyaki": 5584,
      "michel": 5585,
      "codar": 5586,
      "sou": 5587,
      "soli": 5588,
      "soạng": 5589,
      "rộp": 5590,
      "gaga": 5591,
      "garia": 5592,
      "nguậy": 5593,
      "dùi": 5594,
      "khuếch": 5595,
      "sat": 5596,
      "saman": 5597,
      "sakura": 5598,
      "saturn": 5599,
      "erto": 5600,
      "eron": 5601,
      "band": 5602,
      "cach": 5603,
      "cadi": 5604,
      "cari": 5605,
      "calai": 5606,
      "cape": 5607,
      "cafe": 5608,
      "carey": 5609,
      "castro": 5610,
      "catni": 5611,
      "lyle": 5612,
      "dun": 5613,
      "libra": 5614,
      "lium": 5615,
      "liliu": 5616,
      "mayu": 5617,
      "mayonnai": 5618,
      "kyoko": 5619,
      "cửa": 5620,
      "rom": 5621,
      "roid": 5622,
      "rold": 5623,
      "roulette": 5624,
      "lươn": 5625,
      "dad": 5626,
      "dave": 5627,
      "dạy": 5628,
      "pier": 5629,
      "pick": 5630,
      "piotr": 5631,
      "308": 5632,
      "kal": 5633,
      "katsu": 5634,
      "kamakura": 5635,
      "canton": 5636,
      "canadian": 5637,
      "cky": 5638,
      "ckie": 5639,
      "nel": 5640,
      "nepal": 5641,
      "kilô": 5642,
      "kissi": 5643,
      "tendo": 5644,
      "ese": 5645,
      "esu": 5646,
      "koji": 5647,
      "koizu": 5648,
      "sum": 5649,
      "suv": 5650,
      "sunda": 5651,
      "jacob": 5652,
      "jasmin": 5653,
      "1930": 5654,
      "1910": 5655,
      "1920": 5656,
      "1911": 5657,
      "1923": 5658,
      "1927": 5659,
      "nhat": 5660,
      "pac": 5661,
      "patra": 5662,
      "paste": 5663,
      "pachin": 5664,
      "pablo": 5665,
      "ello": 5666,
      "elia": 5667,
      "elberg": 5668,
      "kendo": 5669,
      "kenya": 5670,
      "sies": 5671,
      "sioux": 5672,
      "sirhan": 5673,
      "sistine": 5674,
      "vador": 5675,
      "goi": 5676,
      "gos": 5677,
      "android": 5678,
      "leona": 5679,
      "sona": 5680,
      "sonnet": 5681,
      "tepad": 5682,
      "guitaris": 5683,
      "ngưng": 5684,
      "nasa": 5685,
      "nash": 5686,
      "nard": 5687,
      "lins": 5688,
      "linux": 5689,
      "ett": 5690,
      "mei": 5691,
      "meds": 5692,
      "meiji": 5693,
      "rumi": 5694,
      "ruki": 5695,
      "hashi": 5696,
      "harold": 5697,
      "haruki": 5698,
      "wise": 5699,
      "cambodia": 5700,
      "cameron": 5701,
      "lani": 5702,
      "shima": 5703,
      "shiita": 5704,
      "shigemi": 5705,
      "jima": 5706,
      "hiền": 5707,
      "hide": 5708,
      "hikari": 5709,
      "bela": 5710,
      "beiji": 5711,
      "beeline": 5712,
      "beatri": 5713,
      "bil": 5714,
      "biêt": 5715,
      "pos": 5716,
      "pope": 5717,
      "poland": 5718,
      "poster": 5719,
      "power": 5720,
      "wat": 5721,
      "wara": 5722,
      "wako": 5723,
      "wase": 5724,
      "watana": 5725,
      "cue": 5726,
      "cut": 5727,
      "curtis": 5728,
      "rges": 5729,
      "2020": 5730,
      "bênh": 5731,
      "hub": 5732,
      "hums": 5733,
      "huých": 5734,
      "faq": 5735,
      "fabi": 5736,
      "farsi": 5737,
      "fahre": 5738,
      "fatima": 5739,
      "nộm": 5740,
      "terson": 5741,
      "barney": 5742,
      "lonia": 5743,
      "oid": 5744,
      "okono": 5745,
      "kun": 5746,
      "kushiro": 5747,
      "kumamoto": 5748,
      "webb": 5749,
      "yard": 5750,
      "fumi": 5751,
      "muồi": 5752,
      "muff": 5753,
      "mulli": 5754,
      "mustang": 5755,
      "jump": 5756,
      "1899": 5757,
      "1864": 5758,
      "orville": 5759,
      "pizzaro": 5760,
      "yukawa": 5761,
      "ffiti": 5762,
      "bernard": 5763,
      "mochi": 5764,
      "molly": 5765,
      "mouth": 5766,
      "alister": 5767,
      "alibis": 5768,
      "viola": 5769,
      "nog": 5770,
      "noh": 5771,
      "nomo": 5772,
      "noah": 5773,
      "nozo": 5774,
      "noguchi": 5775,
      "notepad": 5776,
      "collins": 5777,
      "manue": 5778,
      "mandolin": 5779,
      "lady": 5780,
      "124": 5781,
      "mono": 5782,
      "mont": 5783,
      "monte": 5784,
      "túm": 5785,
      "jonathan": 5786,
      "carl": 5787,
      "franc": 5788,
      "france": 5789,
      "françois": 5790,
      "nhoài": 5791,
      "shou": 5792,
      "shogi": 5793,
      "joneses": 5794,
      "1981": 5795,
      "1982": 5796,
      "1983": 5797,
      "1985": 5798,
      "1986": 5799,
      "1988": 5800,
      "1995": 5801,
      "1996": 5802,
      "1999": 5803,
      "troulette": 5804,
      "vey": 5805,
      "shinji": 5806,
      "usb": 5807,
      "usine": 5808,
      "1971": 5809,
      "jamaica": 5810,
      "vancodar": 5811,
      "jeffrey": 5812,
      "1600": 5813,
      "1650": 5814,
      "1636": 5815,
      "asem": 5816,
      "1776": 5817,
      "1796": 5818,
      "kylie": 5819,
      "kyiv": 5820,
      "bonapar": 5821,
      "brigham": 5822,
      "gera": 5823,
      "geria": 5824,
      "gewise": 5825,
      "kers": 5826,
      "sterling": 5827,
      "steroid": 5828,
      "zucchin": 5829,
      "peru": 5830,
      "scottish": 5831,
      "atm": 5832,
      "ats": 5833,
      "dame": 5834,
      "mariah": 5835,
      "hiroko": 5836,
      "graffiti": 5837,
      "helium": 5838,
      "ganpool": 5839,
      "layover": 5840,
      "putt": 5841,
      "puccin": 5842,
      "puerto": 5843,
      "shotgun": 5844,
      "hẻo": 5845,
      "1935": 5846,
      "1944": 5847,
      "1948": 5848,
      "1962": 5849,
      "1963": 5850,
      "julius": 5851,
      "celia": 5852,
      "gulliver": 5853,
      "okalani": 5854,
      "photo": 5855,
      "arms": 5856,
      "daisuke": 5857,
      "eliot": 5858,
      "syria": 5859,
      "carolina": 5860,
      "1951": 5861,
      "1952": 5862,
      "1954": 5863,
      "1955": 5864,
      "olympics": 5865,
      "dẻo": 5866,
      "edgewise": 5867,
      "darcy": 5868,
      "electr": 5869,
      "oslo": 5870,
      "oscar": 5871,
      "trek": 5872,
      "trẻ": 5873,
      "shimbun": 5874,
      "bell": 5875,
      "clara": 5876,
      "clark": 5877,
      "hans": 5878,
      "ufos": 5879,
      "vinci": 5880,
      "salsa": 5881,
      "salvador": 5882,
      "jerry": 5883,
      "jerusalem": 5884,
      "mrs": 5885,
      "barack": 5886,
      "derby": 5887,
      "menu": 5888,
      "pyl": 5889,
      "python": 5890,
      "takako": 5891,
      "takahashi": 5892,
      "hoops": 5893,
      "massachuset": 5894,
      "williams": 5895,
      "ukraina": 5896,
      "melville": 5897,
      "swing": 5898,
      "để": 5899,
      "nitơ": 5900,
      "nitpick": 5901,
      "kawaguchi": 5902,
      "patterson": 5903,
      "yakitori": 5904,
      "everett": 5905,
      "itoh": 5906,
      "italo": 5907,
      "stradiva": 5908,
      "louie": 5909,
      "lisbon": 5910,
      "istanbul": 5911,
      "honshu": 5912,
      "meros": 5913,
      "prague": 5914,
      "rôma": 5915,
      "ghềnh": 5916,
      "atlantis": 5917,
      "brandt": 5918,
      "isabel": 5919,
      "isabela": 5920,
      "mcdonald": 5921,
      "nintendo": 5922,
      "twister": 5923,
      "tasmania": 5924,
      "takeshi": 5925,
      "balkan": 5926,
      "karuizawa": 5927,
      "1903": 5928,
      "illinois": 5929,
      "samuel": 5930,
      "limousine": 5931,
      "googled": 5932,
      "akagawa": 5933,
      "himeji": 5934,
      "himekusa": 5935,
      "morph": 5936,
      "mormon": 5937,
      "propyl": 5938,
      "spielberg": 5939,
      "telegram": 5940,
      "tarou": 5941,
      "inoue": 5942,
      "bulgaria": 5943,
      "board": 5944,
      "cobb": 5945,
      "cappuccin": 5946,
      "felipe": 5947,
      "felicja": 5948,
      "athens": 5949,
      "aaron": 5950,
      "ethiopi": 5951,
      "helsin": 5952,
      "irish": 5953,
      "isopropyl": 5954,
      "kaori": 5955,
      "mía": 5956,
      "origami": 5957,
      "oleg": 5958,
      "pansies": 5959,
      "spring": 5960,
      "sniff": 5961,
      "xvii": 5962,
      "towada": 5963,
      "magda": 5964,
      "anyway": 5965,
      "diego": 5966,
      "catalonia": 5967,
      "kakogawa": 5968,
      "nakano": 5969,
      "russell": 5970,
      "hiểu": 5971,
      "portband": 5972,
      "yukiko": 5973,
      "minogue": 5974,
      "harrison": 5975,
      "israeli": 5976,
      "calvino": 5977,
      "pepperoni": 5978,
      "jaywalking": 5979,
      "cleopatra": 5980,
      "creep": 5981,
      "dvd": 5982,
      "estonia": 5983,
      "ecuador": 5984,
      "eggnog": 5985,
      "flunke": 5986,
      "flick": 5987,
      "flannel": 5988,
      "gặp": 5989,
      "gluten": 5990,
      "glenn": 5991,
      "gusta": 5992,
      "hemingway": 5993,
      "h1n1": 5994,
      "iaido": 5995,
      "ionescu": 5996,
      "kanguru": 5997,
      "kanazawa": 5998,
      "nệm": 5999,
      "ophelia": 6000,
      "obihiro": 6001,
      "ounce": 6002,
      "playstation": 6003,
      "rembrandt": 6004,
      "snap": 6005,
      "strudel": 6006,
      "spencer": 6007,
      "uỵch": 6008,
      "unesco": 6009,
      "vladimir": 6010,
      "xõa": 6011,
      "xbox": 6012,
      "nheit": 6013,
      "tolstoy": 6014,
      "tagalog": 6015,
      "takuboku": 6016,
      "marconi": 6017,
      "online": 6018,
      "austria": 6019,
      "autobahn": 6020,
      "indonesia": 6021,
      "baritone": 6022,
      "buchird": 6023,
      "theodore": 6024,
      "dorothy": 6025,
      "american": 6026,
      "chavez": 6027,
      "dickens": 6028,
      "lasagna": 6029,
      "nicaragua": 6030,
      "niigata": 6031,
      "virginia": 6032,
      "philipin": 6033,
      "solitaire": 6034,
      "samantha": 6035,
      "calais": 6036,
      "catnip": 6037,
      "libras": 6038,
      "liliuokalani": 6039,
      "mayonnaise": 6040,
      "kilôgam": 6041,
      "kissinger": 6042,
      "koizumi": 6043,
      "sundae": 6044,
      "pasteur": 6045,
      "pachinko": 6046,
      "leonardo": 6047,
      "guitarist": 6048,
      "shiitake": 6049,
      "beijing": 6050,
      "popeye": 6051,
      "powerpoint": 6052,
      "waseda": 6053,
      "watanabe": 6054,
      "fahrenheit": 6055,
      "okonomiyaki": 6056,
      "muffin": 6057,
      "mulligan": 6058,
      "jumps": 6059,
      "nozomi": 6060,
      "manuela": 6061,
      "bonaparte": 6062,
      "zucchinis": 6063,
      "armstrong": 6064,
      "electron": 6065,
      "massachusetts": 6066,
      "stradivarius": 6067,
      "cappuccino": 6068,
      "ethiopian": 6069,
      "helsinki": 6070,
      "flunkey": 6071,
      "++": 6072,
      "--": 6073,
      "05": 6074,
      "06": 6075,
      "08": 6076,
      "130": 6077,
      "119": 6078,
      "112": 6079,
      "140": 6080,
      "230": 6081,
      "212": 6082,
      "213": 6083,
      "214": 6084,
      "270": 6085,
      "2h30": 6086,
      "330": 6087,
      "350": 6088,
      "340": 6089,
      "313": 6090,
      "314": 6091,
      "3ds": 6092,
      "41": 6093,
      "43": 6094,
      "415": 6095,
      "423": 6096,
      "465": 6097,
      "442": 6098,
      "446": 6099,
      "56": 6100,
      "57": 6101,
      "5v": 6102,
      "550": 6103,
      "514": 6104,
      "529": 6105,
      "538": 6106,
      "573": 6107,
      "66": 6108,
      "629": 6109,
      "632": 6110,
      "71": 6111,
      "72": 6112,
      "74": 6113,
      "75": 6114,
      "78": 6115,
      "79": 6116,
      "780": 6117,
      "85": 6118,
      "89": 6119,
      "8000": 6120,
      "836": 6121,
      "864": 6122,
      "92": 6123,
      "93": 6124,
      "98": 6125,
      "900": 6126,
      "932": 6127,
      "ab": 6128,
      "ag": 6129,
      "ado": 6130,
      "ala": 6131,
      "aca": 6132,
      "ash": 6133,
      "aris": 6134,
      "apo": 6135,
      "aku": 6136,
      "aria": 6137,
      "azu": 6138,
      "aden": 6139,
      "abel": 6140,
      "avis": 6141,
      "atami": 6142,
      "avon": 6143,
      "bư": 6144,
      "bẽ": 6145,
      "bự": 6146,
      "bai": 6147,
      "bần": 6148,
      "bau": 6149,
      "bôn": 6150,
      "bton": 6151,
      "bảnh": 6152,
      "bậu": 6153,
      "biếm": 6154,
      "bjo": 6155,
      "bồng": 6156,
      "blai": 6157,
      "bwe": 6158,
      "bbe": 6159,
      "bya": 6160,
      "bren": 6161,
      "broo": 6162,
      "bby": 6163,
      "bĩu": 6164,
      "bboy": 6165,
      "bgie": 6166,
      "bươc": 6167,
      "cz": 6168,
      "cẫ": 6169,
      "cto": 6170,
      "cqu": 6171,
      "cti": 6172,
      "càn": 6173,
      "cỏi": 6174,
      "clo": 6175,
      "cchi": 6176,
      "cuốc": 6177,
      "cạy": 6178,
      "cươi": 6179,
      "cni": 6180,
      "cầy": 6181,
      "cli": 6182,
      "csi": 6183,
      "cõi": 6184,
      "cùi": 6185,
      "cinch": 6186,
      "clip": 6187,
      "clas": 6188,
      "cloa": 6189,
      "cleon": 6190,
      "ctor": 6191,
      "cpr": 6192,
      "df": 6193,
      "dp": 6194,
      "deo": 6195,
      "dông": 6196,
      "diệc": 6197,
      "dào": 6198,
      "dôn": 6199,
      "dỗi": 6200,
      "din": 6201,
      "dìm": 6202,
      "dem": 6203,
      "dda": 6204,
      "des": 6205,
      "dẫu": 6206,
      "dwi": 6207,
      "dber": 6208,
      "dann": 6209,
      "dana": 6210,
      "dria": 6211,
      "dge": 6212,
      "dằn": 6213,
      "dẹt": 6214,
      "ddam": 6215,
      "dvo": 6216,
      "dpt": 6217,
      "dậy": 6218,
      "dandy": 6219,
      "ef": 6220,
      "ev": 6221,
      "ey": 6222,
      "ez": 6223,
      "eton": 6224,
      "ebi": 6225,
      "eman": 6226,
      "ecar": 6227,
      "enho": 6228,
      "eas": 6229,
      "egra": 6230,
      "eden": 6231,
      "egal": 6232,
      "eyou": 6233,
      "ezaki": 6234,
      "ewan": 6235,
      "f1": 6236,
      "fk": 6237,
      "fx": 6238,
      "fai": 6239,
      "fon": 6240,
      "fen": 6241,
      "fri": 6242,
      "fka": 6243,
      "fris": 6244,
      "fet": 6245,
      "fru": 6246,
      "fter": 6247,
      "flam": 6248,
      "fling": 6249,
      "flex": 6250,
      "fres": 6251,
      "fled": 6252,
      "fritz": 6253,
      "gv": 6254,
      "gy": 6255,
      "gò": 6256,
      "gờ": 6257,
      "gụ": 6258,
      "ggi": 6259,
      "gon": 6260,
      "gảy": 6261,
      "glo": 6262,
      "gồng": 6263,
      "gro": 6264,
      "góm": 6265,
      "gẫu": 6266,
      "gand": 6267,
      "get": 6268,
      "gặm": 6269,
      "gana": 6270,
      "gợn": 6271,
      "gdan": 6272,
      "gling": 6273,
      "glum": 6274,
      "glee": 6275,
      "gờm": 6276,
      "gther": 6277,
      "gner": 6278,
      "gdp": 6279,
      "há": 6280,
      "hé": 6281,
      "hở": 6282,
      "hến": 6283,
      "húp": 6284,
      "hinh": 6285,
      "hống": 6286,
      "hem": 6287,
      "hóc": 6288,
      "hởi": 6289,
      "hỉnh": 6290,
      "hám": 6291,
      "hóm": 6292,
      "hano": 6293,
      "hờn": 6294,
      "hêt": 6295,
      "hẳn": 6296,
      "iq": 6297,
      "ix": 6298,
      "ian": 6299,
      "isao": 6300,
      "ibu": 6301,
      "ika": 6302,
      "iốt": 6303,
      "ishi": 6304,
      "ibi": 6305,
      "iza": 6306,
      "inga": 6307,
      "ici": 6308,
      "ige": 6309,
      "iker": 6310,
      "iwo": 6311,
      "iger": 6312,
      "itsu": 6313,
      "imac": 6314,
      "ibara": 6315,
      "itzer": 6316,
      "iwam": 6317,
      "icky": 6318,
      "jl": 6319,
      "jau": 6320,
      "jin": 6321,
      "jano": 6322,
      "jpe": 6323,
      "jlie": 6324,
      "jst": 6325,
      "jfk": 6326,
      "kè": 6327,
      "kí": 6328,
      "kẽ": 6329,
      "kị": 6330,
      "kph": 6331,
      "kam": 6332,
      "kít": 6333,
      "kla": 6334,
      "kli": 6335,
      "kes": 6336,
      "kman": 6337,
      "kina": 6338,
      "kney": 6339,
      "kling": 6340,
      "lt": 6341,
      "lw": 6342,
      "lí": 6343,
      "ló": 6344,
      "lới": 6345,
      "luy": 6346,
      "lình": 6347,
      "lma": 6348,
      "lơn": 6349,
      "lưa": 6350,
      "lấn": 6351,
      "luống": 6352,
      "llo": 6353,
      "lét": 6354,
      "lóc": 6355,
      "ldi": 6356,
      "lươi": 6357,
      "lóa": 6358,
      "lco": 6359,
      "lẳng": 6360,
      "lủng": 6361,
      "lka": 6362,
      "lốt": 6363,
      "ltar": 6364,
      "ldr": 6365,
      "lởm": 6366,
      "lvan": 6367,
      "llip": 6368,
      "lling": 6369,
      "lúm": 6370,
      "lún": 6371,
      "md": 6372,
      "mú": 6373,
      "mao": 6374,
      "mmar": 6375,
      "mơn": 6376,
      "mơi": 6377,
      "mích": 6378,
      "mân": 6379,
      "mửa": 6380,
      "mìn": 6381,
      "mẫn": 6382,
      "mán": 6383,
      "mbu": 6384,
      "mội": 6385,
      "mấu": 6386,
      "mem": 6387,
      "mọn": 6388,
      "mẩn": 6389,
      "mim": 6390,
      "máng": 6391,
      "myo": 6392,
      "muôi": 6393,
      "met": 6394,
      "móp": 6395,
      "mẫm": 6396,
      "mper": 6397,
      "mật": 6398,
      "mịt": 6399,
      "mmer": 6400,
      "măc": 6401,
      "nè": 6402,
      "nấ": 6403,
      "nẵ": 6404,
      "nỏ": 6405,
      "nth": 6406,
      "nang": 6407,
      "nong": 6408,
      "nra": 6409,
      "ních": 6410,
      "náo": 6411,
      "nung": 6412,
      "nép": 6413,
      "nker": 6414,
      "nkel": 6415,
      "nfl": 6416,
      "nươc": 6417,
      "npr": 6418,
      "ndria": 6419,
      "nkman": 6420,
      "oa": 6421,
      "oj": 6422,
      "om": 6423,
      "oán": 6424,
      "ola": 6425,
      "oga": 6426,
      "oli": 6427,
      "oda": 6428,
      "ore": 6429,
      "otem": 6430,
      "ooi": 6431,
      "omo": 6432,
      "ocd": 6433,
      "ocar": 6434,
      "oằn": 6435,
      "oler": 6436,
      "opy": 6437,
      "opra": 6438,
      "ozaki": 6439,
      "organ": 6440,
      "out": 6441,
      "owen": 6442,
      "opos": 6443,
      "occhi": 6444,
      "pd": 6445,
      "pg": 6446,
      "pta": 6447,
      "pay": 6448,
      "pon": 6449,
      "plu": 6450,
      "ptu": 6451,
      "pua": 6452,
      "pia": 6453,
      "ply": 6454,
      "pel": 6455,
      "psi": 6456,
      "plin": 6457,
      "pru": 6458,
      "pre": 6459,
      "pse": 6460,
      "plad": 6461,
      "pone": 6462,
      "pster": 6463,
      "pkin": 6464,
      "ptas": 6465,
      "pbs": 6466,
      "qá": 6467,
      "rl": 6468,
      "rm": 6469,
      "rr": 6470,
      "rs": 6471,
      "rã": 6472,
      "rông": 6473,
      "rết": 6474,
      "rước": 6475,
      "rầu": 6476,
      "rêu": 6477,
      "rinh": 6478,
      "rua": 6479,
      "ráy": 6480,
      "rlo": 6481,
      "rọc": 6482,
      "rchi": 6483,
      "rgh": 6484,
      "rắm": 6485,
      "rạo": 6486,
      "ryo": 6487,
      "rựa": 6488,
      "rầy": 6489,
      "rạch": 6490,
      "rna": 6491,
      "rter": 6492,
      "rớt": 6493,
      "réo": 6494,
      "ryoko": 6495,
      "remi": 6496,
      "rcia": 6497,
      "rley": 6498,
      "rst": 6499,
      "ryou": 6500,
      "răc": 6501,
      "rragu": 6502,
      "sộ": 6503,
      "sỡ": 6504,
      "sỹ": 6505,
      "sên": 6506,
      "sta": 6507,
      "sải": 6508,
      "sti": 6509,
      "squa": 6510,
      "sắn": 6511,
      "stin": 6512,
      "sậy": 6513,
      "stu": 6514,
      "sim": 6515,
      "sla": 6516,
      "sri": 6517,
      "schu": 6518,
      "sượu": 6519,
      "sli": 6520,
      "scan": 6521,
      "ski": 6522,
      "sờn": 6523,
      "star": 6524,
      "scam": 6525,
      "skim": 6526,
      "sủi": 6527,
      "sre": 6528,
      "swe": 6529,
      "sno": 6530,
      "stri": 6531,
      "sina": 6532,
      "snia": 6533,
      "ssie": 6534,
      "snit": 6535,
      "slim": 6536,
      "săc": 6537,
      "sẳn": 6538,
      "smack": 6539,
      "swat": 6540,
      "sdf": 6541,
      "sfx": 6542,
      "tà": 6543,
      "té": 6544,
      "tì": 6545,
      "tă": 6546,
      "tể": 6547,
      "tỉ": 6548,
      "tch": 6549,
      "tấy": 6550,
      "tần": 6551,
      "tti": 6552,
      "tuộc": 6553,
      "tui": 6554,
      "tạc": 6555,
      "tụng": 6556,
      "tép": 6557,
      "tằm": 6558,
      "tẩm": 6559,
      "tủy": 6560,
      "tẩu": 6561,
      "tót": 6562,
      "tel": 6563,
      "tte": 6564,
      "tụi": 6565,
      "tsha": 6566,
      "tford": 6567,
      "tley": 6568,
      "twood": 6569,
      "tvia": 6570,
      "tled": 6571,
      "tăt": 6572,
      "tchan": 6573,
      "tdog": 6574,
      "tgv": 6575,
      "uất": 6576,
      "uta": 6577,
      "ugh": 6578,
      "udo": 6579,
      "uri": 6580,
      "uni": 6581,
      "usa": 6582,
      "uro": 6583,
      "udon": 6584,
      "use": 6585,
      "uman": 6586,
      "uss": 6587,
      "utsu": 6588,
      "udai": 6589,
      "ulum": 6590,
      "ubun": 6591,
      "uzen": 6592,
      "uesu": 6593,
      "vp": 6594,
      "vv": 6595,
      "vó": 6596,
      "vạn": 6597,
      "vức": 6598,
      "vưa": 6599,
      "vữa": 6600,
      "váo": 6601,
      "vệt": 6602,
      "vẩn": 6603,
      "vướng": 6604,
      "vẩy": 6605,
      "vầng": 6606,
      "vlon": 6607,
      "vina": 6608,
      "vana": 6609,
      "vol": 6610,
      "vênh": 6611,
      "wn": 6612,
      "won": 6613,
      "who": 6614,
      "wri": 6615,
      "wya": 6616,
      "wor": 6617,
      "wfi": 6618,
      "wder": 6619,
      "wans": 6620,
      "well": 6621,
      "wimble": 6622,
      "xx": 6623,
      "xy": 6624,
      "xiết": 6625,
      "xài": 6626,
      "xắc": 6627,
      "xối": 6628,
      "xát": 6629,
      "xít": 6630,
      "xòa": 6631,
      "xúi": 6632,
      "xèo": 6633,
      "xói": 6634,
      "xén": 6635,
      "xưng": 6636,
      "xley": 6637,
      "xgen": 6638,
      "xyan": 6639,
      "xange": 6640,
      "yl": 6641,
      "yang": 6642,
      "yin": 6643,
      "yam": 6644,
      "yer": 6645,
      "yle": 6646,
      "yser": 6647,
      "yled": 6648,
      "yello": 6649,
      "zt": 6650,
      "zho": 6651,
      "zhn": 6652,
      "zco": 6653,
      "zpa": 6654,
      "zor": 6655,
      "zis": 6656,
      "zanne": 6657,
      "zania": 6658,
      "zimba": 6659,
      "zester": 6660,
      "zmán": 6661,
      "ºc": 6662,
      "êp": 6663,
      "ệt": 6664,
      "ía": 6665,
      "íd": 6666,
      "òe": 6667,
      "ổn": 6668,
      "úl": 6669,
      "ük": 6670,
      "ặc": 6671,
      "ẳng": 6672,
      "čka": 6673,
      "đc": 6674,
      "đâ": 6675,
      "đả": 6676,
      "đọ": 6677,
      "đanh": 6678,
      "đơi": 6679,
      "đục": 6680,
      "đèo": 6681,
      "đỉa": 6682,
      "̉e": 6683,
      "̉m": 6684,
      "̉o": 6685,
      "̣u": 6686,
      "ụa": 6687,
      "ngà": 6688,
      "ngó": 6689,
      "ngỏ": 6690,
      "ngự": 6691,
      "ngông": 6692,
      "ngạn": 6693,
      "ngời": 6694,
      "ngao": 6695,
      "ngan": 6696,
      "ngâu": 6697,
      "ngấu": 6698,
      "ngạch": 6699,
      "ngớt": 6700,
      "ngley": 6701,
      "ngzho": 6702,
      "eon": 6703,
      "nhè": 6704,
      "nhì": 6705,
      "nhả": 6706,
      "nhỡ": 6707,
      "nhạn": 6708,
      "nhôm": 6709,
      "nhâm": 6710,
      "nhọc": 6711,
      "nham": 6712,
      "nhảnh": 6713,
      "nhậm": 6714,
      "nhẵn": 6715,
      "nhếch": 6716,
      "nhât": 6717,
      "nhận": 6718,
      "nhòe": 6719,
      "nhụa": 6720,
      "tôicủa": 6721,
      "chê": 6722,
      "chư": 6723,
      "chằng": 6724,
      "chành": 6725,
      "chòng": 6726,
      "chánh": 6727,
      "cham": 6728,
      "chsh": 6729,
      "chàm": 6730,
      "chùi": 6731,
      "china": 6732,
      "chửng": 6733,
      "champ": 6734,
      "thè": 6735,
      "thâu": 6736,
      "thản": 6737,
      "thục": 6738,
      "thút": 6739,
      "thọc": 6740,
      "thít": 6741,
      "thuyên": 6742,
      "thùa": 6743,
      "thặng": 6744,
      "thạt": 6745,
      "thris": 6746,
      "thle": 6747,
      "thimble": 6748,
      "thẳng": 6749,
      "kha": 6750,
      "khăm": 6751,
      "kham": 6752,
      "khảnh": 6753,
      "khét": 6754,
      "khép": 6755,
      "khat": 6756,
      "khstan": 6757,
      "toanh": 6758,
      "toph": 6759,
      "tora": 6760,
      "toho": 6761,
      "tolo": 6762,
      "tofo": 6763,
      "tolas": 6764,
      "tokyu": 6765,
      "tort": 6766,
      "toron": 6767,
      "totto": 6768,
      "toole": 6769,
      "toudai": 6770,
      "točka": 6771,
      "tomi": 6772,
      "toman": 6773,
      "tomfo": 6774,
      "tomboy": 6775,
      "tomadian": 6776,
      "try": 6777,
      "trớ": 6778,
      "tran": 6779,
      "trăn": 6780,
      "trơi": 6781,
      "trập": 6782,
      "trấu": 6783,
      "trọc": 6784,
      "tróc": 6785,
      "trượng": 6786,
      "tret": 6787,
      "trớn": 6788,
      "trina": 6789,
      "trật": 6790,
      "lào": 6791,
      "cót": 6792,
      "gif": 6793,
      "giê": 6794,
      "giò": 6795,
      "giư": 6796,
      "giỗ": 6797,
      "giử": 6798,
      "giàn": 6799,
      "giậm": 6800,
      "giêng": 6801,
      "giris": 6802,
      "gièm": 6803,
      "gifu": 6804,
      "gibra": 6805,
      "gino": 6806,
      "gibson": 6807,
      "girl": 6808,
      "phũ": 6809,
      "phờ": 6810,
      "phàng": 6811,
      "phường": 6812,
      "phiện": 6813,
      "phen": 6814,
      "phượng": 6815,
      "phãi": 6816,
      "định": 6817,
      "điện": 6818,
      "đóm": 6819,
      "vành": 6820,
      "tad": 6821,
      "tag": 6822,
      "tain": 6823,
      "tachi": 6824,
      "tari": 6825,
      "taco": 6826,
      "tada": 6827,
      "taki": 6828,
      "taji": 6829,
      "tapo": 6830,
      "taran": 6831,
      "tania": 6832,
      "tampi": 6833,
      "takara": 6834,
      "takeo": 6835,
      "tagawa": 6836,
      "tại": 6837,
      "tario": 6838,
      "talk": 6839,
      "tatsuy": 6840,
      "què": 6841,
      "quại": 6842,
      "quin": 6843,
      "quẩy": 6844,
      "quet": 6845,
      "quằn": 6846,
      "quesa": 6847,
      "quặc": 6848,
      "chos": 6849,
      "choy": 6850,
      "chong": 6851,
      "chomon": 6852,
      "chord": 6853,
      "cholas": 6854,
      "chondria": 6855,
      "chowder": 6856,
      "nghén": 6857,
      "anglo": 6858,
      "angko": 6859,
      "angela": 6860,
      "angola": 6861,
      "air": 6862,
      "aichi": 6863,
      "aiki": 6864,
      "ailen": 6865,
      "aise": 6866,
      "aires": 6867,
      "aids": 6868,
      "aimer": 6869,
      "airsi": 6870,
      "đưng": 6871,
      "uyama": 6872,
      "aoli": 6873,
      "aoxơ": 6874,
      "mad": 6875,
      "maui": 6876,
      "matu": 6877,
      "maba": 6878,
      "machi": 6879,
      "mala": 6880,
      "matra": 6881,
      "maso": 6882,
      "mali": 6883,
      "mathi": 6884,
      "maki": 6885,
      "masu": 6886,
      "macy": 6887,
      "mase": 6888,
      "mashu": 6889,
      "mabel": 6890,
      "makin": 6891,
      "malia": 6892,
      "machiko": 6893,
      "mạnh": 6894,
      "mamatsu": 6895,
      "macher": 6896,
      "matic": 6897,
      "madame": 6898,
      "matti": 6899,
      "magiê": 6900,
      "march": 6901,
      "mardi": 6902,
      "marty": 6903,
      "marck": 6904,
      "marke": 6905,
      "marse": 6906,
      "marat": 6907,
      "maruchi": 6908,
      "maruzen": 6909,
      "maría": 6910,
      "maruyama": 6911,
      "maryland": 6912,
      "aya": 6913,
      "ayu": 6914,
      "ayama": 6915,
      "nhưỡng": 6916,
      "nhướn": 6917,
      "rak": 6918,
      "raba": 6919,
      "rana": 6920,
      "ravio": 6921,
      "radar": 6922,
      "rambo": 6923,
      "raves": 6924,
      "raúl": 6925,
      "anmar": 6926,
      "anti": 6927,
      "anton": 6928,
      "ando": 6929,
      "anes": 6930,
      "antan": 6931,
      "anime": 6932,
      "ting": 6933,
      "titi": 6934,
      "tiro": 6935,
      "tican": 6936,
      "tibe": 6937,
      "tinga": 6938,
      "tium": 6939,
      "tiêt": 6940,
      "tiệc": 6941,
      "tiêp": 6942,
      "nhỉ": 6943,
      "xey": 6944,
      "onan": 6945,
      "onim": 6946,
      "onia": 6947,
      "ontario": 6948,
      "sám": 6949,
      "auer": 6950,
      "audio": 6951,
      "auss": 6952,
      "auchan": 6953,
      "augusta": 6954,
      "austin": 6955,
      "conch": 6956,
      "conman": 6957,
      "contri": 6958,
      "connor": 6959,
      "concer": 6960,
      "confet": 6961,
      "conkling": 6962,
      "contain": 6963,
      "hoc": 6964,
      "hoe": 6965,
      "hoà": 6966,
      "hochi": 6967,
      "hook": 6968,
      "houn": 6969,
      "hood": 6970,
      "học": 6971,
      "hỏi": 6972,
      "holli": 6973,
      "hobson": 6974,
      "horati": 6975,
      "hopkin": 6976,
      "hotdog": 6977,
      "saori": 6978,
      "quasa": 6979,
      "quart": 6980,
      "quản": 6981,
      "luc": 6982,
      "lug": 6983,
      "luke": 6984,
      "luci": 6985,
      "lump": 6986,
      "lủng": 6987,
      "luxange": 6988,
      "khóm": 6989,
      "ini": 6990,
      "tus": 6991,
      "tux": 6992,
      "tuỳ": 6993,
      "tuba": 6994,
      "tula": 6995,
      "tuếch": 6996,
      "tục": 6997,
      "tuft": 6998,
      "tudor": 6999,
      "tucky": 7000,
      "hãm": 7001,
      "bagh": 7002,
      "basa": 7003,
      "bali": 7004,
      "balan": 7005,
      "bashi": 7006,
      "balon": 7007,
      "base": 7008,
      "bạc": 7009,
      "bambu": 7010,
      "bảo": 7011,
      "quyện": 7012,
      "quyêt": 7013,
      "saudi": 7014,
      "saule": 7015,
      "muammar": 7016,
      "buen": 7017,
      "budo": 7018,
      "buro": 7019,
      "bulin": 7020,
      "bunga": 7021,
      "buny": 7022,
      "buổi": 7023,
      "buchan": 7024,
      "buchomon": 7025,
      "burana": 7026,
      "loh": 7027,
      "loi": 7028,
      "lop": 7029,
      "lori": 7030,
      "loco": 7031,
      "loga": 7032,
      "loca": 7033,
      "lode": 7034,
      "lophone": 7035,
      "lores": 7036,
      "lodra": 7037,
      "loopy": 7038,
      "bok": 7039,
      "bọn": 7040,
      "boun": 7041,
      "bollywood": 7042,
      "boot": 7043,
      "borges": 7044,
      "bogdan": 7045,
      "borgh": 7046,
      "bosnia": 7047,
      "enchi": 7048,
      "entha": 7049,
      "ends": 7050,
      "enex": 7051,
      "toni": 7052,
      "tonium": 7053,
      "tuyế": 7054,
      "tuyệt": 7055,
      "giải": 7056,
      "giảm": 7057,
      "khỏi": 7058,
      "khỏe": 7059,
      "chit": 7060,
      "chiba": 7061,
      "chiyo": 7062,
      "chiro": 7063,
      "chile": 7064,
      "chist": 7065,
      "chikako": 7066,
      "chiec": 7067,
      "childr": 7068,
      "emma": 7069,
      "emet": 7070,
      "emmy": 7071,
      "emmet": 7072,
      "ghty": 7073,
      "ghlli": 7074,
      "ghtinga": 7075,
      "thouse": 7076,
      "doi": 7077,
      "dote": 7078,
      "doris": 7079,
      "dole": 7080,
      "dope": 7081,
      "dover": 7082,
      "dove": 7083,
      "dous": 7084,
      "dopp": 7085,
      "dorgen": 7086,
      "dorgan": 7087,
      "domini": 7088,
      "domino": 7089,
      "doyle": 7090,
      "dolores": 7091,
      "amu": 7092,
      "ambar": 7093,
      "amis": 7094,
      "amid": 7095,
      "amura": 7096,
      "amese": 7097,
      "maigo": 7098,
      "mailer": 7099,
      "thumper": 7100,
      "chama": 7101,
      "chary": 7102,
      "chaplin": 7103,
      "thưc": 7104,
      "thử": 7105,
      "imf": 7106,
      "imbe": 7107,
      "saigon": 7108,
      "hypo": 7109,
      "sửng": 7110,
      "dit": 7111,
      "dị": 7112,
      "dima": 7113,
      "dickin": 7114,
      "dillas": 7115,
      "dilma": 7116,
      "hayama": 7117,
      "xuât": 7118,
      "xueyou": 7119,
      "bayley": 7120,
      "mangut": 7121,
      "laf": 7122,
      "lada": 7123,
      "lapa": 7124,
      "latinh": 7125,
      "laman": 7126,
      "lạnh": 7127,
      "ladas": 7128,
      "lazy": 7129,
      "latvia": 7130,
      "lamaba": 7131,
      "ric": 7132,
      "rit": 7133,
      "rito": 7134,
      "rian": 7135,
      "riam": 7136,
      "riso": 7137,
      "ries": 7138,
      "ribe": 7139,
      "ritsu": 7140,
      "rikura": 7141,
      "ribs": 7142,
      "right": 7143,
      "rikers": 7144,
      "rigana": 7145,
      "taishu": 7146,
      "taipan": 7147,
      "tracy": 7148,
      "thampton": 7149,
      "joy": 7150,
      "josh": 7151,
      "joão": 7152,
      "joel": 7153,
      "jour": 7154,
      "jody": 7155,
      "joker": 7156,
      "chuc": 7157,
      "chug": 7158,
      "chut": 7159,
      "churia": 7160,
      "churchi": 7161,
      "phốutsu": 7162,
      "yogi": 7163,
      "yomi": 7164,
      "yoshino": 7165,
      "yotchan": 7166,
      "yoyogi": 7167,
      "đom": 7168,
      "đọc": 7169,
      "nich": 7170,
      "nichi": 7171,
      "nila": 7172,
      "niue": 7173,
      "nigeria": 7174,
      "nicholas": 7175,
      "nightinga": 7176,
      "vito": 7177,
      "vien": 7178,
      "vier": 7179,
      "viva": 7180,
      "vips": 7181,
      "viraco": 7182,
      "phie": 7183,
      "phillip": 7184,
      "johnston": 7185,
      "johnnie": 7186,
      "mia": 7187,
      "mic": 7188,
      "mie": 7189,
      "misa": 7190,
      "mili": 7191,
      "mika": 7192,
      "miki": 7193,
      "mixi": 7194,
      "mire": 7195,
      "mius": 7196,
      "mitsu": 7197,
      "misato": 7198,
      "mitt": 7199,
      "mizuki": 7200,
      "missi": 7201,
      "miami": 7202,
      "miwako": 7203,
      "milw": 7204,
      "miriam": 7205,
      "nguyệt": 7206,
      "co2": 7207,
      "coco": 7208,
      "cory": 7209,
      "cord": 7210,
      "coven": 7211,
      "cohen": 7212,
      "copy": 7213,
      "coxey": 7214,
      "soi": 7215,
      "sox": 7216,
      "soba": 7217,
      "solo": 7218,
      "sopo": 7219,
      "sose": 7220,
      "socra": 7221,
      "sofia": 7222,
      "somalia": 7223,
      "sophie": 7224,
      "001": 7225,
      "gale": 7226,
      "gary": 7227,
      "gats": 7228,
      "gazpa": 7229,
      "galapa": 7230,
      "tyson": 7231,
      "hoar": 7232,
      "độ": 7233,
      "đổi": 7234,
      "satin": 7235,
      "saga": 7236,
      "saha": 7237,
      "sabi": 7238,
      "salon": 7239,
      "sasaki": 7240,
      "sawako": 7241,
      "saddam": 7242,
      "sakam": 7243,
      "savlon": 7244,
      "saburo": 7245,
      "sachiyo": 7246,
      "sadit": 7247,
      "salaman": 7248,
      "ero": 7249,
      "erne": 7250,
      "erwin": 7251,
      "erwood": 7252,
      "banero": 7253,
      "cac": 7254,
      "caf": 7255,
      "cas": 7256,
      "caca": 7257,
      "caes": 7258,
      "casi": 7259,
      "cale": 7260,
      "cabot": 7261,
      "caps": 7262,
      "capp": 7263,
      "cast": 7264,
      "cạnh": 7265,
      "catter": 7266,
      "lydia": 7267,
      "duệ": 7268,
      "dunit": 7269,
      "dụng": 7270,
      "dumbo": 7271,
      "dublin": 7272,
      "lic": 7273,
      "liêm": 7274,
      "lily": 7275,
      "lili": 7276,
      "liêng": 7277,
      "lida": 7278,
      "lipi": 7279,
      "liềm": 7280,
      "litan": 7281,
      "liber": 7282,
      "lington": 7283,
      "libre": 7284,
      "libya": 7285,
      "lidge": 7286,
      "lighty": 7287,
      "sử": 7288,
      "bím": 7289,
      "kyowa": 7290,
      "cưu": 7291,
      "rot": 7292,
      "roku": 7293,
      "roll": 7294,
      "roone": 7295,
      "rosie": 7296,
      "roed": 7297,
      "roset": 7298,
      "roflex": 7299,
      "rolode": 7300,
      "dab": 7301,
      "date": 7302,
      "damas": 7303,
      "darin": 7304,
      "dalton": 7305,
      "datsu": 7306,
      "dallas": 7307,
      "dallo": 7308,
      "dachsh": 7309,
      "thic": 7310,
      "thiêt": 7311,
      "pie": 7312,
      "piel": 7313,
      "piter": 7314,
      "piranh": 7315,
      "piper": 7316,
      "pitt": 7317,
      "pilla": 7318,
      "pilaf": 7319,
      "mở": 7320,
      "305": 7321,
      "kali": 7322,
      "kago": 7323,
      "kaza": 7324,
      "kaku": 7325,
      "kazu": 7326,
      "kabilly": 7327,
      "kawam": 7328,
      "kazuko": 7329,
      "kadda": 7330,
      "kafka": 7331,
      "kathle": 7332,
      "katrina": 7333,
      "cans": 7334,
      "canxi": 7335,
      "cks": 7336,
      "ckne": 7337,
      "ckler": 7338,
      "cking": 7339,
      "ckpool": 7340,
      "nec": 7341,
      "nese": 7342,
      "nevil": 7343,
      "nefer": 7344,
      "neville": 7345,
      "negie": 7346,
      "neptu": 7347,
      "nessie": 7348,
      "neuman": 7349,
      "trợn": 7350,
      "tự": 7351,
      "kich": 7352,
      "kiều": 7353,
      "kiêm": 7354,
      "kiso": 7355,
      "kiki": 7356,
      "kies": 7357,
      "kiwi": 7358,
      "kill": 7359,
      "kishim": 7360,
      "kigali": 7361,
      "kilt": 7362,
      "kitada": 7363,
      "tenor": 7364,
      "tensky": 7365,
      "tenberg": 7366,
      "tenright": 7367,
      "shel": 7368,
      "shun": 7369,
      "shei": 7370,
      "shera": 7371,
      "shonan": 7372,
      "shamis": 7373,
      "vén": 7374,
      "anohana": 7375,
      "nissan": 7376,
      "ess": 7377,
      "esda": 7378,
      "eskim": 7379,
      "essand": 7380,
      "esden": 7381,
      "espres": 7382,
      "esonia": 7383,
      "sayoko": 7384,
      "kok": 7385,
      "kochi": 7386,
      "kosu": 7387,
      "kohe": 7388,
      "koop": 7389,
      "kogio": 7390,
      "koala": 7391,
      "kojin": 7392,
      "kodate": 7393,
      "sula": 7394,
      "suni": 7395,
      "suru": 7396,
      "sulf": 7397,
      "super": 7398,
      "suzy": 7399,
      "suwon": 7400,
      "suzanne": 7401,
      "sumatra": 7402,
      "jason": 7403,
      "jacin": 7404,
      "jabber": 7405,
      "jacqu": 7406,
      "xix": 7407,
      "xiaoli": 7408,
      "chimomo": 7409,
      "1912": 7410,
      "1925": 7411,
      "1916": 7412,
      "1914": 7413,
      "1929": 7414,
      "1928": 7415,
      "nhạc": 7416,
      "nhảy": 7417,
      "paca": 7418,
      "pate": 7419,
      "park": 7420,
      "pass": 7421,
      "palăng": 7422,
      "paragu": 7423,
      "papua": 7424,
      "patočka": 7425,
      "eld": 7426,
      "els": 7427,
      "elin": 7428,
      "elba": 7429,
      "elva": 7430,
      "elbar": 7431,
      "elbert": 7432,
      "eller": 7433,
      "kent": 7434,
      "kenshin": 7435,
      "kenny": 7436,
      "kentaro": 7437,
      "kentucky": 7438,
      "sic": 7439,
      "siu": 7440,
      "sica": 7441,
      "side": 7442,
      "siana": 7443,
      "sidney": 7444,
      "silia": 7445,
      "sienna": 7446,
      "sirius": 7447,
      "silvia": 7448,
      "siamese": 7449,
      "varna": 7450,
      "vaxgen": 7451,
      "vatican": 7452,
      "timecar": 7453,
      "gogh": 7454,
      "gore": 7455,
      "govia": 7456,
      "gorges": 7457,
      "govina": 7458,
      "gothic": 7459,
      "andrea": 7460,
      "andré": 7461,
      "laika": 7462,
      "jackie": 7463,
      "sony": 7464,
      "sonezaki": 7465,
      "thả": 7466,
      "thats": 7467,
      "101": 7468,
      "102": 7469,
      "105": 7470,
      "10h30": 7471,
      "teau": 7472,
      "tein": 7473,
      "tetri": 7474,
      "teras": 7475,
      "tejano": 7476,
      "anette": 7477,
      "anebashi": 7478,
      "guiteau": 7479,
      "ket": 7480,
      "kees": 7481,
      "kẹt": 7482,
      "keats": 7483,
      "keeton": 7484,
      "nah": 7485,
      "naò": 7486,
      "nagai": 7487,
      "napal": 7488,
      "nazis": 7489,
      "nachos": 7490,
      "tart": 7491,
      "newport": 7492,
      "newswe": 7493,
      "check": 7494,
      "cheat": 7495,
      "cheeta": 7496,
      "hòm": 7497,
      "lindber": 7498,
      "etsk": 7499,
      "etcher": 7500,
      "namba": 7501,
      "namby": 7502,
      "med": 7503,
      "mẹ": 7504,
      "meth": 7505,
      "meta": 7506,
      "melis": 7507,
      "medina": 7508,
      "melodra": 7509,
      "mesopo": 7510,
      "jimori": 7511,
      "jimmie": 7512,
      "rubén": 7513,
      "rumani": 7514,
      "rutled": 7515,
      "hả": 7516,
      "hard": 7517,
      "haley": 7518,
      "hachiko": 7519,
      "hatoyama": 7520,
      "haggi": 7521,
      "havana": 7522,
      "hagino": 7523,
      "hamamatsu": 7524,
      "habanero": 7525,
      "hakodate": 7526,
      "wie": 7527,
      "will": 7528,
      "wifi": 7529,
      "witb": 7530,
      "valise": 7531,
      "lena": 7532,
      "lenin": 7533,
      "lanka": 7534,
      "lộc": 7535,
      "shing": 7536,
      "shiga": 7537,
      "shigeo": 7538,
      "shimas": 7539,
      "shizuko": 7540,
      "shiegal": 7541,
      "shilling": 7542,
      "shirley": 7543,
      "shiloh": 7544,
      "raul": 7545,
      "jig": 7546,
      "jison": 7547,
      "hima": 7548,
      "hiko": 7549,
      "hioka": 7550,
      "hilla": 7551,
      "hickie": 7552,
      "hideo": 7553,
      "hipster": 7554,
      "hitomi": 7555,
      "hitachi": 7556,
      "highlli": 7557,
      "rev": 7558,
      "repo": 7559,
      "retro": 7560,
      "reve": 7561,
      "recole": 7562,
      "rebec": 7563,
      "reulum": 7564,
      "retiro": 7565,
      "reribs": 7566,
      "weitzer": 7567,
      "weries": 7568,
      "beb": 7569,
      "bethan": 7570,
      "bever": 7571,
      "beis": 7572,
      "nhuần": 7573,
      "bit": 7574,
      "biet": 7575,
      "bisha": 7576,
      "bingley": 7577,
      "bisabi": 7578,
      "bierne": 7579,
      "dioxin": 7580,
      "polon": 7581,
      "potter": 7582,
      "polka": 7583,
      "porter": 7584,
      "poyang": 7585,
      "politan": 7586,
      "wash": 7587,
      "wall": 7588,
      "wales": 7589,
      "waway": 7590,
      "wagner": 7591,
      "wabisabi": 7592,
      "lech": 7593,
      "leal": 7594,
      "leff": 7595,
      "legro": 7596,
      "lehem": 7597,
      "cuồn": 7598,
      "cuff": 7599,
      "cules": 7600,
      "custer": 7601,
      "cutie": 7602,
      "cuzco": 7603,
      "tannis": 7604,
      "tanzania": 7605,
      "201": 7606,
      "2012": 7607,
      "2011": 7608,
      "2014": 7609,
      "bêp": 7610,
      "pete": 7611,
      "petro": 7612,
      "pear": 7613,
      "pegg": 7614,
      "peace": 7615,
      "peary": 7616,
      "peek": 7617,
      "peige": 7618,
      "huỷ": 7619,
      "hula": 7620,
      "husse": 7621,
      "hummer": 7622,
      "hurst": 7623,
      "huxley": 7624,
      "huelva": 7625,
      "zachary": 7626,
      "mikey": 7627,
      "sandayu": 7628,
      "fat": 7629,
      "farida": 7630,
      "farragu": 7631,
      "fahima": 7632,
      "mênh": 7633,
      "mệnh": 7634,
      "cynth": 7635,
      "tịnh": 7636,
      "pint": 7637,
      "pinch": 7638,
      "pinkney": 7639,
      "pinocchi": 7640,
      "sandwiches": 7641,
      "bùi": 7642,
      "tero": 7643,
      "terry": 7644,
      "tersha": 7645,
      "terms": 7646,
      "termina": 7647,
      "bard": 7648,
      "bartolo": 7649,
      "cedes": 7650,
      "phap": 7651,
      "dưng": 7652,
      "đẹp": 7653,
      "ngạc": 7654,
      "jeanette": 7655,
      "jebeb": 7656,
      "okayama": 7657,
      "kudo": 7658,
      "kuza": 7659,
      "kumu": 7660,
      "kuwai": 7661,
      "kump": 7662,
      "kurosa": 7663,
      "kublai": 7664,
      "webcam": 7665,
      "alto": 7666,
      "allen": 7667,
      "alfa": 7668,
      "alfred": 7669,
      "altami": 7670,
      "alzhe": 7671,
      "algeria": 7672,
      "aldous": 7673,
      "alessand": 7674,
      "alpaca": 7675,
      "100ºc": 7676,
      "xoài": 7677,
      "donetsk": 7678,
      "hưc": 7679,
      "yara": 7680,
      "yale": 7681,
      "yahoo": 7682,
      "yakini": 7683,
      "yaako": 7684,
      "yaesu": 7685,
      "yatarou": 7686,
      "yakuza": 7687,
      "sakaki": 7688,
      "futon": 7689,
      "funkel": 7690,
      "furlo": 7691,
      "furigana": 7692,
      "fujimori": 7693,
      "musa": 7694,
      "muham": 7695,
      "mutine": 7696,
      "mubara": 7697,
      "murcia": 7698,
      "munich": 7699,
      "mucks": 7700,
      "ranban": 7701,
      "judo": 7702,
      "jules": 7703,
      "jumbo": 7704,
      "judas": 7705,
      "junkman": 7706,
      "jupiter": 7707,
      "186": 7708,
      "1819": 7709,
      "1812": 7710,
      "1825": 7711,
      "1814": 7712,
      "1870": 7713,
      "1823": 7714,
      "1835": 7715,
      "1845": 7716,
      "1828": 7717,
      "1897": 7718,
      "1876": 7719,
      "1839": 7720,
      "1868": 7721,
      "1873": 7722,
      "1852": 7723,
      "1891": 7724,
      "1896": 7725,
      "1863": 7726,
      "nana": 7727,
      "nanzen": 7728,
      "nanako": 7729,
      "see": 7730,
      "sey": 7731,
      "sean": 7732,
      "segovia": 7733,
      "orca": 7734,
      "pizz": 7735,
      "ill": 7736,
      "aille": 7737,
      "brasilia": 7738,
      "yuri": 7739,
      "yuko": 7740,
      "yukon": 7741,
      "yukina": 7742,
      "ffler": 7743,
      "unk": 7744,
      "unjam": 7745,
      "hamper": 7746,
      "hammed": 7747,
      "chởm": 7748,
      "bern": 7749,
      "berlain": 7750,
      "fujita": 7751,
      "fujiwara": 7752,
      "mob": 7753,
      "mol": 7754,
      "mot": 7755,
      "mỏi": 7756,
      "mohan": 7757,
      "mọi": 7758,
      "model": 7759,
      "moul": 7760,
      "morgan": 7761,
      "mogami": 7762,
      "mohand": 7763,
      "momochi": 7764,
      "modem": 7765,
      "moore": 7766,
      "mohammed": 7767,
      "alison": 7768,
      "rylic": 7769,
      "tangany": 7770,
      "kaifu": 7771,
      "kaisha": 7772,
      "kaiser": 7773,
      "kairanban": 7774,
      "nora": 7775,
      "nome": 7776,
      "notre": 7777,
      "nott": 7778,
      "nozawa": 7779,
      "nold": 7780,
      "noriko": 7781,
      "notch": 7782,
      "norikura": 7783,
      "waikiki": 7784,
      "bangkok": 7785,
      "paulina": 7786,
      "mexicans": 7787,
      "jeanne": 7788,
      "2004": 7789,
      "2005": 7790,
      "20000": 7791,
      "collie": 7792,
      "colloca": 7793,
      "manna": 7794,
      "manjiro": 7795,
      "manchester": 7796,
      "mantel": 7797,
      "manchuria": 7798,
      "mandarin": 7799,
      "ladino": 7800,
      "cooper": 7801,
      "coolidge": 7802,
      "kiev": 7803,
      "125": 7804,
      "126": 7805,
      "1271": 7806,
      "mond": 7807,
      "monet": 7808,
      "montre": 7809,
      "mondri": 7810,
      "monella": 7811,
      "moncloa": 7812,
      "montero": 7813,
      "nhõng": 7814,
      "dean": 7815,
      "depp": 7816,
      "debby": 7817,
      "dezhn": 7818,
      "deric": 7819,
      "decaf": 7820,
      "debierne": 7821,
      "lls": 7822,
      "ursula": 7823,
      "trụy": 7824,
      "trie": 7825,
      "trick": 7826,
      "trifled": 7827,
      "cairo": 7828,
      "jonas": 7829,
      "hangout": 7830,
      "analog": 7831,
      "carter": 7832,
      "carrie": 7833,
      "carlton": 7834,
      "carmen": 7835,
      "carmel": 7836,
      "carrey": 7837,
      "carmina": 7838,
      "carnegie": 7839,
      "cartenright": 7840,
      "meguro": 7841,
      "meganebashi": 7842,
      "dresden": 7843,
      "franz": 7844,
      "franco": 7845,
      "incheon": 7846,
      "cayman": 7847,
      "shop": 7848,
      "show": 7849,
      "shochu": 7850,
      "shoichi": 7851,
      "shoppi": 7852,
      "christine": 7853,
      "christian": 7854,
      "christie": 7855,
      "christoph": 7856,
      "mariana": 7857,
      "marius": 7858,
      "niagara": 7859,
      "verne": 7860,
      "verdun": 7861,
      "1984": 7862,
      "1991": 7863,
      "1994": 7864,
      "1517": 7865,
      "troll": 7866,
      "trọng": 7867,
      "shasa": 7868,
      "sharon": 7869,
      "bềnh": 7870,
      "ssels": 7871,
      "vegemi": 7872,
      "vecni": 7873,
      "trụ": 7874,
      "trump": 7875,
      "shinya": 7876,
      "lambton": 7877,
      "lamborgh": 7878,
      "samsung": 7879,
      "sammy": 7880,
      "samura": 7881,
      "sampra": 7882,
      "bướu": 7883,
      "minn": 7884,
      "minsk": 7885,
      "usp": 7886,
      "xíu": 7887,
      "mascara": 7888,
      "interling": 7889,
      "1977": 7890,
      "1978": 7891,
      "133": 7892,
      "135": 7893,
      "1374": 7894,
      "256": 7895,
      "2581": 7896,
      "jamie": 7897,
      "lôp": 7898,
      "rink": 7899,
      "harding": 7900,
      "harvey": 7901,
      "harpsi": 7902,
      "harjison": 7903,
      "162": 7904,
      "1610": 7905,
      "1642": 7906,
      "asper": 7907,
      "croats": 7908,
      "croix": 7909,
      "croquet": 7910,
      "islamaba": 7911,
      "đươc": 7912,
      "bethesda": 7913,
      "bethlehem": 7914,
      "170": 7915,
      "174": 7916,
      "1700": 7917,
      "1750": 7918,
      "1725": 7919,
      "1799": 7920,
      "1764": 7921,
      "1797": 7922,
      "1752": 7923,
      "1791": 7924,
      "1763": 7925,
      "1757": 7926,
      "1778": 7927,
      "1789": 7928,
      "emish": 7929,
      "susana": 7930,
      "bond": 7931,
      "bonfa": 7932,
      "bonkers": 7933,
      "bonjour": 7934,
      "cile": 7935,
      "ged": 7936,
      "geta": 7937,
      "geiger": 7938,
      "geyser": 7939,
      "zuka": 7940,
      "zuela": 7941,
      "zurich": 7942,
      "logger": 7943,
      "jesuit": 7944,
      "jessica": 7945,
      "kgb": 7946,
      "lệnh": 7947,
      "perl": 7948,
      "pers": 7949,
      "persona": 7950,
      "reno": 7951,
      "renmei": 7952,
      "sensou": 7953,
      "zees": 7954,
      "zepp": 7955,
      "zezo": 7956,
      "zegovina": 7957,
      "rockef": 7958,
      "scotch": 7959,
      "attan": 7960,
      "atsushi": 7961,
      "geronim": 7962,
      "gerhard": 7963,
      "kanban": 7964,
      "myanmar": 7965,
      "tụy": 7966,
      "willie": 7967,
      "wilkes": 7968,
      "bini": 7969,
      "dams": 7970,
      "damon": 7971,
      "feu": 7972,
      "fedora": 7973,
      "fox": 7974,
      "foster": 7975,
      "focal": 7976,
      "foot": 7977,
      "nakagawa": 7978,
      "nakajima": 7979,
      "hirofumi": 7980,
      "frey": 7981,
      "freeman": 7982,
      "frederic": 7983,
      "ohgai": 7984,
      "root": 7985,
      "shute": 7986,
      "shuffler": 7987,
      "yamanaka": 7988,
      "yamazaki": 7989,
      "yamauchi": 7990,
      "underwood": 7991,
      "congo": 7992,
      "congas": 7993,
      "gras": 7994,
      "grata": 7995,
      "granit": 7996,
      "hẹn": 7997,
      "heebi": 7998,
      "steen": 7999,
      "steven": 8000,
      "steplad": 8001,
      "stephen": 8002,
      "tệ": 8003,
      "hitter": 8004,
      "shakespearian": 8005,
      "145": 8006,
      "1499": 8007,
      "1497": 8008,
      "1473": 8009,
      "1492": 8010,
      "putin": 8011,
      "pull": 8012,
      "pulco": 8013,
      "spareribs": 8014,
      "tanakas": 8015,
      "latino": 8016,
      "halley": 8017,
      "pounder": 8018,
      "bender": 8019,
      "bentley": 8020,
      "blogger": 8021,
      "dante": 8022,
      "florua": 8023,
      "hungary": 8024,
      "white": 8025,
      "microbre": 8026,
      "microski": 8027,
      "roberts": 8028,
      "1931": 8029,
      "1932": 8030,
      "1936": 8031,
      "1937": 8032,
      "1943": 8033,
      "1946": 8034,
      "1947": 8035,
      "1949": 8036,
      "1965": 8037,
      "keisuke": 8038,
      "julian": 8039,
      "juliana": 8040,
      "freddy": 8041,
      "brownie": 8042,
      "celine": 8043,
      "nypd": 8044,
      "toei": 8045,
      "toefl": 8046,
      "johnsons": 8047,
      "guzmán": 8048,
      "gutenberg": 8049,
      "helens": 8050,
      "manhattan": 8051,
      "tsugi": 8052,
      "tsuneo": 8053,
      "tsubasa": 8054,
      "winfrey": 8055,
      "phobia": 8056,
      "queer": 8057,
      "quebec": 8058,
      "karam": 8059,
      "223": 8060,
      "226": 8061,
      "229": 8062,
      "arm": 8063,
      "armen": 8064,
      "arlington": 8065,
      "breath": 8066,
      "daiset": 8067,
      "denim": 8068,
      "denver": 8069,
      "deniro": 8070,
      "eliana": 8071,
      "ftp": 8072,
      "lụy": 8073,
      "sylvia": 8074,
      "sylvan": 8075,
      "tzgera": 8076,
      "wayne": 8077,
      "macesonia": 8078,
      "bott": 8079,
      "1956": 8080,
      "1957": 8081,
      "1958": 8082,
      "teddy": 8083,
      "satoh": 8084,
      "satoru": 8085,
      "eley": 8086,
      "okinawans": 8087,
      "genoa": 8088,
      "irão": 8089,
      "keller": 8090,
      "kelantan": 8091,
      "old": 8092,
      "olga": 8093,
      "oldies": 8094,
      "olgos": 8095,
      "oswal": 8096,
      "busking": 8097,
      "cockney": 8098,
      "239": 8099,
      "337": 8100,
      "clapton": 8101,
      "fiji": 8102,
      "fizz": 8103,
      "fiona": 8104,
      "filiber": 8105,
      "field": 8106,
      "fishing": 8107,
      "fitzgera": 8108,
      "hank": 8109,
      "hanry": 8110,
      "hannah": 8111,
      "hươc": 8112,
      "herod": 8113,
      "herbert": 8114,
      "hercules": 8115,
      "herzegovina": 8116,
      "herold": 8117,
      "vocal": 8118,
      "vọng": 8119,
      "volap": 8120,
      "vinyl": 8121,
      "columbia": 8122,
      "salk": 8123,
      "salve": 8124,
      "saltsha": 8125,
      "salmonella": 8126,
      "cảnh": 8127,
      "picassos": 8128,
      "popescu": 8129,
      "jerk": 8130,
      "kinshasa": 8131,
      "ozamu": 8132,
      "burrito": 8133,
      "bowl": 8134,
      "acrylic": 8135,
      "byron": 8136,
      "derry": 8137,
      "dersee": 8138,
      "gangly": 8139,
      "gangster": 8140,
      "gangway": 8141,
      "icecaps": 8142,
      "mendel": 8143,
      "menorca": 8144,
      "pyrene": 8145,
      "pyrr": 8146,
      "takada": 8147,
      "takaki": 8148,
      "takasu": 8149,
      "takashi": 8150,
      "takakura": 8151,
      "quick": 8152,
      "quiche": 8153,
      "hoody": 8154,
      "yoshiki": 8155,
      "yoshiko": 8156,
      "yoshikawa": 8157,
      "calm": 8158,
      "callas": 8159,
      "calcut": 8160,
      "calhoun": 8161,
      "lynch": 8162,
      "estella": 8163,
      "asama": 8164,
      "asada": 8165,
      "asakusa": 8166,
      "craps": 8167,
      "flavio": 8168,
      "greg": 8169,
      "greta": 8170,
      "greeley": 8171,
      "hổ": 8172,
      "ichiban": 8173,
      "melanes": 8174,
      "nãy": 8175,
      "norman": 8176,
      "pence": 8177,
      "pentium": 8178,
      "penthouse": 8179,
      "swig": 8180,
      "swiss": 8181,
      "swift": 8182,
      "taniguchi": 8183,
      "nikon": 8184,
      "nikkei": 8185,
      "nitlog": 8186,
      "compac": 8187,
      "kawazo": 8188,
      "kawasaki": 8189,
      "patdow": 8190,
      "wallop": 8191,
      "ahtapo": 8192,
      "cindy": 8193,
      "draco": 8194,
      "drake": 8195,
      "erick": 8196,
      "straps": 8197,
      "stratford": 8198,
      "serbs": 8199,
      "sergio": 8200,
      "uraga": 8201,
      "werp": 8202,
      "ballboy": 8203,
      "ballpoint": 8204,
      "ballgirl": 8205,
      "louisiana": 8206,
      "taylors": 8207,
      "dorj": 8208,
      "dorsey": 8209,
      "colombi": 8210,
      "garvey": 8211,
      "garfunkel": 8212,
      "liszt": 8213,
      "andersen": 8214,
      "nagashima": 8215,
      "nagashimas": 8216,
      "billboard": 8217,
      "1841": 8218,
      "1844": 8219,
      "1846": 8220,
      "1848": 8221,
      "franks": 8222,
      "iraqi": 8223,
      "iraqis": 8224,
      "642": 8225,
      "904": 8226,
      "aftersha": 8227,
      "brutus": 8228,
      "brussels": 8229,
      "clint": 8230,
      "claudia": 8231,
      "delhi": 8232,
      "delwar": 8233,
      "ferris": 8234,
      "ganoff": 8235,
      "honda": 8236,
      "mercedes": 8237,
      "otto": 8238,
      "ottoman": 8239,
      "prado": 8240,
      "practor": 8241,
      "ronnie": 8242,
      "ronald": 8243,
      "vệ": 8244,
      "rapper": 8245,
      "chipper": 8246,
      "rosalie": 8247,
      "kabul": 8248,
      "googling": 8249,
      "reynold": 8250,
      "fukudas": 8251,
      "juanito": 8252,
      "1801": 8253,
      "1805": 8254,
      "burrs": 8255,
      "483": 8256,
      "akina": 8257,
      "argentine": 8258,
      "excel": 8259,
      "guam": 8260,
      "guabalan": 8261,
      "isadora": 8262,
      "presley": 8263,
      "stown": 8264,
      "stocking": 8265,
      "stowaway": 8266,
      "zither": 8267,
      "takanohana": 8268,
      "tasman": 8269,
      "tassadit": 8270,
      "takehi": 8271,
      "takeuchi": 8272,
      "masako": 8273,
      "masashi": 8274,
      "martini": 8275,
      "bagdad": 8276,
      "baggy": 8277,
      "balt": 8278,
      "baltic": 8279,
      "baltolas": 8280,
      "carat": 8281,
      "caracas": 8282,
      "karl": 8283,
      "karlo": 8284,
      "karim": 8285,
      "neapolitan": 8286,
      "1905": 8287,
      "1906": 8288,
      "1908": 8289,
      "palmer": 8290,
      "hatteras": 8291,
      "kunio": 8292,
      "kunihiko": 8293,
      "scottland": 8294,
      "5511": 8295,
      "akagi": 8296,
      "akasaka": 8297,
      "alana": 8298,
      "applebee": 8299,
      "bluegra": 8300,
      "clunker": 8301,
      "fletcher": 8302,
      "flemish": 8303,
      "iii": 8304,
      "kaya": 8305,
      "kayak": 8306,
      "kleenex": 8307,
      "llac": 8308,
      "llama": 8309,
      "mcadams": 8310,
      "minako": 8311,
      "nut": 8312,
      "protein": 8313,
      "strauss": 8314,
      "stress": 8315,
      "spite": 8316,
      "spike": 8317,
      "ssippi": 8318,
      "telex": 8319,
      "torres": 8320,
      "tampa": 8321,
      "matsuda": 8322,
      "matsuko": 8323,
      "matsutake": 8324,
      "backtalk": 8325,
      "bucks": 8326,
      "hydrat": 8327,
      "josef": 8328,
      "capri": 8329,
      "capya": 8330,
      "cassino": 8331,
      "rockabilly": 8332,
      "pipled": 8333,
      "patrick": 8334,
      "podcast": 8335,
      "shanghainese": 8336,
      "shinanogawa": 8337,
      "venezuela": 8338,
      "greenpeace": 8339,
      "4219": 8340,
      "aarhus": 8341,
      "blowfi": 8342,
      "blabber": 8343,
      "blackie": 8344,
      "blackpool": 8345,
      "bbered": 8346,
      "ethiop": 8347,
      "gunpoint": 8348,
      "helga": 8349,
      "iowa": 8350,
      "ioana": 8351,
      "ingwell": 8352,
      "iridium": 8353,
      "isoroku": 8354,
      "kaoru": 8355,
      "konrad": 8356,
      "konbini": 8357,
      "nero": 8358,
      "neruda": 8359,
      "spunk": 8360,
      "snifter": 8361,
      "stroganoff": 8362,
      "yanis": 8363,
      "yankees": 8364,
      "đợi": 8365,
      "town": 8366,
      "toshio": 8367,
      "toshima": 8368,
      "tamia": 8369,
      "magellan": 8370,
      "ramudu": 8371,
      "tions": 8372,
      "onigiris": 8373,
      "turner": 8374,
      "booze": 8375,
      "boogie": 8376,
      "diesel": 8377,
      "richter": 8378,
      "richmond": 8379,
      "galileo": 8380,
      "galile": 8381,
      "catalina": 8382,
      "karima": 8383,
      "parfai": 8384,
      "nakamura": 8385,
      "russia": 8386,
      "hiệu": 8387,
      "beckham": 8388,
      "bismarck": 8389,
      "warren": 8390,
      "warcraft": 8391,
      "huskies": 8392,
      "bradford": 8393,
      "harriet": 8394,
      "israel": 8395,
      "hermann": 8396,
      "pepperberg": 8397,
      "jaywalker": 8398,
      "8873": 8399,
      "bríd": 8400,
      "braille": 8401,
      "blinker": 8402,
      "blanc": 8403,
      "blanco": 8404,
      "cristina": 8405,
      "cristofo": 8406,
      "daugther": 8407,
      "dleton": 8408,
      "dinavia": 8409,
      "england": 8410,
      "engelbar": 8411,
      "evans": 8412,
      "earl": 8413,
      "fidel": 8414,
      "fiddle": 8415,
      "grande": 8416,
      "grannie": 8417,
      "handmade": 8418,
      "jani": 8419,
      "kaneko": 8420,
      "mặt": 8421,
      "mặc": 8422,
      "pamby": 8423,
      "pamela": 8424,
      "schroed": 8425,
      "schweitzer": 8426,
      "sloane": 8427,
      "slobbered": 8428,
      "tesla": 8429,
      "vespa": 8430,
      "wendy": 8431,
      "zambia": 8432,
      "zamenho": 8433,
      "zhengzho": 8434,
      "chờ": 8435,
      "totle": 8436,
      "trench": 8437,
      "trenton": 8438,
      "angelo": 8439,
      "mahj": 8440,
      "mahdi": 8441,
      "mackffy": 8442,
      "madeira": 8443,
      "marimbas": 8444,
      "rasputin": 8445,
      "racoon": 8446,
      "antsy": 8447,
      "antwerp": 8448,
      "connemara": 8449,
      "connecti": 8450,
      "hogwash": 8451,
      "holland": 8452,
      "homestay": 8453,
      "homestret": 8454,
      "bavary": 8455,
      "bavaria": 8456,
      "babysit": 8457,
      "babysat": 8458,
      "bubba": 8459,
      "bologna": 8460,
      "encore": 8461,
      "thoại": 8462,
      "amide": 8463,
      "imery": 8464,
      "lawrence": 8465,
      "ripcord": 8466,
      "midterms": 8467,
      "middleton": 8468,
      "michigan": 8469,
      "miyazawa": 8470,
      "miyazaki": 8471,
      "michelangelo": 8472,
      "southampton": 8473,
      "cadiz": 8474,
      "cadillac": 8475,
      "caribê": 8476,
      "caribbe": 8477,
      "duncan": 8478,
      "mayumi": 8479,
      "romney": 8480,
      "rommel": 8481,
      "pierre": 8482,
      "pierrot": 8483,
      "kalmius": 8484,
      "katsumi": 8485,
      "katsuko": 8486,
      "cantonese": 8487,
      "sumter": 8488,
      "sonata": 8489,
      "nashville": 8490,
      "meier": 8491,
      "rumiko": 8492,
      "hideyo": 8493,
      "hideki": 8494,
      "beatriz": 8495,
      "beatrice": 8496,
      "billie": 8497,
      "bildersee": 8498,
      "waraw": 8499,
      "hubbub": 8500,
      "hubbard": 8501,
      "fabio": 8502,
      "fabien": 8503,
      "kunze": 8504,
      "kunming": 8505,
      "fumio": 8506,
      "monoxide": 8507,
      "montcalm": 8508,
      "monteimery": 8509,
      "francis": 8510,
      "francine": 8511,
      "shougo": 8512,
      "shounan": 8513,
      "gerard": 8514,
      "photocopy": 8515,
      "photoshop": 8516,
      "trekking": 8517,
      "bellboy": 8518,
      "nitpicking": 8519,
      "isabella": 8520,
      "morphin": 8521,
      "cobbler": 8522,
      "springsteen": 8523,
      "springfield": 8524,
      "sniffle": 8525,
      "sniffling": 8526,
      "magdalena": 8527,
      "flickr": 8528,
      "gustavo": 8529,
      "jumpsuit": 8530,
      "051": 8531,
      "14080": 8532,
      "8647": 8533,
      "abbott": 8534,
      "agnè": 8535,
      "adobe": 8536,
      "acapulco": 8537,
      "ashburton": 8538,
      "aristotle": 8539,
      "apoche": 8540,
      "akutagawa": 8541,
      "ariake": 8542,
      "azuchimomo": 8543,
      "adenauer": 8544,
      "avishai": 8545,
      "bưc": 8546,
      "baikal": 8547,
      "bauru": 8548,
      "bjork": 8549,
      "brento": 8550,
      "brooke": 8551,
      "czolgos": 8552,
      "cẫng": 8553,
      "ctose": 8554,
      "clive": 8555,
      "clasp": 8556,
      "cleondon": 8557,
      "dink": 8558,
      "dwight": 8559,
      "danny": 8560,
      "dvorak": 8561,
      "eastwood": 8562,
      "fonder": 8563,
      "fender": 8564,
      "friends": 8565,
      "friss": 8566,
      "fructose": 8567,
      "flamenco": 8568,
      "fresno": 8569,
      "gloria": 8570,
      "gómez": 8571,
      "gandhi": 8572,
      "hanover": 8573,
      "ibusuki": 8574,
      "ishikawa": 8575,
      "ibiza": 8576,
      "izakaya": 8577,
      "ingalls": 8578,
      "icily": 8579,
      "itsumi": 8580,
      "ibaraki": 8581,
      "iwamoto": 8582,
      "jaume": 8583,
      "jpeg": 8584,
      "kẽm": 8585,
      "klava": 8586,
      "klingon": 8587,
      "luyến": 8588,
      "maori": 8589,
      "memlaw": 8590,
      "mimi": 8591,
      "myopia": 8592,
      "nấng": 8593,
      "nẵng": 8594,
      "ogaki": 8595,
      "olivier": 8596,
      "otemoto": 8597,
      "ooita": 8598,
      "ocarina": 8599,
      "olery": 8600,
      "oprah": 8601,
      "opossum": 8602,
      "paypal": 8603,
      "ponzi": 8604,
      "plutonium": 8605,
      "plymouth": 8606,
      "pelé": 8607,
      "prude": 8608,
      "preto": 8609,
      "pseudo": 8610,
      "rsvp": 8611,
      "remington": 8612,
      "ryoutarou": 8613,
      "stalin": 8614,
      "stickler": 8615,
      "squaw": 8616,
      "studio": 8617,
      "simon": 8618,
      "slary": 8619,
      "schumacher": 8620,
      "slit": 8621,
      "scandinavia": 8622,
      "starbucks": 8623,
      "skimpy": 8624,
      "sretensky": 8625,
      "snob": 8626,
      "strike": 8627,
      "sinatra": 8628,
      "snitch": 8629,
      "tặng": 8630,
      "utah": 8631,
      "unipipled": 8632,
      "ussr": 8633,
      "ubuntu": 8634,
      "uesugi": 8635,
      "volkogio": 8636,
      "whodunit": 8637,
      "wripple": 8638,
      "wyatt": 8639,
      "worth": 8640,
      "wimbledon": 8641,
      "xylophone": 8642,
      "xyanua": 8643,
      "yamina": 8644,
      "yerevan": 8645,
      "yellowie": 8646,
      "zorro": 8647,
      "zimbabwe": 8648,
      "chamberlain": 8649,
      "chinatown": 8650,
      "thristy": 8651,
      "torajiro": 8652,
      "tohoku": 8653,
      "tortello": 8654,
      "toronto": 8655,
      "tottori": 8656,
      "toudaiji": 8657,
      "tomfoolery": 8658,
      "transylvan": 8659,
      "gibraltar": 8660,
      "takiyama": 8661,
      "tajik": 8662,
      "tarantula": 8663,
      "tampico": 8664,
      "takarazuka": 8665,
      "tatsuya": 8666,
      "quincy": 8667,
      "quesadillas": 8668,
      "chondriac": 8669,
      "anglophobia": 8670,
      "angkor": 8671,
      "aikido": 8672,
      "airsickne": 8673,
      "matue": 8674,
      "machida": 8675,
      "maladies": 8676,
      "masochist": 8677,
      "malibu": 8678,
      "mathieu": 8679,
      "masuo": 8680,
      "maserati": 8681,
      "mashuu": 8682,
      "makino": 8683,
      "mattias": 8684,
      "marketing": 8685,
      "marseille": 8686,
      "maratông": 8687,
      "rabat": 8688,
      "ravioli": 8689,
      "antigua": 8690,
      "antonio": 8691,
      "titicaca": 8692,
      "tiberio": 8693,
      "audiobook": 8694,
      "contrite": 8695,
      "concerto": 8696,
      "confetti": 8697,
      "container": 8698,
      "hochiminh": 8699,
      "hooky": 8700,
      "holliday": 8701,
      "horatio": 8702,
      "hopkins": 8703,
      "hotdogs": 8704,
      "quasar": 8705,
      "luciano": 8706,
      "lumpur": 8707,
      "baghdad": 8708,
      "baloney": 8709,
      "baseman": 8710,
      "bambury": 8711,
      "buenos": 8712,
      "budorg": 8713,
      "bulinois": 8714,
      "bungari": 8715,
      "bunyan": 8716,
      "buchanan": 8717,
      "logarit": 8718,
      "bouncer": 8719,
      "bootstraps": 8720,
      "enchiladas": 8721,
      "enthal": 8722,
      "chiropractor": 8723,
      "children": 8724,
      "doppler": 8725,
      "dominique": 8726,
      "amidan": 8727,
      "imbecile": 8728,
      "hypochondriac": 8729,
      "dickinson": 8730,
      "risotto": 8731,
      "ribeirão": 8732,
      "ritsuko": 8733,
      "taishukan": 8734,
      "churchill": 8735,
      "phốutsutsugi": 8736,
      "yomiuri": 8737,
      "nightingale": 8738,
      "vivaldi": 8739,
      "viracopos": 8740,
      "misako": 8741,
      "miligam": 8742,
      "mireille": 8743,
      "mitsuna": 8744,
      "mississippi": 8745,
      "coventry": 8746,
      "soseki": 8747,
      "socrates": 8748,
      "gatsby": 8749,
      "gazpacho": 8750,
      "galapagos": 8751,
      "sahara": 8752,
      "sakamoto": 8753,
      "salamanca": 8754,
      "caesium": 8755,
      "casillas": 8756,
      "caleb": 8757,
      "cappella": 8758,
      "catterpilla": 8759,
      "lilienthal": 8760,
      "lipitor": 8761,
      "lightyear": 8762,
      "rooney": 8763,
      "rosetta": 8764,
      "rolodex": 8765,
      "damascus": 8766,
      "datsun": 8767,
      "dalloway": 8768,
      "dachshund": 8769,
      "piranha": 8770,
      "kagoshima": 8771,
      "kazakhstan": 8772,
      "kakuzen": 8773,
      "kazuto": 8774,
      "kawamura": 8775,
      "kaddafi": 8776,
      "kathleen": 8777,
      "nefertari": 8778,
      "neptune": 8779,
      "neumann": 8780,
      "killjoy": 8781,
      "kishimen": 8782,
      "kitadake": 8783,
      "sheldon": 8784,
      "sheila": 8785,
      "sheraton": 8786,
      "shamisen": 8787,
      "eskimos": 8788,
      "espresso": 8789,
      "kosugi": 8790,
      "kohei": 8791,
      "suruga": 8792,
      "sulfamide": 8793,
      "superbowl": 8794,
      "jacinto": 8795,
      "jacqueline": 8796,
      "parker": 8797,
      "paraguay": 8798,
      "sidearm": 8799,
      "timecard": 8800,
      "tetris": 8801,
      "napalm": 8802,
      "newsweek": 8803,
      "cheetah": 8804,
      "lindbergh": 8805,
      "melissa": 8806,
      "melodramatic": 8807,
      "mesopotamia": 8808,
      "rutledge": 8809,
      "haggis": 8810,
      "willkie": 8811,
      "witbrock": 8812,
      "hillary": 8813,
      "highllight": 8814,
      "reveille": 8815,
      "recoleta": 8816,
      "rebecca": 8817,
      "bethany": 8818,
      "beverly": 8819,
      "beispiel": 8820,
      "bishara": 8821,
      "polonaise": 8822,
      "leffingwell": 8823,
      "legros": 8824,
      "pearson": 8825,
      "peggy": 8826,
      "hussein": 8827,
      "hummers": 8828,
      "farragut": 8829,
      "cynthia": 8830,
      "pinocchio": 8831,
      "terminator": 8832,
      "bartolomeo": 8833,
      "kumul": 8834,
      "kuwait": 8835,
      "kurosawa": 8836,
      "altamira": 8837,
      "alzheimer": 8838,
      "alessandre": 8839,
      "yakiniku": 8840,
      "yaakov": 8841,
      "furlough": 8842,
      "muhammad": 8843,
      "mutineer": 8844,
      "mubarak": 8845,
      "nanzenji": 8846,
      "moultrie": 8847,
      "tanganyika": 8848,
      "collocations": 8849,
      "cooperstown": 8850,
      "montreal": 8851,
      "mondrian": 8852,
      "dezhnev": 8853,
      "shopping": 8854,
      "christopher": 8855,
      "vegemite": 8856,
      "lamborghini": 8857,
      "sampras": 8858,
      "interlingua": 8859,
      "harpsichord": 8860,
      "asperger": 8861,
      "islamabad": 8862,
      "loggers": 8863,
      "sensouji": 8864,
      "zeppelin": 8865,
      "rockefeller": 8866,
      "geronimo": 8867,
      "footsie": 8868,
      "heebie": 8869,
      "stepladder": 8870,
      "microbreweries": 8871,
      "microskirt": 8872,
      "tsuneoki": 8873,
      "armenia": 8874,
      "daisetsu": 8875,
      "oswald": 8876,
      "filiberto": 8877,
      "fitzgerald": 8878,
      "volapük": 8879,
      "saltshaker": 8880,
      "pyrenees": 8881,
      "pyrrhus": 8882,
      "calcutta": 8883,
      "melanesia": 8884,
      "compact": 8885,
      "kawazoe": 8886,
      "patdown": 8887,
      "ahtapot": 8888,
      "colombian": 8889,
      "aftershave": 8890,
      "bluegrass": 8891,
      "blowfish": 8892,
      "blabbermouth": 8893,
      "ethiopia": 8894,
      "parfait": 8895,
      "cristofori": 8896,
      "engelbart": 8897,
      "schroeder": 8898,
      "zamenhof": 8899,
      "zhengzhou": 8900,
      "connecticut": 8901,
      "homestretch": 8902,
      "caribbean": 8903,
      "agnès": 8904,
      "azuchimomoyama": 8905,
      "czolgosz": 8906,
      "pseudomyopia": 8907,
      "transylvania": 8908,
      "airsickness": 8909,
      "catterpillar": 8910
    },
    "merges": [
      [
        "n",
        "g"
      ],
      [
        "e",
        "o"
      ],
      [
        "eo",
        "s"
      ],
      [
        "n",
        "h"
      ],
      [
        "ô",
        "i"
      ],
      [
        "t",
        "ôi"
      ],
      [
        "c",
        "h"
      ],
      [
        "t",
        "h"
      ],
      [
        "k",
        "h"
      ],
      [
        "ô",
        "ng"
      ],
      [
        "ạ",
        "n"
      ],
      [
        "b",
        "ạn"
      ],
      [
        "t",
        "o"
      ],
      [
        "kh",
        "ông"
      ],
      [
        "to",
        "m"
      ],
      [
        "t",
        "r"
      ],
      [
        "l",
        "à"
      ],
      [
        "c",
        "ó"
      ],
      [
        "ộ",
        "t"
      ],
      [
        "m",
        "ột"
      ],
      [
        "đ",
        "ã"
      ],
      [
        "a",
        "nh"
      ],
      [
        "ấ",
        "y"
      ],
      [
        "g",
        "i"
      ],
      [
        "p",
        "h"
      ],
      [
        "ủ",
        "a"
      ],
      [
        "c",
        "ủa"
      ],
      [
        "n",
        "ó"
      ],
      [
        "đ",
        "i"
      ],
      [
        "i",
        "ế"
      ],
      [
        "ờ",
        "i"
      ],
      [
        "ê",
        "n"
      ],
      [
        "ch",
        "ú"
      ],
      [
        "ấ",
        "t"
      ],
      [
        "ớ",
        "i"
      ],
      [
        "u",
        "ố"
      ],
      [
        "chú",
        "ng"
      ],
      [
        "s",
        "ẽ"
      ],
      [
        "ề",
        "u"
      ],
      [
        "đ",
        "ó"
      ],
      [
        "th",
        "ể"
      ],
      [
        "v",
        "à"
      ],
      [
        "à",
        "y"
      ],
      [
        "là",
        "m"
      ],
      [
        "v",
        "ới"
      ],
      [
        "t",
        "a"
      ],
      [
        "q",
        "u"
      ],
      [
        "nó",
        "i"
      ],
      [
        "g",
        "ì"
      ],
      [
        "ch",
        "o"
      ],
      [
        "ng",
        "h"
      ],
      [
        "i",
        "ệ"
      ],
      [
        "ạ",
        "i"
      ],
      [
        "ế",
        "n"
      ],
      [
        "uố",
        "n"
      ],
      [
        "a",
        "ng"
      ],
      [
        "ả",
        "i"
      ],
      [
        "c",
        "ô"
      ],
      [
        "ư",
        "ời"
      ],
      [
        "a",
        "i"
      ],
      [
        "o",
        "ng"
      ],
      [
        "đ",
        "ến"
      ],
      [
        "iế",
        "t"
      ],
      [
        "đ",
        "ư"
      ],
      [
        "h",
        "ọ"
      ],
      [
        "c",
        "á"
      ],
      [
        "â",
        "y"
      ],
      [
        "m",
        "uốn"
      ],
      [
        "u",
        "y"
      ],
      [
        "n",
        "ày"
      ],
      [
        "ầ",
        "n"
      ],
      [
        "đi",
        "ều"
      ],
      [
        "tr",
        "ong"
      ],
      [
        "ng",
        "ười"
      ],
      [
        "đ",
        "ể"
      ],
      [
        "a",
        "o"
      ],
      [
        "đ",
        "ang"
      ],
      [
        "ph",
        "ải"
      ],
      [
        "ằ",
        "ng"
      ],
      [
        "ì",
        "nh"
      ],
      [
        "m",
        "a"
      ],
      [
        "b",
        "iết"
      ],
      [
        "ữ",
        "ng"
      ],
      [
        "c",
        "ả"
      ],
      [
        "nh",
        "ững"
      ],
      [
        "ma",
        "r"
      ],
      [
        "mar",
        "y"
      ],
      [
        "ợ",
        "c"
      ],
      [
        "a",
        "y"
      ],
      [
        "đư",
        "ợc"
      ],
      [
        "kh",
        "i"
      ],
      [
        "nh",
        "ư"
      ],
      [
        "r",
        "a"
      ],
      [
        "v",
        "ề"
      ],
      [
        "ngh",
        "ĩ"
      ],
      [
        "r",
        "ằng"
      ],
      [
        "và",
        "o"
      ],
      [
        "ư",
        "ớ"
      ],
      [
        "r",
        "ất"
      ],
      [
        "a",
        "n"
      ],
      [
        "t",
        "i"
      ],
      [
        "nh",
        "i"
      ],
      [
        "gi",
        "ờ"
      ],
      [
        "t",
        "ố"
      ],
      [
        "ế",
        "t"
      ],
      [
        "ơ",
        "n"
      ],
      [
        "ă",
        "n"
      ],
      [
        "ậ",
        "t"
      ],
      [
        "đ",
        "ây"
      ],
      [
        "th",
        "ấy"
      ],
      [
        "ướ",
        "c"
      ],
      [
        "ơ",
        "i"
      ],
      [
        "iệ",
        "c"
      ],
      [
        "m",
        "ình"
      ],
      [
        "à",
        "o"
      ],
      [
        "ậ",
        "n"
      ],
      [
        "í",
        "ch"
      ],
      [
        "à",
        "n"
      ],
      [
        "ờ",
        "ng"
      ],
      [
        "â",
        "u"
      ],
      [
        "ầ",
        "u"
      ],
      [
        "nh",
        "à"
      ],
      [
        "x",
        "e"
      ],
      [
        "ỏ",
        "i"
      ],
      [
        "s",
        "ự"
      ],
      [
        "b",
        "ị"
      ],
      [
        "s",
        "ố"
      ],
      [
        "v",
        "iệc"
      ],
      [
        "o",
        "n"
      ],
      [
        "à",
        "i"
      ],
      [
        "n",
        "ào"
      ],
      [
        "nhi",
        "ều"
      ],
      [
        "l",
        "ại"
      ],
      [
        "t",
        "ừ"
      ],
      [
        "th",
        "ích"
      ],
      [
        "à",
        "nh"
      ],
      [
        "s",
        "á"
      ],
      [
        "t",
        "iế"
      ],
      [
        "a",
        "u"
      ],
      [
        "ch",
        "uy"
      ],
      [
        "ọ",
        "i"
      ],
      [
        "ng",
        "ày"
      ],
      [
        "ứ",
        "c"
      ],
      [
        "ệ",
        "n"
      ],
      [
        "á",
        "c"
      ],
      [
        "à",
        "ng"
      ],
      [
        "tố",
        "t"
      ],
      [
        "h",
        "ơn"
      ],
      [
        "ắ",
        "t"
      ],
      [
        "c",
        "on"
      ],
      [
        "ă",
        "m"
      ],
      [
        "b",
        "ao"
      ],
      [
        "n",
        "ên"
      ],
      [
        "h",
        "o"
      ],
      [
        "ự",
        "c"
      ],
      [
        "ư",
        "ờng"
      ],
      [
        "ò",
        "ng"
      ],
      [
        "ch",
        "ỉ"
      ],
      [
        "ê",
        "u"
      ],
      [
        "c",
        "ần"
      ],
      [
        "â",
        "n"
      ],
      [
        "ư",
        "a"
      ],
      [
        "ữ",
        "a"
      ],
      [
        "cá",
        "i"
      ],
      [
        "họ",
        "c"
      ],
      [
        "ô",
        "n"
      ],
      [
        "ề",
        "n"
      ],
      [
        "c",
        "ông"
      ],
      [
        "u",
        "ộ"
      ],
      [
        "t",
        "ại"
      ],
      [
        "ừ",
        "ng"
      ],
      [
        "ú",
        "c"
      ],
      [
        "á",
        "o"
      ],
      [
        "á",
        "i"
      ],
      [
        "i",
        "ể"
      ],
      [
        "tiế",
        "ng"
      ],
      [
        "ắ",
        "ng"
      ],
      [
        "ch",
        "iế"
      ],
      [
        "tr",
        "ên"
      ],
      [
        "i",
        "ên"
      ],
      [
        "ấ",
        "n"
      ],
      [
        "s",
        "ao"
      ],
      [
        "ả",
        "y"
      ],
      [
        "ú",
        "p"
      ],
      [
        "th",
        "ực"
      ],
      [
        "qu",
        "a"
      ],
      [
        "ế",
        "u"
      ],
      [
        "th",
        "ế"
      ],
      [
        "ắ",
        "c"
      ],
      [
        "tr",
        "ước"
      ],
      [
        "chuy",
        "ện"
      ],
      [
        "i",
        "nh"
      ],
      [
        "đ",
        "ầu"
      ],
      [
        "đ",
        "ề"
      ],
      [
        "uộ",
        "c"
      ],
      [
        "ổ",
        "i"
      ],
      [
        "th",
        "ời"
      ],
      [
        "gi",
        "úp"
      ],
      [
        "n",
        "ếu"
      ],
      [
        "ố",
        "i"
      ],
      [
        "ph",
        "á"
      ],
      [
        "ử",
        "a"
      ],
      [
        "m",
        "ọi"
      ],
      [
        "ặ",
        "p"
      ],
      [
        "th",
        "ứ"
      ],
      [
        "cá",
        "c"
      ],
      [
        "t",
        "ất"
      ],
      [
        "th",
        "ành"
      ],
      [
        "h",
        "ỏi"
      ],
      [
        "th",
        "ật"
      ],
      [
        "ỗ",
        "i"
      ],
      [
        "b",
        "ất"
      ],
      [
        "đ",
        "á"
      ],
      [
        "ặ",
        "t"
      ],
      [
        "g",
        "ặp"
      ],
      [
        "ả",
        "n"
      ],
      [
        "v",
        "ì"
      ],
      [
        "cả",
        "m"
      ],
      [
        "ắ",
        "n"
      ],
      [
        "ti",
        "n"
      ],
      [
        "l",
        "u"
      ],
      [
        "số",
        "ng"
      ],
      [
        "u",
        "i"
      ],
      [
        "iệ",
        "n"
      ],
      [
        "b",
        "ắt"
      ],
      [
        "n",
        "ăm"
      ],
      [
        "kh",
        "ó"
      ],
      [
        "ồ",
        "i"
      ],
      [
        "ì",
        "n"
      ],
      [
        "ch",
        "ưa"
      ],
      [
        "đ",
        "ộ"
      ],
      [
        "ọ",
        "ng"
      ],
      [
        "nh",
        "ất"
      ],
      [
        "ư",
        "ợ"
      ],
      [
        "n",
        "ay"
      ],
      [
        "c",
        "ứ"
      ],
      [
        "nh",
        "ìn"
      ],
      [
        "ngh",
        "e"
      ],
      [
        "ù",
        "ng"
      ],
      [
        "y",
        "êu"
      ],
      [
        "i",
        "n"
      ],
      [
        "ậ",
        "y"
      ],
      [
        "ng",
        "o"
      ],
      [
        "l",
        "ớ"
      ],
      [
        "x",
        "ảy"
      ],
      [
        "ti",
        "ền"
      ],
      [
        "gi",
        "an"
      ],
      [
        "ạ",
        "nh"
      ],
      [
        "t",
        "u"
      ],
      [
        "ì",
        "m"
      ],
      [
        "ô",
        "m"
      ],
      [
        "u",
        "a"
      ],
      [
        "uố",
        "ng"
      ],
      [
        "ậ",
        "p"
      ],
      [
        "m",
        "à"
      ],
      [
        "v",
        "ui"
      ],
      [
        "đ",
        "ừng"
      ],
      [
        "h",
        "ã"
      ],
      [
        "c",
        "uộc"
      ],
      [
        "í",
        "nh"
      ],
      [
        "kh",
        "ác"
      ],
      [
        "t",
        "ìm"
      ],
      [
        "chiế",
        "c"
      ],
      [
        "qu",
        "á"
      ],
      [
        "v",
        "ấn"
      ],
      [
        "ă",
        "ng"
      ],
      [
        "h",
        "ôm"
      ],
      [
        "nh",
        "ận"
      ],
      [
        "h",
        "ai"
      ],
      [
        "hã",
        "y"
      ],
      [
        "tr",
        "ở"
      ],
      [
        "ư",
        "ơ"
      ],
      [
        "c",
        "âu"
      ],
      [
        "đ",
        "ồ"
      ],
      [
        "ươ",
        "ng"
      ],
      [
        "ph",
        "òng"
      ],
      [
        "ạ",
        "c"
      ],
      [
        "b",
        "a"
      ],
      [
        "đ",
        "ị"
      ],
      [
        "qu",
        "y"
      ],
      [
        "v",
        "iên"
      ],
      [
        "l",
        "ên"
      ],
      [
        "ch",
        "ơi"
      ],
      [
        "cá",
        "ch"
      ],
      [
        "t",
        "ự"
      ],
      [
        "s",
        "au"
      ],
      [
        "ẫ",
        "n"
      ],
      [
        "á",
        "n"
      ],
      [
        "ê",
        "m"
      ],
      [
        "l",
        "ời"
      ],
      [
        "m",
        "ua"
      ],
      [
        "á",
        "y"
      ],
      [
        "sá",
        "ch"
      ],
      [
        "b",
        "u"
      ],
      [
        "như",
        "ng"
      ],
      [
        "u",
        "ng"
      ],
      [
        "b",
        "ằng"
      ],
      [
        "â",
        "m"
      ],
      [
        "h",
        "iể"
      ],
      [
        "h",
        "àng"
      ],
      [
        "ộ",
        "i"
      ],
      [
        "c",
        "ùng"
      ],
      [
        "đ",
        "âu"
      ],
      [
        "b",
        "ây"
      ],
      [
        "qu",
        "an"
      ],
      [
        "tố",
        "i"
      ],
      [
        "l",
        "o"
      ],
      [
        "c",
        "ửa"
      ],
      [
        "ò",
        "n"
      ],
      [
        "c",
        "ố"
      ],
      [
        "xe",
        "m"
      ],
      [
        "ch",
        "ắc"
      ],
      [
        "x",
        "in"
      ],
      [
        "lớ",
        "n"
      ],
      [
        "nh",
        "au"
      ],
      [
        "l",
        "ần"
      ],
      [
        "l",
        "úc"
      ],
      [
        "kh",
        "á"
      ],
      [
        "đị",
        "nh"
      ],
      [
        "ợ",
        "i"
      ],
      [
        "ấ",
        "u"
      ],
      [
        "ả",
        "o"
      ],
      [
        "ụ",
        "c"
      ],
      [
        "th",
        "eo"
      ],
      [
        "b",
        "o"
      ],
      [
        "v",
        "ậy"
      ],
      [
        "phá",
        "p"
      ],
      [
        "ú",
        "t"
      ],
      [
        "m",
        "ới"
      ],
      [
        "g",
        "ọi"
      ],
      [
        "n",
        "ữa"
      ],
      [
        "e",
        "n"
      ],
      [
        "ặ",
        "c"
      ],
      [
        "c",
        "òn"
      ],
      [
        "l",
        "òng"
      ],
      [
        "ngo",
        "ài"
      ],
      [
        "ư",
        "ở"
      ],
      [
        "to",
        "n"
      ],
      [
        "ng",
        "ay"
      ],
      [
        "tr",
        "ả"
      ],
      [
        "n",
        "ước"
      ],
      [
        "ú",
        "ng"
      ],
      [
        "kh",
        "ỏi"
      ],
      [
        "s",
        "inh"
      ],
      [
        "ố",
        "ng"
      ],
      [
        "tr",
        "ẻ"
      ],
      [
        "ta",
        "y"
      ],
      [
        "ưở",
        "ng"
      ],
      [
        "th",
        "ường"
      ],
      [
        "á",
        "t"
      ],
      [
        "lu",
        "ôn"
      ],
      [
        "c",
        "ũ"
      ],
      [
        "ng",
        "ủ"
      ],
      [
        "t",
        "uy"
      ],
      [
        "ứ",
        "ng"
      ],
      [
        "m",
        "ất"
      ],
      [
        "m",
        "ẹ"
      ],
      [
        "c",
        "ầu"
      ],
      [
        "gi",
        "a"
      ],
      [
        "b",
        "ỏ"
      ],
      [
        "b",
        "ản"
      ],
      [
        "uố",
        "i"
      ],
      [
        "nh",
        "ật"
      ],
      [
        "c",
        "uốn"
      ],
      [
        "s",
        "ton"
      ],
      [
        "bo",
        "ston"
      ],
      [
        "ho",
        "àn"
      ],
      [
        "đư",
        "a"
      ],
      [
        "ọ",
        "c"
      ],
      [
        "ệ",
        "t"
      ],
      [
        "b",
        "ộ"
      ],
      [
        "b",
        "ữa"
      ],
      [
        "v",
        "ẻ"
      ],
      [
        "g",
        "ái"
      ],
      [
        "ấ",
        "p"
      ],
      [
        "kh",
        "o"
      ],
      [
        "đư",
        "ờng"
      ],
      [
        "m",
        "áy"
      ],
      [
        "b",
        "ài"
      ],
      [
        "r",
        "ời"
      ],
      [
        "quy",
        "ết"
      ],
      [
        "ch",
        "i"
      ],
      [
        "l",
        "ỗi"
      ],
      [
        "tr",
        "ường"
      ],
      [
        "k",
        "ết"
      ],
      [
        "đ",
        "ợi"
      ],
      [
        "sá",
        "ng"
      ],
      [
        "ẹ",
        "p"
      ],
      [
        "uố",
        "c"
      ],
      [
        "e",
        "m"
      ],
      [
        "v",
        "ẫn"
      ],
      [
        "l",
        "ý"
      ],
      [
        "ch",
        "ắn"
      ],
      [
        "hiể",
        "u"
      ],
      [
        "ụ",
        "ng"
      ],
      [
        "h",
        "iện"
      ],
      [
        "l",
        "ấy"
      ],
      [
        "gi",
        "á"
      ],
      [
        "k",
        "ỳ"
      ],
      [
        "g",
        "h"
      ],
      [
        "á",
        "nh"
      ],
      [
        "tr",
        "ai"
      ],
      [
        "v",
        "ọng"
      ],
      [
        "độ",
        "ng"
      ],
      [
        "th",
        "o"
      ],
      [
        "g",
        "ắng"
      ],
      [
        "ạ",
        "y"
      ],
      [
        "ớ",
        "m"
      ],
      [
        "ầ",
        "m"
      ],
      [
        "ch",
        "ính"
      ],
      [
        "s",
        "ớm"
      ],
      [
        "n",
        "ơi"
      ],
      [
        "c",
        "uối"
      ],
      [
        "d",
        "o"
      ],
      [
        "đ",
        "àn"
      ],
      [
        "tu",
        "ần"
      ],
      [
        "ọ",
        "n"
      ],
      [
        "đồ",
        "ng"
      ],
      [
        "à",
        "u"
      ],
      [
        "t",
        "âm"
      ],
      [
        "ẩ",
        "n"
      ],
      [
        "đ",
        "ọc"
      ],
      [
        "đá",
        "nh"
      ],
      [
        "g",
        "ần"
      ],
      [
        "tr",
        "ời"
      ],
      [
        "a",
        "m"
      ],
      [
        "đ",
        "úng"
      ],
      [
        "ứ",
        "a"
      ],
      [
        "ó",
        "ng"
      ],
      [
        "đ",
        "ẹp"
      ],
      [
        "d",
        "ự"
      ],
      [
        "m",
        "ai"
      ],
      [
        "ắ",
        "m"
      ],
      [
        "th",
        "u"
      ],
      [
        "to",
        "àn"
      ],
      [
        "gi",
        "ải"
      ],
      [
        "ả",
        "nh"
      ],
      [
        "đ",
        "ặt"
      ],
      [
        "th",
        "ức"
      ],
      [
        "ị",
        "ch"
      ],
      [
        "ch",
        "a"
      ],
      [
        "th",
        "ư"
      ],
      [
        "d",
        "ụng"
      ],
      [
        "m",
        "ặt"
      ],
      [
        "ho",
        "ạ"
      ],
      [
        "h",
        "ôn"
      ],
      [
        "ch",
        "ết"
      ],
      [
        "i",
        "m"
      ],
      [
        "b",
        "ố"
      ],
      [
        "é",
        "t"
      ],
      [
        "ng",
        "ồi"
      ],
      [
        "đ",
        "ều"
      ],
      [
        "ừ",
        "a"
      ],
      [
        "l",
        "ắng"
      ],
      [
        "gi",
        "ữ"
      ],
      [
        "và",
        "i"
      ],
      [
        "s",
        "ai"
      ],
      [
        "m",
        "ỗi"
      ],
      [
        "iế",
        "n"
      ],
      [
        "cũ",
        "ng"
      ],
      [
        "ph",
        "í"
      ],
      [
        "b",
        "é"
      ],
      [
        "ồ",
        "n"
      ],
      [
        "t",
        "ên"
      ],
      [
[...]
